#version: 0.2 - Trained by `huggingface/tokenizers`
á »
á º
Ġ t
n g
Ġ c
Ã ł
Ġ Ä
ĠÄ ĳ
Ġ n
h á»
h Ã
Ġ v
Ġ l
Æ °
Ġ m
Ġ ,
Ġ b
Ã ³
Ġ .
Ġ k
i á»
h áº
Ã ´
Ã ¡
n h
Ġ s
Ġt r
Æ° á»
áº ¡
á» Ļ
Ġ ng
Ġ g
Ġl Ãł
áº ¿
Ã´ i
Ġv Ãł
Ġ h
Ġt há»
áº £
Ã ª
Ġ r
hÃ º
á»Ļ t
Ġ p
Ġ d
ĠÄĳ á»
Ġt Ã´i
Ġn h
q u
Ġc á»
Ġv á»
Ġm á»Ļt
áº ¥
Ġc Ã³
Ġk hÃ
Ġc h
hÃº ng
Ãª n
Ġc Ã¡
Ġt h
Ã ¬
¯ ng
Ġn há»
á» ĳ
iá» ĩ
Ã ¢
Ġ há»
Ŀ i
Æ ¡
Ľ i
Ġnhá» ¯ng
Ġt háº
Ġcá» §
Ġc hÃºng
Ġcá»§ a
´ ng
i áº¿
Ġt á»
áº¡ n
Ġt a
Ã £
ĠcÃ¡ c
Ġn Ãł
Ġ qu
iá» ģ
ĠkhÃ ´ng
Æ°á» £
Ġn Ã³
á» Ł
áº §
o ng
áº Ń
Æ°á» Ŀi
Ġg i
á» ±
ĠÄĳ Ã³
Ġ x
iá»ģ u
Ġng Æ°á»Ŀi
Ġb áº¡n
Ġk h
áº¥ t
áº¡ i
Ġtr ong
Ġthá» ĥ
Æ°á»£ c
u y
ĠnÃł y
ĠÄĳ Ã£
Ġc há»
Ä ĥ
ĠÄĳ Æ°á»£c
Ġt hÃ
Ġnh Æ°
Ã¢ y
Ġhá» į
o t
Ġ &
Ġp háº
Ġvá» Ľi
Ġng h
qu ot
Ġch o
a n
a y
V Ãł
Ġr a
Ġs áº
Ġs á»±
Ġg iá»
Ġm Ãł
ĠlÃł m
c h
Ã´ ng
áº ±
Ġn háº
a ng
Ġp hÃ
i Ãªn
á» į
Ġ á»Ł
áº± ng
ĠÄĳá» ĥ
Ġc áº£
Ġvá» ģ
Ã¬ nh
Ã Ń
Ġsáº ½
Ġb á»
u á»ĳ
Æ¡ n
iá» ĥ
iáº¿ t
£ i
áº ·
ĠÄĳ iá»ģu
Ä ©
Ġ T
Ġtháº ¿
Ġl á»
Ġh o
o n
Æ°á» Ľ
áº¿ n
áº§ u
áº ¯
Ġtá» «
Ãł nh
Ġkh i
© ng
uy á»
a nh
Ã ¹
ĠkhÃ ¡
Ġs á»ĳ
ĠnÃ³ i
i nh
± c
áº§ n
a o
Ġd á»
a i
Ġc háº
© c
iá»ĩ n
Ġc hÃ
Ã º
Ġn Äĥ
ĠÄĳ áº¿n
Ġtháº ¥
Ġ 1
Ġ hÃ
Ġ ?
Ġpháº £i
Ġn hÃ
iá»ĩ c
Æ°á» Ŀ
Æ°á»Ľ c
Ã ²
Ä Ĳ
Ġr áº±ng
Æ°á»Ŀ ng
ĠvÃł o
Ãł n
Ġg Ã¬
ĠÄĳ ang
Ġm á»
Ġv iá»ĩc
a u
Ġl áº¡i
Ġv áºŃ
Ġtháº¥ y
Ġngh Ä©
ĠÄĳ á»Ļ
Ġr áº¥t
ĠcÃ¡c h
Ã ½
Ġn á»
i n
Ġh Æ¡n
Ġ C
áº¥ y
Ġnh iá»ģu
Æ° Æ¡
Ãł i
¢ n
Ġ háº
T Ã´i
Ã¹ ng
áº£ n
ĠÄĳ áº§u
Ġthá» ±c
iáº¿ n
Æ°Æ¡ ng
¥ t
ĠÄĳ Ã¢y
Ġ -
Ġhá»į c
Ġc on
ĠkhÃ¡ c
ķ i
á»į i
Ġchá» ī
Ã¢ u
áº¡ o
Ġs á»
Ġc Ã´ng
Ġtr Ãªn
áº¿ u
á» ĵ
ĠcÃ¡ i
Ã¡ c
ĠnÃł o
Ġb iáº¿t
Ġv Ã¬
áº¿ t
ĠÄĳá» ģ
u ng
uyá» ĩ
ĠchÃ Ń
Ġp há»
Ãł ng
iá»ĩ u
ĠphÃ ¡
N h
ĠnÄĥ m
Å ©ng
Æ¡ i
uá»ĳ n
ĠÄĳ i
Ġthá» ©
Ġth Ãłnh
Ġdá» ¥
á»Ļ c
Ġ :
Ġ- -
áº¯ t
Æ° ng
Ġc Å©ng
Ġnh Ãł
u á»Ļc
C hÃºng
Ġbá» ĭ
ĳ ng
Ġt o
Ġ M
áº »
Ġkh o
Ġm uá»ĳn
Ġqu an
Ġs Ã¡
Ġtháº Ń
e m
e o
Ġm Ã¬nh
Ġnháº Ń
h i
Ġtr á»
¯ a
Ġnháº ¥t
Ġk á»
Ġ N
Nh Æ°ng
Æ°á» Ł
áº «
Ġt áº¡o
Ġ B
Æ°á»Ł ng
ĠÄĳá»Ļ ng
Ġt á»ĳ
ĠnhÆ° ng
Ġgiá» Ľi
ĠchÃŃ nh
Ġl o
Ġn Ãªn
á»Ł i
Ġgi áº£
ĠváºŃ y
ģ n
Ãł y
áº· t
§ n
Ġlá» Ľ
¬ nh
Ãª u
Æ° a
ĠhÃ ¬nh
Ã² n
ı i
iá»ĥ u
Ġh iá»ĩn
Ġgiá» Ŀ
Ġsá»ĳ ng
Ã¢ n
Ġt ÃŃ
uyá»ĩ n
Ġt áº¡i
Ġt iáº¿
ĠnháºŃ n
Ġm á»įi
Ã¡ i
Æ°á»£ ng
u á»
áº¥ n
Ġn áº¿u
e r
Ġ H
Ġc uá»Ļc
Ã ©
Ġqu y
¬ n
a m
Ġc áº§n
ĥ n
Ã¡ n
Ġh ay
Ġtá» ±
áº· c
áºŃ p
Ġ 2
á»ĵ i
u áºŃ
ĠthÃ ¬
Ã¢ m
ĠÄĳá» ĭ
0 0
ĠÄĳá» ĵ
Ġt áº¥t
Ġ Ã´ng
ĠÄ Ĳ
Ġ áº¥y
Ġb á»Łi
Ġtá» Ľi
e n
Ġth eo
Ġb áº¯t
Ġc Ã²n
Ġlá»Ľ n
iá»ĥ m
ĠnhÃ ¬n
Ġ A
ĠÄĳ Ã¡
Ġc Ã¹ng
áº« n
Ġb áº±ng
Ġcáº£ m
Ġ Ã½
iá»ĥ n
Ãº c
Ġt áº¿
Ġdá»¥ ng
ĠtháºŃ t
Ġs au
Ġl Ãªn
Ġ anh
Ġcá» ©
Ġgi Ã¡
Ġc Ã¢u
Ġb áº£n
Ġt in
Ġs ao
Ġqu a
Ġthá» Ŀi
Ġch uyá»ĩn
Ġk há»
Ġtr á»Ł
Ġng Ãły
Ġ S
Ã´ n
ĠnhÃ ¢n
iá»ĩ m
Ġb á»Ļ
Ġhá» Ļ
Ġc Æ¡
Äĥ n
Ġs inh
Ĺ i
Ġk háº
ĳ i
¥ c
áº£ nh
áº£ ng
ĠthÃ Ń
ĠnÄĥ ng
Ġsá» Ń
Ġn Æ°á»Ľc
Ġtr Æ°á»Ľc
ĠphÃ¡ t
i a
ĠÄĳá» ķi
iá»ĩ t
Ġgi a
Ġto Ãłn
Ġm Ã¡
Ã¬ m
Ġn Æ¡i
Ġpháº §n
Ġd o
ĠthÃ ´ng
Ġd á»±
Ġt Ã¬m
Ġnh au
Ġmá» Ľi
a r
Ġth ay
Ġ y
ĠÄĳá»ĭ nh
Ġv áº¥n
Ġtr Æ°á»Ŀng
Ġhá» ĩ
Ġng há»
Ġnh iÃªn
Ġp h
ĠtÃŃ nh
iá» ħ
Ġtr Ã¬nh
Ġm áº¡
Ġtá»ĳ t
Ġt Æ°á»Łng
Ġk áº¿t
Äĥ ng
ĠváºŃ t
Ġh Ãłng
¿ t
Ġhá» ıi
Ġl Ã½
Ġ P
Ġ áº£nh
Ġháº ¡
Ġ K
£ p
á»± c
ĠmÃ¡ y
á»ĳ i
ĠT Ã´i
uáºŃ t
ĠthÃ ¡
Ġ L
Ġhá» £p
áº¡ t
Ġm áº·t
¯ c
Ġtiáº¿ p
N Ã³
Ġh Ãłnh
Ġná» ¯a
Ġk inh
³ ng
ÄĲ Ã¢y
Ġgi an
Ġtr á»į
Ġhá»Ļ i
Ġthá» ©c
áºŃ y
Ń a
áº ¹
Ġch iáº¿
Ġvá» ĭ
áº¥ u
uy Ãªn
Ãł o
Ġth iáº¿t
Ġ á»
Ġr á»ĵi
Ġl iá»ĩu
Ġx em
Ġtrá»į ng
uá» ķi
Ġc Ã´
Ġho Ã¡
ĠthÃŃ ch
áº ©
ĠÄĳá»ĵ ng
ĩ nh
áº£ o
iá»ħ n
Ġgiáº£ i
Ġtr áº»
i Ãªu
Ġl Æ°á»£ng
Ġh ai
Ġ ai
ĠÄĳ o
Ġqu Ã¡
Ġng á»
Ġth Æ°á»Ŀng
Ġb áº¥t
ĠvÃł i
ĠÄĳá»ģ u
Ġt iÃªn
áº ½
Ġ G
á»Ļ ng
ĠsÃ¡ ng
ĠÄĳá» ĳi
Ġtr áº£
Ġh iá»ĥu
Ġn ay
Ġt Ã¢m
Ġl áº§n
Ġgiá» ĳng
V Ã¬
ÄĲ Ã³
áº£ y
Ġlo áº¡i
Ġb ao
Ġcá»© u
Ġt hÃº
Ġbá» ĩnh
ĭ ch
Ġthá» ĳng
B áº¡n
Ã² ng
Ġ 3
Ġv iÃªn
Ãº ng
£ y
iá»ģ n
ĠT r
ĠÄĳ iá»ĥm
Ġnghá» ĩ
Ġng o
ĠnghÄ© a
hÃº t
Ġg á»įi
Ġnhá» ı
V áºŃy
áº ¯ng
ĠÄĳ Æ°a
Ġho Ãłn
Ġt Æ°Æ¡ng
ĠÄĳ Æ°á»Ŀng
Ġx u
Ġngh iá»ĩm
Ġqu áº£
o r
Ġt Ã¡c
Ġ D
uyá» ĥn
Ġv áº«n
uyá»ĩ t
T r
Ġx áº£y
Äĥ m
Ġchiáº¿ c
Å ©
á»ĳ c
Ġcá» ĳ
uyá» ģn
M á»Ļt
Ġth uáºŃt
Ġb iá»ĩt
Ġ ÃŃ
ĠÄĳ áº¡i
há» ¯ng
Ġd Ã¹ng
a l
Ġtá»« ng
Ġd Ã¢n
Ġho áº·c
Ġb Ãªn
Ġl Ãºc
Ġtr iá»ĥn
iá»ĩ p
Ġch uyá»ĥn
Ġd iá»ħn
Ã£ o
Ãº p
« ng
Ġtrá» ĭ
Ġquy áº¿t
Ġc ao
Ġngh e
Ġth u
ĠÄ ĥn
áº¯ c
u Ã´n
uá»ĳ c
Ġt uyá»ĩt
Ġd áº¡
Ġmá» Ĺi
Ġc áº§u
uá»ĳ i
Ġtá» ķ
Ġkho áº£ng
Ġl á»±c
Ġphá» ¥
Ġv i
Ġk áº¿
Ġcháº ¥t
Ġ Ã¡
Ġgi Ãºp
i m
Ġb Ã¡
áº¥ p
Ġ em
C Ã³
ĠÄĳ áº¥t
Ġlá» Ŀi
ĠgiÃ¡ o
Ġ Æ¡n
² ng
e s
© a
Ã µ
Ġná» ¯
Ġchá» §
Ġtr ung
áº© n
Ġb áº£o
H á»į
Ġt Ã¬nh
Ġháº ¿t
Ġkháº £
Ġt iáº¿n
ĠphÃ ²ng
o s
Æ°á» Ľi
Ġ R
Ġch Æ°a
hÃ ´ng
e l
Ġx e
Ġngh iÃªn
Ġxu áº¥t
Æ°á»Ľ ng
Ġm ang
á» ¹
Ġ VÃł
Ġl iÃªn
áº¯ n
Ġt uá»ķi
ĠkhÃ ³
ĠphÃ ¢n
¥ p
Ġtr anh
Ġb Ãłi
ĠÄĳ Æ¡n
ĠÄĳ iá»ĩn
Ġtr uyá»ģn
Ġt áºŃp
Ġn Ã£o
Ġb Ã¬nh
Ġph Æ°Æ¡ng
ĠÄĳ Ãºng
© m
ĠÄĳ áº·t
ÄĲ iá»ģu
Ġt Æ°á»£ng
i Ãª
u á»ĵ
Ġt iá»ģn
Ġy Ãªu
Ġb iáº¿n
uá»ĳ ng
Ġgiá» ¯a
Ġta y
Ġs áº£n
Ġtiáº¿ ng
© p
Ġth o
Ġb Ã©
áº· p
Ġquy á»
ĠhÃ £y
Ġng ay
áºŃ n
Ġkho a
áº¡ c
áº§ m
Ġbá» ı
Ġl áº¥y
N áº¿u
Ġtr ÃŃ
Ġg áº§n
e t
Ġx Ã£
N g
N há»¯ng
Ġnháº ¡
Ġho áº¡t
Ġch iáº¿n
Ġthá» ĭ
Ġkh u
ĠÄĳÃ¡ ng
ĠsÃ¡ ch
Ġp hi
Ġpháº ©m
ĠÄĳá» Ŀi
Ġ I
ĠthÃ ¢n
ĠphÃ¡ p
Ġh iá»ĩu
Ġc uá»ĳi
ĠkhÃ Ń
T háº
Ġ 5
Ã£ y
Ġm áº¥t
Ġch Æ¡i
Ġm inh
Ġsá» ©c
ĠhÃ ´
uy áº¿t
į ng
Ġká» ĥ
á»Ļ i
Ġs o
ĠM á»¹
Ġ V
uá»ĵ n
Ġmáº¡ nh
K hi
i s
Ġk ÃŃ
Ġngh iá»ĩp
Ġngo Ãłi
a t
Ã³ c
Ġbá» ©c
ĠÃŃ t
Ġd áº«n
Ġl áºŃp
Ġt Ãłi
« a
ĠÄĳ áº¥y
Ġm Ã´
¯ p
Ġlo Ãłi
Ġl uÃ´n
Ġká» ³
Ġr á»
Ġ Q
Ġ 4
Ġt inh
uáºŃ n
Ġphá» ĳ
Ġdá»± ng
Ġc á»Ļng
Ġx Ã¢y
Ã© t
Ġt iÃªu
Ġv Ã´
Ġchá» ©ng
Ġchá» į
Ġv Äĥn
Ġt Ãªn
Ġtá» Ń
Ġ Ã¢m
áºŃ t
Ġhá» ĵ
Ġh Æ°á»Ľng
i c
Ġ J
Ġthá» Ń
Ġnháº¡ c
Ġqu á»ĳc
Ġv iáº¿t
Ġchá» ©c
ĠÄĳ Ã¢u
Ġk iáº¿n
Ġng uyÃªn
a p
u a
Ġvá» Ŀi
Ġá» ©ng
Ġcháº ¿t
Ġquyá» ģn
Ġb a
Ġchá»į n
Ġgi áº£n
Ġcháº ¿
ĠÄĳ áº·c
Ġb á»ĳ
Ġ Ã
iáº¿ m
Ġt Æ°
Ġmáº¡ ng
Ġc áº¥p
Ġb Ãło
Ġtr iá»ĩu
Ġb Ãł
Ġs uy
³ m
Tr ong
ĠÄĳá» ©a
Ġtháº §n
Ġvá» ¥
Ġná» ģn
Ġt Äĥng
Ġl áº½
ĠÄĳ áº¡o
£ n
Ġkhá» ıi
áº£ m
áº¡ p
i l
á» Ń
Ġs Ä©
Ġd i
ĠmÃł u
a s
Ġch u
ĠÄĳÃ¡ nh
C Ã¡c
Ġm áº¹
Ġcá» ¥
Ġg áº·p
ĠthÃ¡ ng
áº¥ m
Ġd Æ°á»Ľi
Ġtá» ĵ
¯ n
i t
ª m
Ġc hÃºt
o l
Ġx uá»ĳng
áº¹ p
Ġ W
áº§ y
Ġg áº¯ng
Ã¢ ng
Ġqu anh
Ġ F
ĠnhÃ ³m
áºŃ u
Ġ. .
ĠphÃ ©p
Ġdá» ĭch
Ġm á»Ł
Ġx Ã¡c
Ġch ia
Ġ E
Ġkh iáº¿n
Ġvá» ±c
Ġ Ã¡n
ĠC hÃºng
Ġdá» ¯
¢ u
00 0
Ġ %
Ã¡ ch
Ġb ay
Ġth am
ĠthÃ ªm
Ã³ ng
ĠÄĳ Ãłn
Ġmá» ©c
Ġnh anh
Ġtr Ã²
Ġth uyáº¿t
Ġvá» įng
ĠthÃ ´
Ġqu ay
Ġc hÃº
Ġcá» ±c
Ġcháº ¡
Ġ1 0
Ġg Ã¢y
Ġr Ãµ
Ġdáº¡ ng
áº« u
Ġcáº£ nh
Ġng uá»ĵn
ĠA nh
Ġv Ã¹ng
ĠÄĳ áº¹p
Ã ¨
Ġho áº¡
Ġd Ã¹
Ġtá» ¥c
ĠbÃ¡ o
Ġgi Ã¡c
ĠsÃ¡ t
Ġx a
Ġc Ã¢y
Ġc Ãłng
Ġcháº ¯c
Ġdá» ħ
K hÃ´ng
v Ãł
Ã¡ t
Ġnhá» Ľ
áº¯ m
Ġb Ã¢y
ĠÄĳá» §
iÃª ng
ĠphÃ Ńa
B Ã¢y
Ġv ÃŃ
Æ° u
Ġtr ang
ĠhÃ´ m
Ġb iá»ĥu
Ġh Æ°á»Łng
Ġphi m
ĠÄĳo áº¡n
Ġd uy
Ġcháº ³ng
Ġchá» ĭ
Ġl áº¡
Ġ2 0
Ġk Ã¬
Ġ1 9
Ġ.. .
l e
Ġv Å©
Ġk iá»ĥm
Ġtr Ã¡i
Ġth Æ°Æ¡ng
ĠQ uá»ĳc
Ķ ng
§ ng
Ġd Ãłi
Ń t
t er
h o
ĠN g
Ġv Ã²ng
Ġl uáºŃn
Ġngá» ¯
Ġpháº £n
ĠÄĳ Ã´i
Ġt u
ĠÄĳ áº§y
áº£ i
T há»
uy áº¿n
Ġdá»¥ c
ĠÄĳ Ã¬nh
Ġlá» £i
Ġk ia
Ġgiáº£ m
Ġt y
ĠtháºŃ m
H Ã£y
Ġv u
Ġk iáº¿m
Ġvá» «a
Ġtr Äĥm
Ġth uá»ĳc
Ġlá» ĩ
ĠchÃ ¢n
ĠthÃ´ i
ĠtÃŃ ch
ĠTr ung
Ġth Æ°
u s
a c
ap os
an d
Æ°á» ¡
Ġ ;
Ġgi ao
iáº¿ u
Ġb Æ°á»Ľc
Ġl ai
Ġháº¡ n
Ãł u
Ġ 6
ĠÄĳ Ã´
Ġs Ã¢u
Tháº ¿
hÃ ¡
Ġtá» ī
Ġtráº£ i
Ġm Ã´i
iá»ģ m
Ġtrá» Ŀi
Ġtá»ĵ n
Ġd iá»ĩn
Ġto Ã¡n
Ġphá» ¥c
E D
Ġr á»Ļng
Ġgiá» ¯
ĠÄĳá»ĭ a
Ġth anh
Ġm Ã£
į c
Ġsá» £
Ġl Ã£
Ġl Ã²ng
Ġd Ãłnh
o m
uá»ĳ t
a d
Ġn á»ĳi
Ġth uá»Ļc
Ġr iÃªng
Ġháº §
ĠÄĳá» ©ng
ĠÄĳo Ã¡n
Ġch i
Ġvá» ĩ
Ġt áº¡p
Ġdáº¡ y
Ġm áº¯t
Ġphá» §
Ġ !
Ġv áº»
Ġmá» ¥c
Ġm áº«u
Ġ O
Ġná» ķi
Ġsáº »
ĠÄĳ áº¡t
ĠT h
Ġs ai
Ġc Äĥn
Ġká» ¹
ĠthÃº c
Ġl uáºŃt
Ġng hÃ
Ġtá»ĳ i
Ġx ung
o b
ĠP hi
u r
ĠÃ¡ nh
Ġlá» ĭch
Ġb Ãłn
Ġ Y
ĠÄĳá» įc
Ġlá»Ľ p
ĠC h
Ġy áº¿u
Ġká» ·
Ãł m
Ġg Ã¡i
Ġtrá» ¥
Ġvu i
Ġkháº ¯p
Ġkho áº»
Ġtr Ã´ng
Ġng á»ĵi
Ġcháº¡ y
Ġt iáº¿t
ĠphÃ Ń
Ġch Æ°Æ¡ng
Ġp hÃºt
Ġk Ã©
Ġc áºŃu
áº· ng
Ġc uá»ĳn
Æ°á»£ t
Ġtrá» £
Ġm á»ĳi
Ġb uá»ķi
e w
hÃº c
Ġsáº ¯c
Ġs uá»ĳt
Ġcháº ¯n
- -
Ġháº§ u
Ġs Æ°
Ġk iá»ĩn
á»± a
r a
Ġ 7
Ġm Ã¹
Ã Ķng
Ġtr Ãºc
Ġch ung
Ġb iá»ĥn
ĠH o
Ġdo anh
l i
Ġm ua
Ġng Ã´n
Ġcá» Ńa
Ġ 8
Ġk iá»ĥu
ĠT ED
Ġtho áº¡i
Ġ 9
Ġ áº
Ġs á»Ł
ĠváºŃ n
ĠcÃ¡ nh
ĠkhÃ¡ m
e b
Ġng áº¡c
Ġtu áº§n
Ġtháº £
Ġx Ã©t
Ġb Ã¡n
Ġ& #
Ġx Ãºc
Ġr Ãłng
Ġl Ã¢u
o i
Ġpháº ¡
Ġh iá»ĥm
o o
ĠchÃ ¡
Ġhá»ĵ i
áº± m
Ġl ÃŃ
áº¡ nh
G iá»
Ġc áº¥u
Ġchá» ¥p
Ãº t
ĠN Ã³
Ġnh iá»ĩm
Æ°á»¡ ng
A nh
Ġc ung
Ġch uyÃªn
á»į n
Ġth iÃªn
Ġphá» ©c
Ä© nh
ĠkÃŃ ch
Ġ2 00
Ġl a
Ġb Ã³ng
ĠnháºŃ p
Ġn áº±m
uá» ·
B á»Łi
áº¡ ng
ÄĲ á»
ĠB áº¡n
á»į c
Ġk áº»
ĠthÃ¡ i
Ġng Ã´i
Ġc áº¡nh
ĠÄĳá»Ļ c
¯ u
Ġv iá»ĩn
Ġg hi
Ġho Ãł
Ġháº¡ nh
Ġhá» ¯u
Ġchá» Ĺ
Ġng Ãłnh
áº¿ p
Ġchá» ©
Ġb Äĥng
ĠtháºŃ p
Ġg á»
Ġtr Æ°á»Łng
Ġkhá» §ng
Ġv áº½
ĠÃŃ ch
µ n
iÃª m
ĠÄĳ a
T h
X in
ı ng
Ġtr a
Ġb Ã¡c
háº ¿
Ġchu áº©n
Ġt áº¥m
Ġp hÃºc
Ġqu Ã½
Ġth iáº¿u
Ġchá»ĭ u
Ġhá» ģ
Ġx anh
ĠC hÃ
Ng Æ°á»Ŀi
Ġháº Ń
Ġtá» ĩ
Ġl áº¯ng
ĠhÃ ¡
Ġtr ai
áº© y
Ã¡ m
Ġtá» ©c
Ġsáº µn
Ġnh iÃªu
Ġkh Äĥn
Ġn iá»ĩm
áº¡ ch
S au
Ġ an
Ġpháº¡ m
r i
u n
ĠK hÃ´ng
Ġt Ã¡i
ĠÄĳ au
Ãº i
Ġd ung
Ġsáº ¯p
Ġh Æ¡i
ĠÃ¡ p
¥ n
Ġm áº·c
u Ã´i
r o
Ã³ n
Ãª m
Ġl áº¡c
á»ĳ ng
Ġchá» ĳng
T áº¥t
Ġtháº¥ t
Ġ NhÆ°ng
C áº£m
Ġm ong
Ġx á»Ń
ĠchÃ ¢u
Ġdá»± a
Ġcáº£ i
Nh Æ°
ĠÄĳÃ³ ng
á»Ń i
á»Ļ n
á» ŀ
Ġtr á»±c
Ġl á»±a
Ġb an
ĠN ew
V á»
ĠÄĳá»Ļ i
ĠháºŃ u
N Ãªn
Ġcá» ķ
« u
Ġm áºŃt
ĠbÃ¡ nh
Ġkhá» ķ
Ġtá»ķ ng
Ġd a
Ġkháº ¯c
Ġn á»Ļi
Ġv Æ°á»£t
Ġx in
Ġx áº¥u
T áº¡i
Ġg á»Ńi
Ġt áº§m
Ġto Ãł
© t
Ġ Ã´
Ġ áº©n
Ġd áº§n
Ġch Äĥm
Ġtá» ·
Ġhá» ©ng
Ġl Æ°u
Ġng uy
ÃŃ ch
ĠÄĲ á»
Ġd anh
Ġt im
Ġth iá»ĩn
Ġn áº¡n
Ġháº¡ t
Ġh y
Ġ3 0
¤ n
¨ o
r e
Ġtr áº¡ng
Ġnh iá»ĩt
ĠlÃ£ nh
Ġch iá»ģu
ĠÄĳ á»Ļt
Ã¡ nh
Ġn iá»ģm
Ġ w
C h
Ġd áº§u
Ġngo áº¡i
Ġt á»Ļi
n et
Ġch a
Ġnh iá»ħ
ĠnghÃ ¨o
Ġs ang
Ġc áºŃn
Ġchá» ¯a
Ġd áº¥u
Ġ1 00
ĠI n
Ġáº ¤n
Giá» Ŀ
ĠÄĳ áº¥u
Ġx o
ĠkÃŃ nh
Ġm ay
C há»
Ġ in
ĠS t
Ã¡ ng
Thá» ±c
Ġ ung
Ġná» Ĺi
ĠÄĲ Ã³
i d
ĠÄĳ áº©y
Ġá» ķ
ĠkÃ© o
Ġngá» §
Ġ5 0
ĠhÃ¡ t
ĠkhÃ¡ ch
ĠChÃ ¢u
Ġg hÃ
Ã£ i
Ġng Æ°á»£c
Ġthá» §
Ġ1 5
ĠthÃ¡ ch
Ġt áº¯c
ĠÄĳ en
ĠÄĲ á»Ļ
Ġgi áº¥y
iáº¿ p
Ġ Æ°á»Ľc
Ł i
Ġn uÃ´i
Ġg á»ĵ
Ġqu áº£n
Ġb áº¡i
± ng
ĠT Ã¢y
is t
ī nh
Ġcá» Ń
V Ã¢ng
Ġso Ã¡t
Ġm áº¯c
Ġchá» ¯
Ġngh i
Ġm Æ¡
Ġlá» Ĺi
a h
Ġná» Ńa
Ġt iá»ĩn
Ġhoáº¡ ch
i g
Ġl Ä©nh
t h
ĵ ng
Ġg iáº¿t
r an
Ġgá»ĵ m
Ġnhiá»ħ m
Ġtá»ĳ c
Ġháº¡ i
Ġd Æ°Æ¡ng
ÄĲá» ĥ
Ġc áº¯t
Ġkh iá»ĥn
Ãµ i
Ġt áº£
ter net
Ġg Ã³
Ġs Ã³c
o p
háº Ńt
Tháº Ńt
ĠÄĳá» ĳ
Ġtháº ³ng
Ġqu Ã¢n
ĠM á»Ļt
Ġ U
Ġb áº¡o
Ġd Ã¢y
e d
Ġqu en
ĠN há»¯ng
C Ã¡i
Ġc a
Ġb Ãły
á»ĵ ng
Ġkhá» ĳi
Ġt Ãłu
ĠÄĳ Ã´ng
Ġl Æ°á»Ľi
áº¯ p
Ġd Ã²ng
Ġb áº§u
ar d
Ġchiáº¿ u
i ng
Ġl Ã¡i
Ġngá» Ŀ
ĠÄĳ ÃŃch
ĠÄĳá» ©c
Ġnhá» Ŀ
ĠÄĳ Ãªm
Ġtháº¥ p
a g
Ġm Ãª
Ġg en
ĠphÃ ³ng
Ġc Æ°
Ġn iÃªn
ĠC Ã³
ĠÄĳá» ķ
Ġth i
Ġ X
Ġs Ãłng
Ġr á»ĳi
S á»±
Ġc Æ°á»Ŀi
Ġng áº¯n
Ġd Ãłng
Ġkh ai
Ġhá» Ĺ
Ġcháº ·
Ġt áºŃn
l o
Ġg á»ĳc
ĠÄĳá» ¡
Ġcháº ¥p
Ġx áº¿p
Ġn Ã´ng
Ġg áº¥p
ĠÄĳ em
Ġph ong
Ġb ÃŃ
ĠÄĲ Ã¢y
Ġgi Ã¢y
Ġká» ī
Ġs Ã¢n
Ġ /
Ġg áº¯n
Ġl áº¯m
Ġtr Ã¡ch
Ġbá»ĳ n
Ġv ai
ĠcÃ¡ o
Ġc Ã¢n
t on
Ġt Ã´n
Ġng Ãłn
ĠÄĳá» £i
9 1
C Ã´
Ń m
9 3
Ġs u
áº§ ng
e y
Ġpháº «u
Ã Ŀ
Ġ1 2
ĠÃ Ĥ
a b
Ġh Ãłi
Ġth Æ¡
Ġx uyÃªn
Ġch uyáº¿n
Ġdá» «ng
ĠA l
Ġnháº £y
T á»
Ń n
Ġs iÃªu
Ġthá» ¥
ĠT há»
Ġho a
M á»
Ġl ao
uá» Ĺi
Ġch im
a k
Ġnghá» ĭ
Ġk Ä©
Ġk Ã½
Ġgi ai
ĠmÃł n
Ġt áº£i
ĠH Ã£y
or k
Ġt áº§ng
Ġw eb
Ã¡ o
Ã¨ n
o h
ĠÄĳ áº£m
Ġ áº£o
Ġháº ¥p
Ġkhá» Łi
Ġphá» ķ
d eo
Ġchá»ī nh
Ġvi deo
a v
Ġt Ã¹
Ġng Äĥn
in e
Ġnháº ¯c
o u
Ġrá» «ng
Ä ĳ
ĳ n
³ n
¹ ng
Ġg Ã³c
Ġtháº £i
ĠY ork
iáº¿ ng
o c
ĠkhÃ¡ i
ĠN am
Ġn am
h an
Ġhá»Ļ p
Ġ hÃºt
Ġm Ã³n
Ġkh uÃ´n
s on
Ġngh iÃªm
ĠÃĤ u
Ġ Nh
Ġl uyá»ĩn
Ġá»ķ n
Ġc áºŃp
Ġk Ãª
ĠtÃŃ n
Ġl Ã¡
ĠIn ternet
Ġc oi
Ġgi Ãłu
ĠB áº¯c
Ġchu á»Ļt
ģ m
ĠÄĳá» ı
Ġgi Ãł
ob ot
Ġng Ã¢n
ĠÄĳÃ¡ m
Ġl iá»ĩt
M á»įi
Ġtrá» «
Ġt áº¥n
Ġt uyáº¿n
Ġh uá»·
Ġtháº ¯ng
Ġtr ao
ĠC hÃº
R á»ĵi
Ġpháº Ńn
Vá» Ľi
ĠT áº¡i
ĠG i
ĠH á»į
t e
Ġn áº·ng
Ġnh u
Ġx á»
Ġd áºŃy
ĠÄĳ áº£o
Ġm Ã´n
Ġta i
ĠN áº¿u
ĠnÃ³ ng
Ġchá» ©a
ĠK á»
il l
ĠchÃ¡ u
Ġháº ³n
T uy
Ġmá» ģm
D o
ĠHo a
ĠchÃ ³
Ġm áº¥y
Ã³ t
L Ãłm
Ġv Ã¢n
Ġs Ã³ng
ĠphÃ ¹
Ġb uá»Ļc
ĠmÃ¹ a
Chá» ī
ĠÄĳ iá»ĥn
ĠhÃ £i
Ġd Æ°á»¡ng
ĠchÃ ³ng
Ġmáº¡ ch
Ġrá» Ŀi
Ġ á»ĳng
ĭ p
Ġm áº½
Ġ1 8
ĠmÃ¡ u
Ġquyá» ĥn
£ o
Ġc Å©
Ġth iá»ĩu
Ġtr Ã¹ng
Ġt uá»
Ġchá»§ ng
ĠChÃº a
u m
Ġl inh
Ġm áº¯n
Ġtháº£ o
H o
Ġl á»Ļ
Ġs Æ¡
Ġd Ãµi
ĠkhÃ¡ n
áº¡ m
Ã² i
Ġsá»Ń a
V ÃŃ
ĠÄĳ iÃªn
Ġl áº§m
Ġlá» ĵ
t r
Ġ uá»ĳng
Ġvá» ¯ng
Ġlo áº¡n
Ġtá»ĵ i
i k
Ġt áº£ng
Ġchá» Ŀ
Ġ4 0
Ġr obot
Ġb uá»ĵn
i e
ĠÄĳÃ¡ p
Ġt Æ°á»Ŀng
¥ m
Ġm áº£nh
ĠÄĲ iá»ģu
ĠÄĳ Ã¨n
o w
© u
Ġl an
ĠkhÃ ´
Ġ o
Ġm iá»ħn
á»ĳ t
ĠgÃ³ p
ĠT háº¿
Ġkhá»ķ ng
ĠKá» ³
i ch
Ġtr Ã¡nh
Ġth Æ°á»Łng
ĠÄĳÃ³ i
ĠTr Ã¡i
Ġm Ã¡i
H iá»ĩn
Ġláº¡ nh
Ġtr á»ĵng
Ġá» §ng
C háº
Ġ f
Ġkho áº£n
Ġtá»ķ n
Ġc Æ¡n
Ġtr áº¯ng
Ġch Ãłng
e v
ĠTr ong
Q u
Ġt á»Ļc
Ġb áº£ng
ĠM ar
or d
Ġl áº«n
Ġtá» Ŀ
Ġd iá»ĩu
ĠÄĳá» īnh
áº¥ c
Ġ2 5
Ġgiá» įng
Ľ m
Ġn Ãºi
Ġt iá»ĥu
Ġtr Ã¬
Ġphá» ıng
ĠÄĳ Ãło
C Ã¢u
l a
Ġ áº¥n
Ġqu Ãªn
Ġbá» ģ
Ġháº £o
ĠÄĲ Ã´ng
Ġtá»ĳ n
Ń nh
ĠÃ¡ o
Ġtr áºŃn
ĠC Ã¡c
ĠmÃ£ i
Ġr Æ¡i
Ġd u
Ġgiá» ıi
Ġqu áº£ng
Ġcháº¡ m
ist an
VÃł o
Ġbá» ģn
ĠC há»
ĠNg Æ°á»Ŀi
Ġc áº§m
Ġpháº ¥n
Ã¹ a
Ġk im
C Ã²n
Ġcá» ¡
Ġkhu áº©n
ĠÄĳ Æ°Æ¡ng
Ġkho Ã¡
Ġnghá» ī
Ġb ang
Ġb áºŃt
ĠhÃ´ n
Ġvá» ĳn
ĠsÃ¡ nh
C ho
Ġt iá»ģm
ĠnghÃ ¬n
ĠvÃł ng
áº ³ng
Ġn áº¯m
Ġl Æ°Æ¡ng
Má» Ĺi
i b
Ġvá» £
Ġcháº ¥m
Ġc am
Ġh i
Ġmá» Ŀi
ĠkhÃŃ ch
Ġvá» ¡
Ġho áº£ng
Ġchiáº¿ m
ĠlÃł ng
Ġh Ãło
Ġlá» Ńa
Ġngá» «ng
C on
u b
ĠÄĳá» «ng
Ġx Æ°Æ¡ng
Ġphá» ĳi
l y
Ġh iá»ĥn
Ġhá» ķ
Ġbá» ¯a
Ġ1 1
Ġthá»ĭ t
Ġ VÃ¬
ĠÄĳ iá»ĩu
Ġv Ä©
Ġb iÃªn
Ġg háº¿
áº· m
Ġt Ã¡ch
Ġqu áº§n
u l
Ġná» ķ
Ġs Ã³t
Ġr Ãºt
Ġká» ĭch
en t
Ġd Æ°á»Ŀng
Ġch uá»Ĺi
Ġcháº £y
Ġtho Ã¡t
ĠÄĳ áº±ng
Ġs áº¡ch
Ġgi Ã³
ĠH á»ĵi
Ġkháº ©u
ĠK hi
Ġ ong
ĠT hÃ¡
oo g
ĠÃ Ķng
Ġt Ãłn
Ġchá» ĵng
Ġsá» Ľm
Ġt Ã´
Ġlo áº¡t
Ġt áº¯t
ÃŃ nh
Ġb Ã¨
Ã³ m
Ġcháº Ńm
ĠV Ã¢ng
Ġ VáºŃy
C hÃ
i an
Ġd Ä©
P háº
Ġtháº §
Ġgi áº¥c
ĠÄĲ áº¡i
Ġnghá» ģ
oog le
Ġl á»ĳi
Ġl áº·p
Ġgá» £i
Tá» «
i o
i r
ĳ t
Ġsu áº¥t
Ġm Å©
Æ°Æ¡ i
Ġkhá» ©
m an
Ġtrá» ¯
a z
i f
Ġs Ã´ng
Ġng uyá»ĩn
Ġqu á»¹
ĠphÃ ª
Ġlá» Ĺ
ĠchÃ ¬
Ġ8 0
ĠC on
ac k
e x
r y
Ġt Ãºi
± m
Ġtr Æ°ng
Ġng áº¡i
ĠnhÃ ©
Ġt Ã¡n
R áº¥t
e p
Ġtr áº¡i
ĠQ u
Ġd áº·m
Ng Ãły
ic k
u d
Ġc Ãł
T a
Ġk iá»ĩm
ĠA n
Ġv iá»ħn
Ġth Æ°á»Ľc
ĠÄĳ Äĥng
© n
Ġsá» ¹
Ġcá» Ŀ
Ä© a
¢ m
Thá» ©
ĠÄĳ uá»ķi
áº· n
ĠT á»
ĵ i
Ġn Ã©
ĠkhÃ¡ ng
ĠC áº£m
Ġn Ã¢ng
Ġqu ang
Ġnháº ¹
Ġbá» ¥
ĠkÃ© m
u t
Ġb Æ¡i
Ġvá» ı
Ġnháº ¯n
Ġho ang
Ġph iÃªn
ĠG oogle
Ġv áº¿t
ĠghÃ ©p
i v
Ġthá» Ł
Ġr áº»
ĠsÃ¡ u
Æ°á»¡ i
oh n
Ġc Ãº
Ġth Äĥm
Ġkho áº£nh
Ġ6 0
V áº¥n
Ġl áº·ng
Ġsá»ĳ t
es t
Ġtháº£ m
ĠnháºŃ t
Ġb á»įn
Ġh u
Tr Ãªn
h e
Ġháº ¹
t Ã´i
Ġt Ãłng
Ġná» Ĺ
Ġtho áº£
G i
Ġ Z
an s
Tr Æ°á»Ľc
Ġc an
Ġl á»įc
Ġb Ã²
á»į t
on e
Ġxo ay
N Äĥm
¥ u
ĠÄĳ iá»ĩp
Ġtr Ã²n
Ġtr á»ĳng
ĠhÃ ¹ng
ĠN háºŃt
am p
ĠP hÃ¡
ĠB r
ar t
ĠÄĳ áº³ng
Ġbá» Ŀ
Ġdo áº¡
in s
Ġ Æ°u
ĠA r
± a
Ġlá» ¥c
ĠL Ãłm
B Ãł
b on
ĠÄĳ áº¿
Ġv oi
ĠmÃ¹ i
oo k
ĠÄĳ am
Ġng áº«u
Æ°á»Ŀ n
ĠlÃł nh
ĠC Ã´
uá» µ
uá»ĵ ng
Ġthá» «a
Ãº a
§ i
ĠÄĳá» ±ng
er a
ĠlÃŃ nh
N hÃ
e c
Ġth uáºŃn
el l
Ġhá»į p
ÄĲ Æ°á»£c
L iá»ĩu
Ġr Ã¡c
Ġth uá»·
Ġnhá» ±a
Ġtháº ¡
ĠÄĳo Ãłn
I V
ĠÄĲ áº¥t
ĠthÃ¡ c
Ľ t
ĠB á»Łi
Ġl áº¯p
Ġm a
ÄĲ áº§u
Ġc áº¥y
ĠÄĳ e
Ġth ang
Ġ1 6
ĠA f
ĠtrÃŃ ch
Ġcháº· t
c hÃºng
i on
Ġp r
Ġnh uáºŃn
ĩ t
ĠÄĳ áº¡p
Ġta n
a w
e g
Ġm iáº¿ng
ĠH IV
Ġkháº ¥u
Ġt áºŃt
Ġgiáº£ ng
Ġl Æ°á»£c
er t
d e
ĠlÃ£ ng
Ġc Ã£i
or e
Ġcháº· n
Ġng ang
Ġmá» «ng
ĠgiÃ¡ m
Ġy Ãªn
ĠÄĳ Ã²i
ĠthÃ ¹
ĠhÃ ¨
ĠAf g
5 0
Ġch Ãło
Ġth ai
Ġngo Ã¡i
ĠI s
ChÃ Ńnh
V iá»ĩc
Ġtá» ¥
Ġlá» ħ
ĠÄĲá» ©c
e in
Ġm áº¡i
Ġh uy
Ġd iá»ĩt
á»ĳ n
ĠtháºŃ n
al l
es s
Ġáº ¢
u á»Ļn
Ġ $
Ġm Ã¢y
Ġh Æ°Æ¡ng
Ġh uá»ĳng
Ġcáº£ n
Ġsá» ķ
NÃ³ i
Ġ19 9
Ġ u
Ġth ao
Ġxo Ã¡
u c
Ġdá» ĭ
ĠS h
Ġ9 0
Ġm Ã¬
Ġtr Ãłn
Ġsá» £i
áº© u
ĠÄĳ Ã¹a
Ġv ong
Ġk o
Ġs Ãºng
Ġtr i
ĠchÃ ©p
Ġtháº¥ u
ĠA D
or n
C uá»ĳi
H ay
g e
ĠÄĳá» ĳng
Ġcá» ©ng
ĠE m
Ľ n
Ġv Ãº
ĠcÃ¡ t
Ġtá» ı
Ġ1 4
ĠC ar
ĠV á»
l es
r us
Ġc áº·p
ĠcÃ¡ m
ĠÃ¡ m
ĠJ ohn
Ġ20 1
Ġt Ã¡
Ġb om
f f
Ġm áºŃp
Ġm á»±c
Ġb i
Ġnháº ±m
Ã¨ o
ĠAfg han
B á»
Ġt uyÃªn
Ġb á»ĳi
Ġsá» ¥p
Ġph iáº¿u
Ng ay
ĠchÃ¡ n
Ġb áº¯n
Ġk Ãªu
Ġtr Ãło
Ġh Ãł
ĠkhÃ Ńa
Ġnhá» ĭp
Ġ7 0
L Ãºc
Ã´ m
Ġh iáº¿m
ĠA i
ĠAD N
Ġt iÃªm
nh Æ°ng
Ġng á»įn
Ġd á»ĳi
Ġlá» «a
Ã© p
Ġm Ã³c
Æ°á»£ u
áºŃ c
Ġ1 3
at t
Ġtr iáº¿t
Ġkh ung
Ġmá» ı
ĠPhÃ¡ p
Ġ Xin
Ġl iá»ģn
Ġcá» ¥c
Ġho Ãłng
Ġpr ot
C Ã´ng
i p
â Ģ
Ġ Ã³c
Ľ p
ĠÄĳ áºŃp
Ġm Æ°a
ĠbÃ© o
Ġgá» Ĺ
C Ã¡ch
Ġbá» ķ
Nh Ãł
Ġtho áº£i
Ġtháº§ y
o d
r is
Ġc Ã´n
ĠÄĳ ua
Ġb áºŃc
Ġthá» Ŀ
Ġhá» ĳi
K hÃ¡
y l
Ġ 0
Ġ Ã¡c
Ġ âĢ
Ġg am
ĠS á»±
ĠK en
C Ã¡m
Ġc Äĥng
Ġl Å©
ĠG iá»
Ġkháº£ o
ai l
ĠC al
Ġmáº¡ c
y a
¯ t
Ġth uyá»ģn
ĠT háºŃt
e et
Ġn áº¥m
Ġm Ã©t
Ġng Æ°á»¡ng
Ġr Æ°á»£u
Ġchá» ĳi
Ġ1 7
Ġt Ã¡o
Ġchá» ĳt
ÄĲ á»ĳi
er s
C Å©ng
N A
¯ m
Ġtr áº§m
Th eo
Ġhu áº¥n
Ġá» Ĵ
ĠThÃ¡ i
Ġnh Å©ng
Ġá» ©c
ĠghÃ ©t
ĠA m
ĠÃ ģ
Ġhá»Ĺ n
ĠC Ã´ng
ĠF ran
ĠAfghan istan
e e
Ġch e
Ġkh uyáº¿n
ĠhÃ ²
ĠB áº£n
Ġb iá»ĩn
Ġb áº£y
ĠkhÃ¡ t
Th ay
L Ãł
Ġv Ã¢ng
Ġtr uy
Ġtá»ī nh
Ġn Ãºt
Ġs ong
Ġthá» į
Ġcá» ı
N Ãło
ĠÄĳ áº¯t
Ġng Ã³n
ĠI ran
Ġhá»ĵ n
Ho áº·c
Ġ áº¡
ĠphÃ¡ n
ĠH ar
ĠchÃ¡ y
M Ãł
á» Ŀi
Ġm áº¡o
ĠTh uá»µ
Ġxá» ©ng
ĠhÃ £
Nh iá»ģu
Ġ2 1
av id
p h
Ġ á»ĵ
Ġv Æ°á»Ŀn
Ġgi áºŃn
on d
Ġháº ¯n
ĠÄĲ Æ°á»£c
ĠL an
l and
Ġt Ãºc
Ġs Äĥn
Ġth iá»ĥu
£ t
ĵ n
Ġg á»įn
Ġkh iáº¿p
lo g
ĠmÅ© i
D Ã¹
o v
x y
Ġcá» Ĺ
Ġcá» ¥t
ĠC Ã¡i
A i
Ġt ia
Ġt Ã³c
Ġb Ã´ng
Ġb Ã£i
Ġd inh
Ġtrá» ©ng
Ġthu Ãª
Ġtháº¡ ch
Ġprot ein
a ch
Ġ Ãł
Ġm ai
Ġx ong
ar k
Ġn áº¥u
Ġl á»Ļn
Ġb inh
Ġd Ãły
Ġth iá»ĩp
Ã£ n
er ia
Ġrá» §i
Vá» ģ
ĠÄĳ áº¯n
Ġm á»Ļ
Ġb áº¡c
Ġk áº¹
Ġr u
ÄĲ Ãºng
Ġc á»Ļt
Ġm Ã²
Ġh Æ°á»Ľc
Ġgi Ãłnh
Æ°á»Ľ t
ĠH ai
ĠthÃ¡ nh
Ġ19 8
ĠÄĳá»ĳ c
H ai
t a
Ĺ ng
Ġb á»Ļt
ĠC an
ĠÄĲ Ãºng
ĠÄĳá»ĳ t
Ġm iá»ģn
Ġb Ã³
Ġng Å©
Ġd á»įc
iá»ĩ ng
ĠphÃ ³
Ġcháº ©n
ĠmÃ¡ t
ĠL iÃªn
Ġthu áº§n
ĠÃ Ŀ
ĠÄĳ Ãłi
Ġtr uyá»ĩn
Ġh uyáº¿t
Ġr Äĥng
Ġx Æ°a
ĠT V
ĠT áº¥t
ĠD o
ĠNh Ãł
t i
Ġx Ã¢m
ĠÄĳ Ä©a
Ġr Æ°á»¡i
Ġchá» «ng
Ã½ t
Ġ áº¥m
Ġn Æ¡
Ġtr á»Ļn
Ġg Æ°Æ¡ng
Ġh iáº¿n
Ġr o
Ã¹ i
ĠC hi
ra el
Cháº ³ng
Ġt áº·ng
Ġr áº¯c
Ġnhá» ī
Ġnháº ¥n
en n
Ġ5 00
ĠnÃ© m
Ġ i
Ġd ÃŃnh
iáº¿ c
g h
Ġng Ãłi
Ġth an
Ġx áº¡
ai n
Ġcá»ĳ t
ĠkhÃ³ c
ic o
oc k
į t
Ġc áº©n
Ġr Ãło
Ã¨ m
ac eb
Ġl áº»
Ġng u
Ġqu Ãª
am a
aceb ook
Ġm iá»ĩng
am b
Ġtuá» ³
Ġháº¹ n
ĠIs rael
H áº§u
K ho
ĠÄĳá» Ľn
ĠS c
ĠP háº
ad a
P h
c o
Ġt áº¡m
Ġb áº¯c
Ã¡ y
Ġtháº ©m
in a
Ġ2 4
ar a
Ġg Ãł
Ġtuá» ĩ
C áºŃu
Ġm iÃªu
Ġs a
Ġch ai
Ġhá» ĳ
Ġqu Ã¡n
ĠÄĳÃ³ n
ĠB á»Ļ
Ġháº¡ ng
Ġm áº©u
Ġng áº§m
Ġlá» ıng
ĠnhÃ ¡
Ġphá» ķi
Ġcá»ĳ c
Ġnháº¡ y
I D
³ i
Ġt Ã²
ĠÄĳ áºŃu
Ġthá» £
ĠÄĳÃ¡ y
áº© m
Ġvu Ã´ng
Ġ Æ¡i
Ġb log
an n
ĠT o
H Ã´m
l in
Ġt Ã¢y
Ġl y
Ġb áº¡ch
Ġtr Ã´i
Ġh iá»ĩp
Ġr á»ĵ
Ã£ ng
Ġqu Ã¡i
Ġho áº¡i
Ġtho áº£ng
ĠF acebook
te in
Ġc Æ°á»Ŀng
Ġl Ã£o
Ġk iÃªn
Ġp in
ĠB ra
ĠS an
le y
Ġgam e
B áº±ng
s t
há» ĩ
Ġtr áº¯c
Ġhá» ©a
if orn
Ġl eo
Ġng á»±a
Ġd Ãłn
Ġgi Æ°á»Ŀng
Pháº §n
ĠCal iforn
S áº½
Ġt Ã³m
Ġl Ã¢y
ĠC háº
Ġháº ±ng
ĠM Ä©
ĠCaliforn ia
e k
ĠÄĳ áº£ng
Ġn Æ°á»Ľng
Ġh Æ°
Ġgi Ãły
Ġcháº ¥n
Ġn Ã©t
Ġl Æ°ng
Ġtr áº¡m
Ġng Ã£
Ġch Äĥng
Ġqu Ã©t
Ġx ÃŃ
ĠÄĳ eo
ĠT w
ĠB a
un d
C á»
m a
Ġt Ä©nh
Ġr Ã´
Ġnh o
ĠC á»±c
Ġ19 7
Ġm áº»
Ã¬ a
al k
o g
Ġt uyáº¿t
Ġt Ã¡m
Ġtiáº¿ c
ĠmÃ£ n
c e
n Ã³
Ġv inh
Ġv áº¯c
Ġtr Äĥng
áº« y
ĠG eo
ĠD NA
ĠÄĳáº¿ m
p p
³ c
á» ĩ
Ġn inh
Ġm Ã¨o
Ġd Ã£
as s
Ġgá» ¡
ex ico
Ġbá»¥ ng
« n
Ġ Ã©p
Ġc ong
Ġk Ã¨m
Ġd Ã²
Ġd Ã¡n
Ġhá» ıng
Ġqu Ãł
ĠM c
Ġ3 00
at e
it h
b er
Ġl Äĥn
ĠC á»
ĠC ol
Ġem ail
Tháº Ńm
and a
áº« m
ĠI ra
ĠgÃ³ i
T hÃ
o áº¡i
r on
Ġt uy
Ġt iá»ĩc
Ġl Ã´i
Ġtr á»ĳn
Ġtá» ĭ
Ġkh uyÃªn
Ġmá» Ŀ
Ng h
ĠTh e
ĠCh ar
Ġ im
Ġt ung
Ġl Ã¢m
Ġtr áº§n
Ġgi áº¥u
Ġdá» ©t
Ġkho an
uá» ¹
it e
ĠchÃ¬ m
o Ãłi
Ġb uÃ´n
Ġgi Æ¡
ĠthÃ ³i
ÄĲ Ã£
ĠR ob
ĠÃ ļ
ID S
Ġg Ã£
Ġg Ãµ
Ġcá» ±
Ġlá» ģ
Ġlá» ĩnh
ĠM exico
Ġ2 000
Ġph iá»ģn
Ġcá»¥ m
z il
Ġ and
Ġl u
Ġng on
Ġh eo
Ġkh ao
at h
ĠlÃ£ m
ĠkÃª nh
ĠCan ada
C uá»Ļc
Ġ Æ°
Ġl áº·n
Ġb Ã£o
Ġs Ãłn
Ġng á»įt
Ġd Æ°
ĠÄĳá» ±c
ĠN hÃ
s h
Ã¡ p
ĠB á»
ĠÃļ c
D P
d am
k y
ĠD avid
ĠNg a
NhÃ ¬n
f ord
l er
Ġc áº¥t
Ġd ao
Ġth Äĥng
Ġgi Ã¡n
Ġmá» ĩnh
in d
ĠB er
ĠH y
ĠP h
Ġvi rus
ĠKen ya
á» ĥ
Ġl ang
á»Ļ m
ĠlÃł n
Ġh ang
Ġh Ãłm
Ġqu ÃŃ
ĠM ich
ĠL iá»ĩu
Ġthu áº¿
Giá» ĳng
r am
Ġc ar
Ġb áºŃn
Ġb áº¿p
Ġtr Æ°a
Ġthá» ķi
Ġd Ã¡ng
qu ang
Æ°á»£ n
ĠA IDS
Ġbá»¥ i
ĠcÃº m
ond on
L áº§n
Ġt Æ°Æ¡i
Ġc áº¥m
Ġv a
Ġb Ã¹ng
Ġx inh
ÄĲ Ã´i
Ġsá» ¯a
ĠR áºŃp
ĠChá» ī
ĠBra zil
m Ãł
t in
Ġt Ã¢n
Ġt áº¯m
Ġl Ãµi
ĠphÃ ¬
au l
Ġcam era
Ġd Æ°á»£c
Ġtháº »
ĠL ondon
3 0
m á»Ļt
o y
Ġc Æ°á»Ľi
Ġn áº£y
Ġl iá»ģu
Ġl Æ°á»Ŀng
Ġb u
Ġs an
Ġng áº¯m
Ġr Ã©t
Ġá» ŀ
ĠquÃ¡ t
r ic
ĠT a
Ġháº £i
hi ng
ĠÄĲ iá»ĥn
Ġkhá» ī
ĠP al
Ġtu Ã½
li ng
Ġo xy
Ġs ay
Ġs Æ¡n
Ġs Æ°u
Ġtá» §
Ġx Ã³m
ĠM on
ĠM á»įi
ĠH á»Ļi
ĠS p
ĠL e
Ġthá»ĭ nh
it ter
Ġ19 6
Ġháº§ m
Ġ Æ°a
Ġl Æ°á»Ľt
Ġm uá»Ĺi
Ã³ i
Ġtr Æ°á»£t
Ġng áºŃp
Ġnháº ¯m
ĠM o
ĠthÃ¡ p
ĠchÃº a
Cháº ¯c
ĠâĢ ĵ
C áº£
i z
© o
Ġng á»ĳc
Ġr Ã£i
ĠthÃ ¹ng
VÃł i
ĠB l
Ġ4 00
ĠÄĲá» «ng
ĠkhÃ´ n
b áº¡n
r en
Ġn á»Ł
Ġgi am
Ġnháº «n
ĠC O
ĠkÃŃ n
ĠIra q
Ġn an
Ġd Ã¡m
Ġqu á»
Ġqu Ã£ng
ĠchÃ ¢m
Ġtrá» ¥c
ĠB an
Ġph a
ĠK inh
ĠthÃ¡ m
Ġthu a
Ġf eet
2 0
Ġt Æ°á»Ľng
Ġn á»ĳt
Ġthá» īnh
Ġp hÃº
ĠnÃł ng
an a
ĠthÃŃ nh
Ġbá»ĳ t
Pháº £i
L Ã½
h am
Ġn áº¯ng
Ġd áº¯t
Ġth iá»ĩt
ĠT háº
ÄĲ áº¿n
ĠN ig
ĠB ill
ĠR os
Ġpháº¡ t
Ġn á»į
Ġb ong
Ġs ung
Ġra u
Æ°á»Ľ p
ĠB ar
Ġkhá» Ľp
ÄĲá» «ng
Ġ15 0
ĠTá» ķ
G áº§n
S A
Ġc áºŃy
Ġc uá»Ļn
Ġd Ã£y
ĠT im
ĠphÃ¡ i
Ġto áº£
ĠthÃ¡ o
ĠTw itter
M áº·c
b y
n e
Ġt uyá»ĥn
Ġl Ã´ng
Ġb Æ¡
ĠP ar
ĠG DP
ĠJ o
li p
T o
Ķ i
ng el
Ġc Æ°á»¡ng
Ġl Ã²
Ġm áº¡n
Ġtr Ãł
Ġg áº¥u
Ġvá» Ł
Ġkh uy
ĠnhÃ £n
áº» o
ĠB Ã¢y
ĠW as
ĠCh ris
D Ä©
E m
ĠÄĳ uÃ´i
Ġs li
Ġtr áº¥n
Ġnhá» Ł
Ġkh Æ¡i
Ġbá» Ľt
on y
Ġmá» ĩt
ĠS au
ĠK ho
KhÃ¡ n
v er
Ġm uá»Ļn
áº¿ ch
Ġch Æ°á»Ľc
Ġsá» ©
Ã© o
ĠTr á»Ŀi
Ġthu áº«n
ol f
ĠchÃ¬ a
Ġt i
ĠÄĳ Ã¢m
Ġchá» Ł
ĠM áº¹
ĠB os
ĠS ao
ĠD Æ°Æ¡ng
ĠTh iÃªn
oo d
ins tein
C Ã¹ng
T iáº¿p
Ġ e
Ġl Ã¡t
Ġb á»į
Ġchá» ¥c
an i
Ġho áº£
ĠC áºŃp
ĠÄĳi Ãªu
Ġhá»ĩ t
Ġláº¡ m
Ho Ã¡
Ġá»ĵ n
ĠGeo r
Ġsli de
B áº¥t
K áº¿t
d er
Ġ j
Ġv áº£i
Ġl Ã¹i
Ġng á»±c
Ġth Æ°a
Ġra nh
Ġná» £
Ġlo g
ĠG re
ĠhÃ² n
hing ton
a el
v Ã¬
á» Ĵ
Ġn Ã´
Ġg Ã¡nh
Ġnháº ·
Ġmá» ¹
ĠB ang
ĠA b
ĠE d
ĠthÃ´ n
Kho áº£ng
Ġc ac
Ġv áº¹
Ġv ua
Ġm Ãºa
Ġb Ãºt
Ġr ung
Ġpháº ³ng
Ġmá» ıi
Ġká» ĭp
ĠB e
ĠÄĳá»ĵ i
ur g
ĠY ou
ĠHo áº£
ĠGi Ã¡o
x i
§ m
Æ° Æ¡n
Ġk hÃºc
ĠÄĳá» Ľi
Ġsá»ĳ c
ĠM I
ĠV iá»ĩn
ho m
ĠNh a
ĠWas hington
u g
z a
Ġm áº¥u
ĠH Ãł
ĠS m
or t
ĠChÃ Ńnh
ĠThá» ±c
Ġcar bon
H Æ¡n
k a
Ġnh iáº¿p
Ġcá» Łi
áºŃ m
ĠN Ãły
et t
Ġrá» ħ
ĠJ am
Ch uyá»ĩn
ik e
ĠkhÃ´ i
s ite
Ġb Ãª
Ġh Æ°u
Ġd uyá»ĩt
á»ĳ m
ĠthÃ ¢m
Ġngh iá»ĩn
ĠM á»
ĠB en
ar e
ĠL os
ol a
and er
Ġnháº· t
M áº¹
Ġc uá»ĵng
Ġr Ã¡p
Ġcá» ĳi
Ġth a
Ġmá» ĵ
ĠC ho
ĠM áº·t
Ġnghá» ĭch
Ġngo an
Ġhá»ĵ ng
ĠTED x
Ġin ternet
Ġweb site
Ġháº¹ p
ĠFran c
ĠhÃ£ ng
ĠNig eria
c Ã³
Ġm Ã¢u
Ġkh iáº¿m
Ġkháº ³ng
ĠTr Æ°á»Ŀng
C Æ¡
N á»
Ġ a
Ġc o
Ġv Ã¢y
Ġl áºŃt
Ġl Æ°á»¡ng
Ġsáº ¯t
in c
ĠC uá»Ļc
ĠÄĳá»ĭ ch
ĠkhÃ³ i
le x
ĠThá» ķ
Bá» ©c
i er
Ġg an
Ġr áº¯n
ĠB ro
ĠÄĳÃ¡ o
ĠL a
ĠL á»
Ġ3 5
il li
ĠW ik
ĠphÃŃ m
tr ess
ub e
ĠVá» Ľi
Ġcac bon
ĠMI T
l an
ĠÄĳ Ãłm
Ġv Æ°Æ¡n
Ġtr Ã¢n
on es
Ġ1 000
ĠB Ã¬nh
ĠP ak
ĠL u
Ġrá» Ńa
Thá» Ŀi
Ġm áº£ng
Ġg á»ĳi
Ġkh uyáº¿t
ĠphÃ ´
ĠchÃŃ n
as t
Thá» Ń
Ġ200 8
Äĳ Ã³
P S
l d
r os
§ a
Ġt áº§n
Ġc Æ°á»Ľp
ĠÄĳ áº»
Ġn on
Ġl ong
Ġb Ã¹
Ġcá» «u
Ġmá» ĵi
Ġkho Ã¡i
ĠB Ãł
ĠH á»
ĠH Ãłn
ĠH á»įc
ĠP há»
ĠÄĳo an
ĠÄĲá» ĥ
ich ard
O k
Ġc áº¡n
Ġs tress
Ġd áº¡o
Ġd Ã¢m
ĠmÃł ng
ĠT hÃ
ĠS ch
Ġ4 5
ĠO K
ĠTh Æ°á»£ng
ed ia
ĠGiá» Ŀ
hom as
ĠPak istan
r ist
w ard
¥ ng
ĠÄĳ áº¡n
Ġm anh
Ġs áº¡n
Ġtr eo
Ġd áº£i
Ġd áº»o
ĠN a
ic a
ol ly
Ġváº¹ n
ĠFranc is
B ao
e en
o k
v e
Ġ NhÆ°
Ġl áºŃn
Ġb á»įc
Ġh ack
Ġd á»įn
ĠthÃ ©p
ĠM a
ĠN á»
ĠD ar
Ġlá»ĩ ch
R Ãµ
y n
Ġ amp
Ġc áº¯m
ĠÄĳ áº¡c
Ġk iá»ĩt
Ġlá» Ŀ
Ġlá» £n
ĠÄĳá»ģ n
ĠH ig
Ġquy Ãªn
ĠA ngel
al d
ic e
as h
ĠSt ev
tr ong
ĠbÆ¡ m
c k
u p
ĩ n
Ġt Ã´ng
Ġc áº¯p
Ġv Ä©nh
Ġb áº¯p
Ġd e
Ġtháº ¯c
ap t
ĠNg Ãłi
Ġkáº¹ o
Ġkáº¹ t
Ġbu Ã½t
B á»Ļ
o x
p e
Ġv Ã©
á»Ļ p
Ġh uyá»ģn
Ġnh Ãłng
Ġch Äĥn
Ġkhi Ãªu
ĠC r
ĠC Ã²n
ĠH iá»ĩp
am i
ĠR e
ĠE instein
Ġtu Ã¢n
ri d
Ġgen e
Ġkhuy nh
T Æ°Æ¡ng
c om
l or
o und
w in
ĠÄĳ ai
Ġl Å©ng
Ġl áº¥p
Ġm Æ°á»Ŀi
Ġm Ã²n
Ġb ia
Ġg a
Ġh am
Ġr áºŃp
Ġnháº §m
ĠC á»Ļng
ĠB áº£o
ĠH e
ĠG PS
at ion
ĠÃ Ģ
ĠchÃº c
ĠTá» «
Ġ201 0
Ġm ic
Ġthá» ķ
ĠÄĳá» Ĺ
Ġgi Ã£n
Ġx Ã¡m
Ġná» ģ
ĠP hÃ
es ter
ĠR áº¥t
ĠhÃ´ i
ac c
ĠO b
ĠThá» ©
NhÃ ¢n
ĠHai ti
ĠPháº £i
f t
Ġv ay
Ġm á»įc
Ġtr Ãº
Ġr áº½
Ġch ua
Ġtháº ±ng
ĠC Ã¡m
ĠN e
Ġtá»± a
el a
ĠÃ Ķi
1 0
r Ãºt
Ã Ģ
ĭ nh
Ġc Æ°Æ¡ng
Ġn Ãªu
Ġl Æ°á»£t
Ġd á»Ł
Ġmá» ıng
er n
ĠP aul
or g
ĠE l
ĠO k
Ġ7 5
ĠHar v
ĠChar les
Ġcá»± u
& #
B a
R I
d i
Ġn Ã¡t
Ġv Æ°á»£ng
Ġd á»ĳc
ĠÄĳá» £t
ĠkhÃ ©o
Ġchá» £
Ġcháº £
ĠC Ã¡ch
Ġ2 3
ĠK h
ĠL áº¡p
Ġngá» «a
ep h
d r
Ġn áº£n
Ġs Ã´i
Ġd Å©ng
Ġvá» Ĺ
ĠN A
uá» ³
ĠK hÃ¡
it y
id e
uc k
K h
N há»
n ey
Ġv ang
Ġs t
Ġs Ãºc
Ġqu i
Ġx Ã´i
Ġra d
Ġho Ãłi
Ġmá» ī
ĠphÃ¡ c
am in
en d
ĠA t
ĠP r
ĠP et
Ġtho Ã¡i
Cá» ©
M áº·t
P há»
k hÃ´ng
Ġh ung
Ġd á»Ļi
ĠmÃł y
ĠH áº£i
Ġháº¡ ch
ĠD er
Å© i
ĠbÃ¡ ch
ĠCh iáº¿n
ĠFran k
Ġtr áºŃt
Ġg Ã¡c
ot t
Ġngh iá»ĩt
Ġbá» Ĺng
ĠT á»±
ĠT alk
Ġná» ¥
ĠR á»ĵi
at es
ol d
Ġ19 4
ĠNg há»ĩ
Ġ200 7
ag o
Ġtháº§ m
ĠnÃ© n
Ġi Ph
ĠxÃŃ u
ĠGeor ge
b ert
n há»¯ng
Ġt iá»ħn
ĠÄĳ áº½
Ġv Ãµ
Ġm en
Ġm uá»ĳi
Ġb áº¥y
Ġx Äĥng
Ġtrá» «u
Ġvá»¥ n
li e
Má» ¥c
P M
P hÃ
n er
Ġv an
Ġm á»Ļng
Ġb Ã¬a
Ġtr á»Ļm
Ġng háº
Ġr Å©
Ġhá» ¥t
Ġx Ã©
Ġ2 2
en s
Ġph o
is h
Ġcá»ķ ng
lo w
H Ãłng
L oáº¡i
T ED
e an
l ad
´ n
Ġ á»ĳc
ĠÄĳ Ãł
há» į
Ġl Æ¡
Ġl áº¯c
Ġl Ãºa
Ġtháº ³m
Ġgi áº·t
Ġx ÃŃch
ĠhÃ ©t
ĠM al
ip edia
Ġru á»ĵi
ĠHarv ard
ĠiPh one
S á»ĳ
T in
Ġm Æ°Æ¡i
Ġm Æ°á»£n
Ã¡ u
ĠT om
Ã¹ m
ĠhÃ ³c
ĠC áºŃu
ĠM an
ĠN ob
ĠtÃŃ m
Ġquy áº¿n
ĠA pp
ar y
Tr ung
im er
Ġso áº¡n
ĠJ u
ĠNg h
ĠO h
ĠMich ael
ĠAngel es
H Ã¬nh
H á»ĩ
T Ãªn
T hÃ´ng
c el
t oc
u e
Ġ al
Ġ á»ĳm
Ġb Æ°á»Ľ
Ġb áº©n
Ġtr Ã¡ng
Ġg Å©i
Ġth e
Ġx Æ°á»Łng
Ġx Æ°á»Ľng
Ġchá» £t
ĠT homas
ĠÄĳá»Ļ n
ĠC am
ĠTr ans
at ch
hÃ¡ u
ĠO r
Ġ9 9
Ġ200 9
ĠIn d
um b
Ġo f
ĠThÃ¡ nh
ĠOb ama
B Ãªn
K á»ĥ
f i
Ġ áº¿ch
á» ©c
Ġv Ã¡n
Ġl Ã¢n
Ġng áº«m
áº± n
ÃŃ t
Ġdá» Ĺ
Ġcháº ½
in k
Ġ-- -
Ġkho Ã¡ng
ĠN háº
ĠB ig
ĠS ah
ĠL ib
ĠD i
ĠbÃ¡ m
ĠR om
ĠR ichard
ĠJ os
ĠNg Ã¢n
ri p
ĠÃ´ m
th al
iv i
B Ãłi
c Ã´
n áº¿u
Ġc Æ°á»£c
Ġm áº¿n
Ġtr Ã¡n
ĠÄĳá» ĩ
Ġnh Æ°á»Ŀng
Ġcá» ĳng
Ġqu áº·c
Ġtháº¥ m
ĠnhÃł o
ĠA dam
ĠF re
Qu Ã¡
ĠRob ert
ĠSm ith
ĠWik ipedia
M ay
S ao
e ah
Ġl Ã¡nh
Ġb áº¥m
Ġs Ã´
Ġsáº ¯m
ÄĲ iá»ĥm
ĠgÃ¬ n
Ġná» ĵng
or an
Ġnháº¡ t
is s
Ġrá» Ĺng
ic on
att an
ber g
Ġlá»ģ u
ĠFrancis co
Ġhack er
Ġrad io
ĠNob el
P A
m p
u k
ĳ c
Ġl uá»¹
Ġs ho
Ġg áº¡ch
Ġh iáº¿p
Ġth ung
ot a
ĠchÃ ´n
ĠsÃ¡ o
al i
ĠNg Ãły
ĠmÃ£ nh
Ġxá» ī
ĠChá» §
Ġru á»Ļt
ĠPar is
ĠKho a
ĠNA SA
toc in
B á»ĳ
d ro
i x
v an
Ġc Ãłi
Ġv áº¡ch
Ġl Ã¹ng
Ġr un
Ġnhá» ĩn
Ġlá» ĵng
Ġmá» ķ
Ġ2 7
Ġph un
ĠL Ãł
ĠG ab
Ġ3 6
us h
ĠHo Ãł
az on
Ġlog ic
ĠDar win
. .
l en
Ġr Ã£
Ġth Æ°á»£ng
Ġx Äĥm
Ġgiá» įt
ĠT or
Ġlá» ¡
Ġcháº ±m
ĠA lex
ĠG r
Ġxu Ã¢n
ĠD an
ĠW eb
ac e
Ġ200 5
Ch iáº¿c
ĠNh Ä©
Qu an
ud io
apt op
ĠSah ara
N háº
b ur
e h
t or
Ġl Äĥng
Ġs Ã©t
Ġtr iá»ĩt
Ġvá» Ŀ
Ġchá» Ľp
ĠT al
anh attan
ai r
ĠC op
ĠM Ã¬nh
hi a
ĠN Äĥm
ĠD Ã¢n
et h
Ġchá»į c
ra ham
ro p
Ġin ch
ag e
Ġhuy nh
ĠhÃ£ m
c rip
m e
t Ã´
x in
y r
Ġ oh
Ġt Ãª
Ġt ivi
Ġv Ã²i
Ġl Ã©o
Ġm Ã³ng
Ġb Ã³c
Ġcá» į
ĠC Æ¡
ĠM anhattan
ĠL eg
ĠG u
ĠkÃ¬ a
az z
he imer
To Ãłn
ĠStev e
ĠDer ek
crip t
A n
j a
l ine
o ur
s s
w ood
z heimer
Ġ Ã¡i
Ġ áº©m
ĠÄĳ c
Ġv Ã²
Ġqu áº¡
ĠT iáº¿n
ĠC l
ĠM ad
er ry
Ġtá»± u
ĠS Ä©
Ġvá»ĭ nh
il icon
Ch a
ĠAl zheimer
Ġoxy tocin
ĠGre en
B áº£n
c a
c ago
g s
Ġt uá»·
Ġl i
Ġl Æ°á»¡i
Ġk m
Ġvá» ©t
ĠT iáº¿ng
Ġkhi Ãªm
ĠchÃ ¹
Ġmá» ³
ĠC Ã¢u
Ġ2 6
iá»ħ u
al a
ĠR w
ĠI I
ĠV en
ĠQ uá»¹
Ġchu Ã´ng
ĠW or
us s
Th Ãłnh
ĠCar ol
ĠAm azon
ĠJam es
L áº¥y
S D
T hÃ¡
p er
t s
Ġn áº¿p
Ġl uá»ĵng
Ġl aptop
Ġb á»ĳc
Ġng áº©n
Ġg áºŃy
ĠÄĳÃ³ m
Ġx Ãł
Ġho Ãłnh
ĠH aw
ĠS e
ĠS ub
ĠP ark
os ter
Ġnhiá»ħ u
oc a
ĠChi cago
Ġlu i
ĠTá»ķ ng
ĠBos ton
ĠvÃµ ng
e z
m m
t it
Ġ áº¥u
Ġ 000
ĠÄĳ Ãºc
ĠÄĳ uá»ĳi
Ġk iÃªng
Ġng Æ°ng
Ġr on
Ġtháº ¯t
Ġbá» ĵi
Ġdá» ĭp
ĠnhÃ ³c
ĠM e
Ġkho Äĥn
ĠH ay
ĠS am
ĠÄĳo áº¡t
ĠW al
ĠE n
Th iáº¿t
ĠThá» Ŀi
Ġtuá» µ
ĠMar k
ĠMar tin
Ġ199 0
ĠRw anda
D á»
T Æ°á»Łng
d y
Ġc ent
ĠÄĳ áºŃm
Ġv acc
Ġs á»į
Ġmá» ¡
in son
Æ°á»Ł i
ĠL at
Ġngá» Ľ
ĠÄĳÃ´ la
ri an
ĠSt an
Ġ25 0
Ġnan o
rid ge
£ m
Ń ng
Ġc u
Ġl am
Ġng á»Ļt
Ġg Ã£y
Ġg olf
Ġnhá» §
ot h
Ġbá» ĥ
Ġho Ã£n
ĠhÃ Ńt
im b
Ng há»ĩ
Ng oÃłi
at han
Ġrá» ī
Ġ6 00
ĠháºŃ n
Ġhy dro
ĠNhÃ ¢n
ĠMon t
Ġquá» ·
illi am
A l
l ick
t há»
Ġt iá»ĩm
Ġc anh
ĠÄĳ iá»ģn
Ġv áº£
Ġb Äĥn
Ġg om
ĠnÃł n
Ġgi áºŃt
Ġho an
ĠC o
ĠÄĲ áº£ng
ĠA c
ĠS inh
ĠG ates
ĠD el
Ng he
ur e
ĠghÃ ª
ĠU y
Äĳ Ã¢y
Ġxá» ©
Ġhá»ķ ng
Ġi P
ĠTim es
ĠBro w
ĠApp le
ĠTrans cript
ĠSub tit
ĠSubtit les
N Æ¡i
T Ã¬nh
m er
n y
o ft
t o
v á»
½ n
Ġ on
Ġv á»Ļi
Ġl au
Ġb áº§y
Ġd áº¡i
Ġch uyá»ģn
Ġth iÃªng
em en
ĠS w
ĠK oran
ĠG al
ĠTr iá»ģu
ĠD á»±
ĠV iá»ĩt
ĠJ on
ĠO x
ian o
ĠnhÃ¡ nh
Phá» ¥
Ġngháº ½n
B áº¯t
l ar
n a
Æ ¯
Ġ Æ°Æ¡ng
Ġv áº¥t
Ġm áº§m
Ġb áº©m
Ġtr Ãºng
ĠÄĳá» ¥ng
Ġgi en
Ġdá» ĩt
ĠC oca
ĠgiÃ¡ p
us t
ĠCh rist
Ġ200 4
Ġ200 6
id a
Qu Ã½
Bá» ĩnh
Ġmic ro
L á»
M ar
s ter
Ã Ĥ
Ġ or
Ń i
Ġl á»į
Ġb áº»
Ġs Ãºp
Ġs Æ°á»Ľng
Ġch Ãły
Ġbá» ĵ
ĠT as
in i
ĠC E
ĠB áº±ng
ĠA d
ĠTr Æ°á»Ľc
al e
ĠJ ack
ĠF lor
Ġ9 5
ĠÄĳá»ĳ m
ib an
ĠCháº ³ng
C áº§n
O K
T Ã¡c
c há»
c ar
u el
Ġ uy
Ġ Ãło
Ġt Ã¹ng
Ġv áº·t
Ġl á»Ļt
Ġr áº¡p
Ġd áºŃp
Ġnhá» ĭ
Ġtá» ĭch
Ġqu e
ĠnÃ³ n
Ġx Ã¡ch
Ġkh en
ĠT Æ°
ĠhÃ ´ng
ĠM RI
ĠB ur
Ġ2 8
en z
ĠK há»
al ia
es h
Ġphi Ãªu
Ġphá»ĳ t
ĠJ e
ĠTh eo
ĠNÃ³ i
re d
Ġxo áº¯n
ĠSt ar
Tá» ķ
Gi Ã¡o
Ġ201 1
Ġ196 0
ĠHá» £p
ĠGab by
ĠvÃ² m
D avid
Q ua
T á»ĳt
Ġ uá»ĳn
Ń p
Ġv Æ°Æ¡ng
Ġm á»ĳc
Ġh Ãłn
Ġthá» ĳt
Ġr á»Ļn
Ġr Ã¬a
ong o
ĠT iÃªn
ÄĲ áº¥y
ĠC amb
ĠM ac
Ġká» ģ
ĠB ab
en ry
ĠA h
ĠK ing
ĠL Ã½
Ġ3 2
ĠV an
ĠmÃ´ t
il e
ĠW illiam
Ġ19 5
Ġ200 3
han a
Ġ197 0
Ngh Ä©a
ĠNhÃ ¬n
ĠPal est
B Æ°á»Ľc
D á»±
L oÃłi
g o
k hi
v áºŃy
w e
Ġc lip
Ġb á»±c
Ġb iáº¿m
Ġk áº½
Ġtr Ã¹m
ĠkhÃ ¹ng
ĠcÃ¡ p
Ġtháº ¯n
Ġcá»§ ng
Ġkh an
Ġnháº ¥p
Ġcáº£ ng
ĠT uyá»ĩt
in t
ĠnhÃł m
ĠM ic
ĠN or
ĠS im
ĠK ar
ĠL ad
Ġá» §i
Ġngá» ¥c
ĠG o
ĠG and
ĠD á»
ĠR io
Ġtho Ã¡ng
Ng uyÃªn
ĠW hi
ĠW at
Ġ6 5
om b
ĠCh Ãł
ĠCh uyá»ĩn
Th Æ°á»Ŀng
ig h
ig ami
th er
Ġ12 0
ĠchÃ³ c
ow n
ĠtÃ´ m
ĠZ e
Ngh iÃªn
iz za
Ġvacc ine
Ġor igami
C hÃº
T ube
g er
Ġ el
á» Ľ
ĠÄĳ inh
Ġb Ãºa
Ġk em
Ġp iano
ĠnhÃ £
ÄĲ Æ¡n
ĠchÃŃ p
ĠM y
Ġkho ai
Ġká» ĩ
ĠB Ãłi
Ġtá»ĳ ng
ĠS u
Ġsá»Ń ng
Ġph Æ¡i
ĠP háºŃt
Tr áº»
ĠW ar
ĠF ord
ĠTh Ãłnh
ĠhÃ¡ i
ĠU g
ou th
Äĳ á»ĥ
ThÃ ªm
Ġa x
ĠÄĳá»ĩ m
ĠTas man
b a
l u
Ġt Äĥm
Ġl Ãª
Ġm Ã©p
Ġk áº¹p
Ġs c
Ġs Æ°á»Ŀn
Ġg ai
Ġch Æ°á»Ľng
Ġta m
Ġx á»Ļn
Ġcho Ã¡ng
an ia
ĠT es
Ġdá» ĵn
Ġmá» Ľ
ĠB u
ĠB ush
Ġph e
Ġvá»ĭ t
ĠG hana
ĠTr á»
Ġrá» ¡
ĠW all
ĠY emen
Giá» įng
ĠghÃ ©
ĠthÆ¡ m
tr on
Ġhu Ã½t
Ġdá»ĭ u
ĠâĢ Ķ
gh t
Ġst udio
mp ic
yr ia
A R
C ola
K háº
M Ã¡y
N Æ°á»Ľc
c on
l ob
ĭ t
Ġt áº¡ng
Ġv áº©n
Ġtr iá»ģu
Ġtr Ã¨o
Ġg áº¡t
Ġd ai
ĠÄĳá» ¥c
Ġvá» Ľ
Ġth iá»ģn
á»ĳ p
ĠÄĳÃ£ i
ĠC A
ĠM ay
ĠN Ãªn
ĠN an
ĠB á»ĳ
ĠS yria
ar ah
Ġph iáº¿n
ĠK Ã¬
ĠK im
Ġtrá»į n
ĠÄĳo m
ĠG en
ĠG ia
Ġ3 000
Tr á»Ł
ĠV iá»ĩc
Ġrá» Ĺi
il le
it z
ĠÄĲá» ı
ly n
ĠPháº §n
ros oft
ĠHig gs
Nhá» Ŀ
ĠbÆ°á»Ľ m
ĠTal iban
ĠWor ld
ĠOx ford
ĠCamb ridge
ĠUg anda
d a
ª nh
Ġ Ã¢u
Ġ am
Ġt Ãºng
Ġv áº§n
Ġm Æ°u
Ġng Æ°
Ġh Æ°ng
Ġr Ã¢u
Ġr Ã¨n
Ġd áº¹p
Ġta ng
Ġgi eo
ot le
ĠT á»ĳt
ĠnhÃ ©t
ĠC ongo
ĠN L
Ġkháº ©n
ĠP er
ĠL ED
Ġngá» ¥
Ġngá» «
Ġ3 3
at i
Ġ19 50
ÄĲá» ©a
ed a
Äĳ iá»ģu
ĠAn dr
ĠBr ook
ec t
ĠYou Tube
ĠLeg o
5 00
k g
l Ãł
t en
į n
Ġt áº©y
ĠÄĳ Ã²n
Ġv áº¡n
Ġb Ã³n
Ġb áº«y
Ġg h
Ġd Ãª
Ġch iÃªm
ĠthÃ ¨
an e
ÃŃ n
ĠT uy
on ald
ĠhÃ ¢m
ÄĲ Æ°á»Ŀng
ĠC y
Ġháº »
ĠM ah
Ġtrá» ħ
Ġtrá» «ng
Ġdo l
Ġngá» £i
et ro
it ch
ĠE ric
ĠCh Ãło
ow er
Gi áº£
ĠPet er
rop y
á»Ľ c
T iáº¿ng
f e
o áº¡n
z e
¥ i
´ i
Ġ Æ°á»Ľt
ĭ a
ĠÄĳ Ã¨
Ġb anh
Ġb á»Ļc
Ġb uá»ĵng
Ġp izza
Ġcá» ĵn
Ġvá» įt
áº¥ ng
ĠcÃ³ c
Ġx ay
Ġbá» ĵn
Ġphá» ĵng
ĠM and
eo p
Ġká» ģn
ĠN Ãło
er e
er o
ĠH enry
ĠA s
ar i
ĠP l
ĠL ester
or a
Ġbá»ı ng
ĠO ly
ĠHo Ãłng
ri ght
un t
Ch Æ°a
Ġnhu á»Ļm
Ġj azz
ander thal
ĠNe anderthal
Ġsho w
Æ¯ á»Ľc
B Ã¡c
M T
S te
e f
m on
s au
t hÃ
v en
Ġ ac
Ġn Ã¢u
Ġv áº¯ng
Ġl Ã´
Ġs er
Ġng Ã¢y
Ġr á»ĳt
Ġp ound
Ġd Æ¡i
Ġnh a
Ġch ay
Ġnhá» Ļ
Ġpháº ¿
Ġngh iÃªng
ch o
ĠT ex
ĠT ony
ĠC hÃ¡u
ĠphÃ¡ o
ĠM Ãł
ĠA p
ĠS hi
ĠS ing
Ġngá» Ńi
ĠTr Ãªn
as er
Ġ200 1
ĠÃ´ tÃ´
th ur
op h
ard o
ĠX Ã´
ak e
ul in
ĠSc ot
ĠJo e
ĠPhÃ ²ng
ĠStan ford
ĠFlor ida
ĠMic rosoft
ĠthÃ¨ m
ĠTex as
1 2
B M
B an
e nh
h ua
Ġ áº¥p
Ġ ent
á» «
Ġn áº¡p
Ġn uá»ĳt
Ġb Æ°u
Ġk Ã¬m
Ġd Æ°a
Ġnh i
Æ°á»£ m
Ġx áº£o
an t
ĠnhÃ ´
em p
ĠB on
ĠH ans
ĠP at
ĠL uáºŃt
or y
ĠbÃ¡ t
Ng Æ°á»£c
ĠV ir
at a
Ġ... .
ĠHo ward
Ġ8 5
ĠU n
ag en
ĠÃĤ m
Ġtháº¡ o
ĠxoÃ¡ y
Ġbá»ķ ng
ani el
ĠAb raham
Ná» ģn
Ġon line
ÃĤ m
Ġent ropy
1 8
2 00
k ins
o ot
s ulin
¡ c
Ġ uá»·
á» ·
Ġt áº£o
Ġc á»Ļ
Ġc ay
ĠÄĳ áº¯m
Ġb áº¿n
Ġb áº©y
Ġk eo
Ġng Æ°Æ¡i
áº¿ m
Ġr á»±c
Ġd Ã¢ng
Ġch iÃªn
Ġth en
Ã¬ u
Ġta o
Ġqu áºŃn
Ġx áº¿
Ġx en
Ġngh iá»ģn
ch ia
ĠT ur
ÄĲ a
ĠM Ã¡y
ĠN ord
ĠÄĲ Ã´i
Ġqua d
ĠS áº½
ĠP an
ĠD e
Ġvi rÃºt
ĠJ er
ĠJ im
ol e
ĠW olf
ĠGi áº£i
Gi Ã¡
ĠBr on
ĠSh ak
ĠVá» ĭnh
Ġ198 0
ĠYou t
olly wood
ĠNá» ¯
ĠchÃ¹ m
ĠBrow n
ĠOly mpic
1 9
4 0
J ohn
M Ãłu
n es
s e
Ġn ÃŃn
Ġl ay
Ġl á»Ļi
Ġs Ã¹ng
Ġg ay
Ġd iá»ģu
Ġth iáº¿p
Ġth uá»³
Ġnhá» ĵi
Ġkh iáº¿u
ĠhÃ ¢n
ÄĲ á»Ļt
ÄĲ á»ĵng
ĠM u
ĠB ay
ĠB ol
ĠÄĲ áº¡o
ĠS outh
Ġvi Ãªm
ĠR ock
Ġso i
ĠV Æ°Æ¡ng
Ġ20 50
ro g
Chá» §
ag h
ev er
ĠPhÃ¡ t
ĠGiá» Ľi
ark et
Ġlu Ã¢n
ĠBá» ĩnh
ĠBl ack
ĠRos ling
Ġdol lar
Ġnhá»Ļ n
ĠYout ube
C H
b á»Łi
d en
r ap
Ġ Ã¢n
Ġl áºŃu
Ġs áº¿p
Ġtr inh
Ġtr á»Ļi
Ġg á»Ļp
Ġtháº ¯p
Ġx Ã´
Ġx Ã¡
Ġx áº£
Ġkh Äĥng
ĠT an
on a
Ġdá» ¡
ĠhÃ ©
in o
ĠC Ã¹ng
ĠC ap
ĠM or
ĠM áº¡ch
ĠH er
Ã© n
ĠÄĲ a
ĠÄĲ Ã£
ĠS i
ĠL Ãºc
Ġ3 1
Ġkhu áº¥t
ĠV Ã´
ĠV Äĥn
is on
ĠNg he
Ġ7 00
Ch ar
Chá» ĭ
ĠGi Ã¡ng
ĠAr ist
Ph Æ°Æ¡ng
urg er
ĠMá» Ĺi
ĠLat in
ĠNord en
1 5
V áº«n
m y
r ut
y an
Ã ģ
Ġt w
Ġt ua
Ġc ai
Ġc áº©u
Ġl Æ°á»£m
Ġm ar
Ġm á»įt
Ġb áº¿
Ġs Ã³i
Ġtr Æ°Æ¡ng
Ġtr Ãªu
Ġng Ã´
Ġng á»Ļ
Ġg áºŃp
Ġr ay
Ġr ia
Ġd ang
Ġnh Äĥn
ĠkhÃ ¢u
Ġkh e
Ġbá» Ľi
ĠT Ã¬nh
Ġná» ©t
ĠC D
Ġháº £
ĠM il
Ġkho Ã¡n
ĠH ill
Ġ2 9
ĠÄĲ an
ĠÄĲ á»ĵng
ĠA ir
Ġkhá» ĳn
ĠS er
ĠS al
ĠK y
ĠG ore
ĠD V
ĠD a
ĠD etro
al and
ĠR ay
el son
et on
Ġ5 5
ol l
ĠW il
ĠF or
Ġchi p
ĠHo áº·c
li an
Ġ8 00
re et
Ġin sulin
ĠPh Æ°Æ¡ng
Ġcu áº£
lob al
ĠScot land
arket ing
ĠArist otle
ĠDetro it
A M
B C
E C
c Ã¡c
d o
g in
g ar
i es
k el
m ad
t an
§ y
Ġn e
Ġn Ã£y
Ġn it
Ġv áº«y
Ġl iÃªng
Ġl Æ°á»£n
Ġl aser
Ġs p
Ġs áº£nh
Ġng Æ¡i
Ġg iáº¿ng
Ġr áº£i
Ġnh Æ°á»£c
ĠkhÃ ©p
Ã¢ t
Ġx Æ¡
ĠT hÃ´ng
Ġlá» ©a
ÄĲ i
ĠM os
ĠM el
ĠM ill
ĠB al
ĠB rian
er on
ĠÄĳá»ĵ n
ĠA ri
ĠS om
ĠL ong
ĠD is
es pe
ĠV ÃŃ
ĠV ic
Ġrá» ķ
ap ore
ĠE ar
ĠE ur
ĠO s
Th Æ°a
ĠhÃ¡ n
ĠSt reet
ĠU SD
av e
ĠGi ai
ev in
ian a
ans as
ĠbÃ³ p
sh a
ones ia
ĠphÃ´ i
ĠInd onesia
bur gh
vá» Ľi
ĠCE O
Ġsc an
ĠCy rus
Ġháº» o
ĠMand ela
ĠBron x
C Ã¡
C hi
N Ã£o
S h
b Ã¢y
e ar
h ay
k e
n ia
r á»ĵi
u x
v ia
Ġt Æ¡
ĠÄĳ an
ĠÄĳ Ãłng
ĠÄĳ un
Ġv áº·n
Ġv Ã¡y
Ġl áº¥n
Ġm arketing
Ġs uá»ĳi
Ġng Ãło
Ġthá» ģ
Ġd ev
ĠÄĳá» įng
Ġtá» Ľ
Ġtá» ¥t
Ġqu áº¡t
Ġx Ãłi
Ġkh iáº¿t
Ġchá» ĳn
ot o
ĠT it
Ġsá» ıi
Ġkho ang
ĠH á»ĩ
ĠÄĲ i
ĠÄĲ áº¿
ĠÄĲ áº§u
en ce
ĠA v
Ġkhá» ĳc
ĠK áº¿t
ĠR o
Ġmáº¹ o
oo p
Ġcháº· ng
ĠbÃ¹ n
cel and
ĠPalest ine
ĠLad en
ĠWat son
ĠShak espe
8 0
B I
C C
C ar
H áº¯n
I n
P T
b á»ĳt
c ol
i um
j o
¥ a
Ġ Ãªm
Ġt Ã¡t
Ġn áº¡
Ġn uá»ĳi
Ġn áº¯p
Ġn áº¿m
Ġv Ã¡ch
Ġl Ã¡ch
Ġm i
Ġm uÃ´n
Ġk il
Ġng áº¯t
Ġg Äĥng
ĠvÃł n
Ġh Äĥng
Ġh iáº¿u
Ġh Ãłu
Ġr Ã²
Ġr áº·ng
Ġd Ã¢u
qu e
Ġx i
ĠthÃ ª
á»į ng
Ġlá» Ńng
ĠM at
ĠM ur
ĠB áº¯t
Ġlo a
ĠH Ã´m
ĠÄĲ iá»ĩn
Ġbá»Ļ i
ĠK n
at ar
Ġrá» ĩt
il et
Ġchu i
ĠE s
ĠE ver
ĠÄĲá» ĭa
Qu ay
ĠQu an
iv ers
ph a
Ġlog o
ĠbÃª nh
Ok ay
ĠCarol ina
ThÃ¡ ng
ĠPark inson
ĠMont ana
ĠZe aland
Ġtw eet
ĠDV D
ĠVic tor
2 5
M A
S W
h ai
m i
o int
v ille
Ġ +
ī a
Ġc lick
Ġl en
Ġm il
Ġb on
Ġqu Äĥng
Ġx á»ĳp
ot on
ĠT am
ĠT ed
Ġdá» Ŀi
ÄĲ áº·c
ĠC áº£
Ġto a
Ġto ilet
ĠN Æ°á»Ľc
ĠH ollywood
am ine
ĠÄĲ Ã´
ĠS á»©c
ĠS ilicon
ĠP ro
Ġá» ª
Ġá» ıi
Ġ3 7
Ġngo áº¡n
ĠD r
Tr Ã¡i
ĠI r
ĠV al
Ġchu á»Ļng
ol lo
ĠE t
om e
ĠY o
ĠCh iáº¿c
Ġ200 2
ĠSt ew
Ġngá»§ i
ĠCháº ¯c
Ġel ec
ĠVir gin
Ġdev il
ĠShakespe are
B ill
H y
J o
K hÃ
P hi
T ÃŃnh
V áºŃt
X em
b o
d in
e ch
e at
h ar
s i
y e
Ã įt
Ġ Æ¡
Ġ áº¯c
Ġ op
Ġt Æ°á»Ľc
Ġt áº¡c
Ġc al
Ġc áº¯n
Ġc ua
Ġn á»Ļ
Ġv Æ°á»Ľng
Ġl Ã³t
ĠÄĳá» ©t
Ġch uá»ĳi
ĠcÃ¡ n
Ġhá» Ł
ÄĲ iá»ĩn
ÄĲ oáº¡n
ĠM á»Ļc
hi c
ĠB áº¥t
ĠB Ã¡c
Ġkhá» Ń
ar on
ĠP op
ĠD en
Ġnháº¡ o
ĠI BM
ĠI celand
Ġ4 6
ĠF er
Ġ19 00
Ġ19 30
om p
ew is
ĠNew ton
Ch Ãł
Ġca fe
ag os
Ġ199 9
yl on
ĠAm y
ĠnhÃ¡ t
ĠTo Ãłn
Ġquá» µ
ĠLá» Ľn
ĠDel hi
ĠGand hi
thÃ ¬
Ġelec tron
A r
B J
C á»Ļng
H á»
K iá»ĥu
g iá»
n i
n ie
p i
r in
s o
u i
v es
¥ y
Ġ Ã´i
ħ n
ĠÄĳ áº¡m
Ġn áº¿n
Ġn á»Ļp
Ġl á»įt
Ġb Ã¬
Ġb ar
Ġk iá»ģm
Ġtr Ã³i
Ġng áº£
Ġthá» ı
Ġthá» «ng
Ġthá» ĳn
Ġcá» įc
Ġnháº ¥c
ĠT in
Ġkhi nh
Ġdá» ĵi
Ãº m
Ġsá» ©a
ĠM er
ĠM ag
ĠN Æ¡i
ĠS á»ĳ
ĠS and
ĠK u
ĠL o
ĠL au
ĠL ar
ĠG old
ĠD on
Tr Ã´ng
os e
ĠR ed
el and
ĠVÃł o
at o
ĠJ ac
ol y
ĠW right
ĠF ri
Ġcháº¡ p
ĠTh ay
ec k
Ġngu á»Ļi
Kho a
ThÃ ¬
Ngh Ä©
ĠAt lan
ĠSing apore
ĠWolf ram
C L
G ia
T uyá»ĩt
W K
a f
a eda
b urg
i j
l as
n Ãªn
n ik
¨ n
¹ n
Ġ Â
Ġt áº»
ng Æ°á»Ŀi
Ġc áº¡o
Ġc Æ°á»¡i
ĠÄĳ ÃŃnh
Ġn hÃº
Ġn áº·c
Ġb in
Ġs Æ°á»Łi
Ġtr e
Ġh a
Ġr ong
Ġd Ãło
Ġth iÃªu
Ġqu áº©n
Ġgi Ãłn
ĠT ay
ĠT áº¡o
ĠT el
Ġlá» ¥a
Ġho i
Ġcháº Ńt
ÄĲ Æ°Æ¡ng
ĠC áº§u
Æ°Æ¡ c
Ġsá» Ŀ
ĠM ike
ĠM iss
Ġtrá» ĩ
ĠB i
ĠB ob
ĠB ud
ĠH an
ĠH Ãłnh
am es
ĠS k
Ġph Ãłn
ĠL in
ĠL ou
ĠG Ã´
ĠD Ã¹
Tr Æ°á»Ŀng
Há»į c
el d
Ġrá» Ľt
Ġchá»į i
ĠW i
ho p
us e
ĠphÃŃ ch
oi d
ro w
op ia
ĠÄĳá»ĳ n
ĠThá» ĳng
ĠNh iá»ģu
Ho Ãłn
Ġo k
ĠChá» ĭ
ĠQu Ã¢n
ĠZ imb
ĠAr g
Ġ201 2
Ġ198 4
ĠChi le
ĠCol umb
ĠChar lie
ĠLe on
ĠPhá» ¥
ation al
ĠAndr ew
ĠTan z
1 00
B A
D Æ°á»Ŀng
D Æ°á»Ľi
G lobal
R áº±ng
S t
S Ã¡u
T á»±
b um
k m
m ar
t áº¥t
u it
w ell
y d
³ t
Ġ áº£
Ġ Ã´n
Ġ enz
Ġt iá»ĩt
Ġc Æ°a
Ġc áº±n
Ġn hÃºng
hÃ £y
Ġv Ã£
Ġv Ã¹i
Ġb á»įt
Ġtr Ã¡
Ġg áº¯t
Ġg áº§y
Ġh ao
Ġcá» Ľ
Ġnhá» ¥c
Ġtá» Ł
iá»ģ ng
Ġx áº¥p
Ġchá» ĳc
uyá» ħn
Ġmá» ĭ
ĠC lin
Ġphá» Ľt
Ġkho Ã¡c
ĠN o
ĠN elson
ĠtÃŃ t
er ing
er yl
ĠH am
am e
ĠL ang
ĠL ak
Ġá» §
or s
ĠR am
ĠR and
et er
ĠV áº¥n
ic an
ĠW e
ter s
ho áº·c
ĠNg Ã´i
li z
ĠhÃ¡ o
re y
Ch ris
ĠAl bert
ĠAl pha
ul ia
ent ina
ĠAr thur
ĠSc ott
ind a
ĠThÃ ´i
ĠAlex ander
chá» ī
ĠJe ff
igh t
ĠBrook lyn
Ġgh en
ĠDis ney
C A
G eo
K inh
V Å©
a j
l ash
w ay
Ġt uá»Ļc
Ġc Ãłnh
ĠÄĳ iáº¿u
há» ĭ
Ġl Ã¡ng
Ġm Ã©o
Ġtr Ãłng
Ġng áº¡o
Ġng á»įc
Ġg o
Ġg áº¡o
ĠvÃł nh
Ġthá» ĳi
Ġr Ã¬u
Ġp op
Ġp oster
Ġd Æ°ng
Ġd áº³ng
Ġd iá»ħu
Ġvá» ±ng
Ġtháº £y
Ġcá»§ i
Ġbá» ī
Ġbá» Ŀi
ĠM as
ĠM att
ĠB ot
ĠB ao
ĠH u
ĠÄĲ á»Ļng
ĠA us
ĠgiÃ¡ ng
Ġdo p
Ġph anh
ĠK i
ĠK at
ĠL ee
Ġá» «
os t
el ly
et ti
Ng Ã´n
Ġkhu áº¿ch
ĠI g
is a
Ġ4 8
ĠJ ord
Ġ20 30
ĠTh iáº¿t
ob i
ĠY eah
ra b
ĠTED Global
Ġgá» Ľm
ĠU á»·
ard y
ab eth
Cháº ¥t
Qu áº£
ul l
if f
ĠQu áº£ng
iv e
Gi áº£i
ĠmÃ¬ n
ĠMo ore
ĠTháº §n
ier ra
ĠHig h
ĠKhÃ¡ n
uck s
ĠNgh iÃªn
Ġal bum
ĠVen ice
ĠHaw ai
ĠiP od
Ġax it
enh agen
Ãģ nh
ĠVirgin ia
ĠTanz ania
liz abeth
D an
F G
L á»Ŀi
M Ã¹a
O L
R A
S p
S á»©c
T hÃº
e as
f a
g i
h h
m o
o ol
r r
t amin
u áº§n
z ler
ĩ ch
ĠÄ ĥ
ĠÄĳ áº§m
ĠÄĳ áº·n
há» ģ
Ġv áº¯t
Ġv en
Ġm Ã¡c
Ġm et
Ġb uá»ĵ
Ġk g
Ġk iá»ģu
Ġs Æ°Æ¡ng
Ġg l
Ġch inh
Ġnhá» ©c
Ġnhá» įn
Ġqu áº§y
Ġx áº»
Ġpháº £
Ġcho Ãłng
ĠT Ãłi
Ġlá» ¥t
Ġho n
ÄĲ á»Ļng
Ġná» Ľi
ĠC N
ĠC Å©ng
ĠC as
ĠchÃŃ ch
ĠM in
Ġkho e
ĠN Ã´
ĠN ick
ĠH iá»ĩn
ĠA g
ĠP ower
ĠK al
ĠK ÃŃnh
ĠG il
Å© a
al em
Ġvi tamin
el p
Ġnháº¡ i
Ġ4 4
ic s
ĠJ ill
il y
it t
ĠF ar
ĠNg ay
Thá» īnh
us alem
ĠPhi l
Ġ8 6
ĠgÃ³ t
op s
Má» Ľi
az e
Ġtá»¥ ng
ĠCar n
ĠAm er
ain e
ĠTo Ãł
ĠCol omb
ĠMo z
ĠBos nia
ĠGeor g
ĠCop enhagen
ĠTes zler
Kháº £
ĠJer usalem
Ġop era
ĠArg entina
ĠClin ton
Ġdop amine
Ġbuá»ĵ m
C hÃ¡u
I A
J H
L iÃªn
O h
P hÃ¡
S á»Ń
c á»
k en
l Ãłm
n ed
s y
Ã Ķi
Ġ ao
Ġ ah
áº ³n
Ġc Ãło
ĠÄĳ Æ°Æ¡c
Ġn á»±c
Ġn áº¥c
Ġl Æ°á»Ŀi
Ġl iÃªu
Ġm u
Ġm an
Ġm Ã´ng
Ġb á»±
Ġs ilicon
Ġh uá»³
Ġthá» ī
Ġvá» īa
Ġnhá» ĳt
ĠT emp
ÄĲ Ã¡ng
Ġto áº¡
ĠM i
hi di
hi opia
ĠN ep
ĠN air
ĠB Äĥng
ĠB ir
er om
ĠH Ãłng
ĠÄĲ áº¿n
en a
ĠP ort
ĠL ine
Ġá» Ľt
Ġvi ol
el low
ĠJ enn
ĠJ ones
ol n
ĠW ow
ĠW est
Ġ19 3
ur t
ĠCh a
ĠkÃ© p
ĠHo Ã¡
re g
Ch iáº¿n
Ch Ãło
Ġsu Ã½t
ou g
ĠGi Ã¡
ib eria
ĠCar l
ĠJohn ny
yl via
ĠnhÃ¡ y
ThÃ Ń
ham mad
ĠMá» ¥c
inc oln
ĠLu Ã¢n
ĠThÃ ¬
ĠJos hua
ĠBab ylon
PT CH
ĠStew art
ĠColumb ia
Ġtá»Ł m
1 3
7 0
C Ãłng
C uá»ĳn
L áº¡i
M ich
R ob
S Ã¡ng
T Ã³m
k o
m en
w ich
áº ¤n
Ġc Ãºi
ĠÄĳ áº¯ng
Ġv Ã¡c
Ġl ung
Ġl Ãºng
Ġl Ã©n
Ġb it
Ġk iáº¿p
nh Æ°
áº¡ y
Ġg Ã¡n
Ġg á»ĳm
Ġr áº£nh
Ġr Ã¹a
Ġd áº¡n
Ġhá» ©c
Ġta xi
ĠnÃ³ c
Ġgi áº§y
Ġx Ã¬
Ġchá» ķ
ĠmÃł i
ch er
ĠT er
ĠchÃ ªnh
ĠC ity
ĠM ov
ĠB ell
ĠH Ã¬nh
ĠH ung
ĠH ir
ĠA R
ĠS á»Ń
ĠS ky
ĠS ierra
Ġph iá»ĩn
Ġph erom
ĠP au
ĠP ri
ĠK han
Ġ3 8
Ġ3 50
ĠTr áº¯ng
Ġxu Ã´i
ĠD u
ĠD aniel
ĠbÃ¡ u
el lo
Ġ4 2
il a
ĠW alk
ĠF ort
ĠE x
ac y
ĠO p
ĠPhi lad
Ġ7 2
Ġ9 6
Ġgá» ¥c
ri b
Ch Æ°Æ¡ng
ig an
th ay
ĠX em
ĠThá» §
Ġxá» ķ
if er
ut an
Ġ14 0
ĠVá» ģ
Ġ13 0
ĠGiá» ĳng
ĠCá» ¥c
ĠCá» ©u
ath er
ky o
ĠLe one
der son
Ġmá»ī a
ĠJos eph
Nháº ¡c
ĠiP ad
ĠStar b
ĠNor th
Ġac id
EC D
ĠSom alia
ĠVictor ia
ĠEt hiopia
ĠZimb ab
ĠHawai i
Ġhuá»³ nh
PTCH A
B á»įn
C Äĥn
H Ãłnh
H á»ĵi
M Ã´
M áº¥y
M á»ĳi
M ark
P aul
Q uy
T iáº¿n
T uá»ķi
g rap
m ed
r ge
u le
v Ãło
v ÃŃt
Ä ĳi
Ġ z
Ġ Æ°Æ¡i
á» «ng
Ġt áº¡
Ġc Ã´i
Ġc Äĥm
ĠÄĳ Æ°á»Ŀi
ĠÄĳ iá»ĥu
ĠÄĳ iáº¿c
Ġb l
Ġs á»Ļ
Ġs áº¥u
Ġng á»±
Ġng Ã¢m
Ġng uá»µ
Ġh en
Ġr ock
Ġch Ãł
Ġtháº £n
Ġqu áº¥n
Ġx Ãło
ot ter
Ġgiá» ¥c
Ġbá» ĩ
ĠT Æ°Æ¡ng
ĠT Ã¬m
Ġcháº £o
ĠchÃ ©o
ĠnhÃ Ń
ĠC Ã¡
Æ°Æ¡ m
Ġbá»ĭ t
ĠM T
ĠB h
er son
ĠÄĲ Ãło
ĠS he
ĠS iberia
ĠP enn
ĠL incoln
ĠG od
Ġngo áº·t
Ġvi rut
ĠbÃ© n
ĠI t
ĠQ atar
ĠJ ay
ĠJ es
ĠJ ane
ĠJ ulia
ĠE v
ĠNg há»ĭ
Ġtá»ī a
ĠlÃ£ i
ĠO ECD
oo h
ĠNew s
ĠÄĲá» ĭnh
Ġxo a
Ġcá»Ń u
ĠAl ice
Äĳ Æ°á»£c
Ġo xi
ub a
ul u
ĠQu Ã¡
ĠAn derson
ut nik
NhÃ ³m
eg ie
ĠEm ma
enn is
amb ia
ĠTo Ã¡n
ĠBer lin
ĠBer kel
Ġe ur
ĠBro ad
ĠPhá» ¥c
up er
Ġmá»ī m
lad esh
ĠrÃ£ nh
ĠGreen land
ĠSim on
ĠTasman ian
ĠMay a
ĠMu hammad
sha hidi
Geo rge
aze era
ĠCarn egie
ĠStarb ucks
ĠZimbab we
ĠBerkel ey
A dam
D onald
O X
S o
b or
b le
i h
j amin
m art
s ton
t Ã´ng
w en
¹ o
Ġ =
Ġ ion
Ĥ n
Ġt Ã½
Ġt Ã²i
Ġc Æ°ng
Ġc Ãły
Ġc Ãºng
Ġv áº§y
Ġl áº§y
Ġm áº§u
Ġm á»Ļc
Ġb áº§m
Ġg as
Ġh amb
Ġr á»ĵng
Ġr áºŃm
Ġd Ã¬
Ġd uyÃªn
ĠÄĳá» ±
ĠÄĳá» Ĺi
Ġnh am
Ġch iáº¿t
Æ¡ c
Ġqu áº¥y
Ġx Ã¡o
Ġx Ã³t
ĠT Ã¢m
Ġho r
Ã¹ n
ÄĲ áº¡i
ĠC amp
ĠM au
ĠsÃ¡ p
ĠN et
ĠN ike
ĠB á»ĵ
ĠB ali
ĠH av
ĠÄĲ á»ĵ
ĠS us
ĠS un
ĠS ud
ĠS arah
ĠmÃ¡ nh
ĠP ol
ĠL aw
ĠL ewis
ĠG h
ĠTr áº»
ĠD ub
ĠR on
Ġ5 000
ĠV i
ĠJ eop
ĠJ azeera
ĠÃ Ķ
as ka
it i
ĠF OX
Ġ19 2
ĠNg oáº¡i
ad e
ĠTh u
ĠTh Æ°Æ¡ng
ĠTh uáºŃt
ur on
un e
ĠSt eph
op a
ĠX anh
Ġxá» ĭt
ĠchÃ³ i
ĠchÃ³ p
Ġ18 0
Ġ18 5
Ġhi p
ĠBr it
Ġ16 0
ĠJohn son
ĠKen ned
Ġhá»ĳ c
ĠTo kyo
Cá» ¥
ĠBá» ©c
ĠSp utnik
ren ce
ĠBang ladesh
ĠLu ther
Kh u
ĠbÆ°á»Ľ u
ĠCam eron
thal ate
thá» ±c
ĠWhi t
ĠEar th
ĠAtlan ta
ĠLeon ardo
ĠÄĥ ng
elp hia
ĠColomb ia
ĠPhilad elphia
ĠSteph en
ĠKenned y
9 9
C á»ĳ
D A
D Ã¢n
D á»±a
E A
K há»
M S
N C
S S
S uy
T áº¥m
b ie
d es
h a
k ey
l ay
l em
s c
s hi
z Æ¡
ħ u
Ġt áº£n
Ġt est
Ġc m
Ġn a
Ġv Ã´i
Ġv iá»ģn
Ġb Ã´i
Ġs and
Ġtr iá»ħn
Ġng uyá»ĩt
Ġg iá»ģng
Ġr Ãł
Ġp oly
Ġgi un
Ġx Ã¢u
Ġx áº¯n
Ġchá» ĵn
ĠT áº¡ng
ai t
Ġcháº £i
ĠchÃ ©n
ÄĲ Ãłn
in burgh
ĠM inh
em ber
Ġtrá» Ľ
Ġtrá» Ĺi
ĠB el
ĠB as
ĠB ert
ĠH a
ĠH ad
am as
ĠÄĲ Ã´n
Ġkhá» ĳng
ĠS iÃªu
ia l
Ġy eah
ĠK hÃ
ĠK am
ĠK elly
ĠL oáº¡i
ĠquÃ¡ ng
ĠG ran
al y
ĠbÃ¡ ng
ĠR obot
ĠR og
et te
Ng uá»ĵn
Ġ5 8
ĠV áºŃt
ap agos
ol as
om en
ĠTh Æ°a
ĠPhi lip
Ġghi m
th e
op atch
av a
ell er
Ġtá»¥ i
Ġ199 5
Ġ199 6
Ġ199 8
ph one
ph ere
ĠCá» ©
ĠMich igan
ĠEd inburgh
ĠLib ya
ĠCop ern
ĠHaw k
ĠGal apagos
Tá»ķ ng
ĠTasman ia
ĠNan opatch
ĠAp ollo
ĠnhÃ´ m
ĠEver est
ĠLak ota
Ġthá»ī u
ĠNep al
ĠNair obi
ĠHung ary
grap hic
ih ad
Ġhamb urger
B en
H áº³n
J os
K iáº¿n
O PA
P eter
T S
T áº¿
X Ã£
a x
c y
n Ã´
o z
p u
r ay
t t
t im
t ic
t háºŃt
z ona
± n
Ġ áºŃp
Ġ ooh
Ġt á»Ļt
Ġc Ã¢m
Ġc Ã²i
ĠÄĳ áºŃy
ĠÄĳ áº¯c
Ġn o
Ġv e
Ġv Ã¡
Ġv Å©ng
Ġv iá»ĩt
Ġl áº«y
Ġb Ãłnh
Ġb Ãłng
Ġs áºŃp
Ġng Æ°á»Ľc
Ġng áº·t
Ġg el
Ġg áºŃt
Ġg há»ģ
Ġh iÃªn
Ġh el
Ġthá» §ng
Ġr Ã¡ch
Ġd áº¥n
Ġnh Æ°á»£ng
á»± u
Ġra p
ĠphÃ ´ng
ĠT áº¿
ai g
ai ro
Ġcháº ±ng
in n
ĠM ap
em an
ĠN ational
ĠB á»ĳn
ĠB oy
ĠH ol
ĠS á»
ĠS ol
ĠS ad
ĠS Ã¡u
ĠS uper
ĠK r
ĠK evin
ĠK ansas
ĠL áº¡t
ĠL eb
ĠG ar
ĠTr uyá»ģn
ĠR es
ĠR oy
Ġkhu áº¥y
ĠI M
Ġ5 2
ĠV iáº¿t
at er
ĠE S
om et
ĠO ak
ur a
Ġ7 4
Ġ9 8
Ġ9 00
un k
Vá» ĭ
ĠU shahidi
Äĳ Ã£
oc r
Ġo x
ĠQu ay
ĠQu Ã½
ĠAn as
Ġáº¢ o
att le
ĠBer n
ĠEd ward
inc eton
ĠPr inceton
PhÃ Ńa
umb ai
ĠNháº ¥t
oster one
ĠJack son
ĠTrá» ĭ
oph er
ĠAri zona
giá» Ŀ
ĠTemp est
ĠMov ember
ĠSud an
ĠJeop ardy
1 4
9 0
A K
B iá»ĥu
E instein
H C
H iá»ĥn
K áº¿
N G
R W
R ichard
S C
S uá»ĳt
T á»ĳi
T uáº§n
b r
b ao
c ou
c ent
e ith
f ur
i el
m Ã´n
p háº
u z
v is
y m
z z
Ġ et
Ġ amin
Ġ Æ¯á»Ľc
Ġt áº·c
Ġt Æ°á»Ľi
Ġc áº©m
ĠÄĳ áº¯p
Ġn Ã¡o
Ġv uá»ĳt
Ġv iáº¿ng
Ġm e
Ġm ao
Ġm áº·n
Ġb Ã£
Ġs uÃ´n
Ġtr Æ¡n
Ġtr Ã¹
Ġng áº§n
Ġg ram
Ġr á»įi
Ġr eo
Ġr Ã²ng
Ġr áº©y
Ġnh ai
Ġcá» «
Ġnhá» įc
Ġtháº ¹n
Ġpháº «n
Ġsáº ¹o
ĠphÃ ¬nh
ĠT Ãªn
ĠT ah
on to
Ġná» ĵi
ĠC ao
ĠC or
ĠC uá»ĳi
ĠC airo
Ġbá»ĭ ch
ĠM áº·c
ĠM áº¡ng
ĠM umbai
em y
Ġká» µ
Ġká» ĭ
ĠN há»
ĠB áº£y
ĠB eet
ĠH el
ĠÄĲ Ãłi
ĠA ch
ia s
ĠP ep
ĠK háº
ĠL ai
ĠL uc
ĠG ro
ĠD ie
ĠD oug
al ay
os au
Ng Ãłnh
at ur
ĠQ ua
Ġ4 3
Ġláº½ o
ĠF ox
ĠE le
Ġ19 0
ho o
ho ven
ad o
ĠY Ãªu
ra h
ĠHo Ãłn
Ġ9 3
ĠlÃŃ t
re e
ĠIn ter
Chá» ¯
ĠX u
ĠAl aska
Tá» Ľi
ĠGi Ã¡m
um p
Ġf an
Qu ÃŃ
Qu Ã¢n
ChÃ ¢u
ĠAn n
Gi ai
Ġpr Ã´
ĠâĢ ¦
ĠÃģ o
ach el
ĠTim e
ĠPhá» ĳ
fi eld
ĠCA PTCHA
Ġviol in
Mich ael
rib ati
Ġtest osterone
6 0
B á»ĳn
C áº£nh
E d
Q uyá»ģn
S B
S inh
V Äĥn
c Å©ng
d ing
h m
h ol
k r
r Ã´
r ick
r ina
s w
t háº
t ion
w ord
y c
Ġ )
Ġ q
Ġ en
Ġ áº§m
Ġ it
ĠÄĳ Ãª
Ġn ang
Ġn ai
Ġv v
Ġl á»ĳ
Ġl á»Ļng
Ġl iá»ħu
Ġb o
Ġk iÃªu
Ġs áº¡c
Ġng uá»
Ġg Ã²
Ġg Ã´n
Ġg áº§m
Ġh Æ°Æ¡
Ġd áº¥y
Ġd Ã¨
Ġcá» Ĺi
Ġch anh
Ġch uá»ĵng
Ġqu áº³ng
Ġgi ang
Ġx á»Ł
Ġchá» Ļ
Ġchá» ķi
ĠthÃ ¢
ĠthÃ ¬nh
Ġhá»į ng
Ġnháº ½
ĠT iá»ģn
ĠT un
ÄĲ áº·t
au s
in es
ĠC uba
Ġháº ¯c
Ġsá» ¥t
ĠM us
ĠM Ã¹a
ĠM ama
Ġtrá» ı
ĠN athan
ĠH al
ĠH á»ĵng
ĠÄĲ Æ°a
ĠÄĲ á»ĳi
ĠA ng
Ġkhá» Ŀ
ĠS n
ĠS en
Ġph ao
ĠK á»¹
ĠK ur
ĠL i
ĠL áº§n
Ġtrá»į t
Ġngá» £p
or m
ĠD ick
Tr ang
ĠÃŃ n
al in
im et
os hi
ĠR ad
ĠR id
ĠI van
ĠV ol
is ter
ĠQ uyá»ģn
ic us
ĠJ an
ĠJ ers
Ġba zÆ¡
ĠE ve
ĠE lizabeth
us tin
Ġ6 4
ĠO n
ĠO li
ĠTh ung
ob s
ri ng
Ġban jo
ĠU r
ey er
Má» ©c
ou d
ĠYork er
te ch
ow s
ĠQu áº§n
ĠhÃ¨ n
Ġ199 4
Ġgam es
ĠGiá» įng
ĠSc r
ann a
ann y
Ġ197 5
ĠMc C
ĠCá» §a
Ġkhuy a
ĠLá» ĭch
ĠRom o
.. .
ĠSe attle
Lá» ĭch
ChÃº a
ĠLester land
Char les
gar et
ĠLou is
ĠKi ribati
ĠCN N
ĠSky pe
ĠJes us
ĠÄĳá»± Æ¡c
ĠHav ard
Ġsand wich
cou ver
ĠBeet hoven
ĠJers ey
A O
B iáº¿t
C Ã¢y
G M
J ames
K en
M G
N Äĥng
R G
R NA
S R
S á»
S ai
T iá»ģn
T im
T homas
W omen
X L
c Ã²n
c al
c us
e ng
e ad
i ro
m s
o ff
t el
t háº¿
u ela
¨ ng
² i
ģ u
áº µn
ng h
Ġc Ãµi
ĠÄ Ĥn
ĠÄĳ Ãºt
Ġn Ã²ng
Ġn áº¥ng
Ġm iÃªn
Ġm Ä©
Ġm Æ°á»Ŀng
Ġb e
Ġb Ãº
Ġb us
Ġk i
Ġk Ã¨n
Ġtr Ãºt
Ġg áº·m
Ġr áº¡c
Ġp ass
Ġth Ãł
Ġtá» ©
Ġx Ã³i
Ġgiá» ħu
Ġnháº ¥m
ĠT á»ĳi
ĠT ÃŃnh
ai d
Ġsá» «ng
Ġbá»ĭ p
Ġto p
ĠM et
ĠM ass
ĠM itch
hi s
ĠN ic
ĠB M
ĠB Ãªn
Ġlo Ã©
ĠH im
ĠH om
en e
ĠA sh
ĠA rab
ĠS ylvia
ĠcÆ¡ m
Ġph thalate
áº¹ o
Ġ3 4
ĠTr anh
or i
ĠD Ä©
ĠD oh
ĠD av
Ġthu á»Ł
im ee
iÃª t
ĠI P
Tháº ¥y
Ġ5 4
ĠV er
Ġ4 50
ĠJ erry
it a
ĠW ill
ĠF GM
Ġláº¡ y
ĠO reg
ĠTh Æ°
ĠCh ad
li pp
ĠSt ate
th ew
op y
ab le
ine a
ill a
Ġf ile
az a
ĠCon n
iv a
ĠAr ch
Ġtháº¡ c
ĠIs land
all on
Ġ199 7
ĠhÃ£ nh
ĠCháº ¿t
ĠGeo graphic
ĠMc G
ĠMc K
ath on
ĠPh Æ°á»£ng
Ġbu Ã´ng
ĠBl ue
To Ãł
ĠGre at
ĠBe ach
ĠBen jamin
ĠStev en
ĠOk ay
ĠJu lian
ĠNgh Ä©a
ĠTor onto
ĠGr and
ĠGu inea
ĠVan couver
ĠTes la
ĠPer u
ĠShi r
agh etti
Ġmar athon
Ġsp aghetti
ĠEur opa
ĠthÃª u
oton in
ĠFri ed
ĠTay lor
Ġmá»ĭ n
ĠJeff erson
ĠKat rina
ĠJord an
PhÃ¡ t
ĠBh utan
ĠFOX O
ĠBert ie
ĠHawk ing
tim ore
ĠDie go
ĠhÆ°Æ¡ u
ĠTun is
Ġpass word
ĠHim alay
ĠDoh a
ĠOreg on
1 1
7 5
B áº£o
F ran
K á»
L Æ°á»£ng
L Ã²ng
M ong
N am
N iá»ģm
S E
S am
T Ãłi
V i
X e
X Ã©t
b á»ĳn
c Ã¡i
e ff
f red
r áº±ng
r it
t á»«
¡ y
Ġ Æ°á»Ľp
áº ¢
Ġt em
Ġt een
ĠÄĳ iá»ģm
ĠÄĳ áº«m
ĠÄĳ áº¥ng
Ġn Ã´i
Ġn Ã´n
Ġn áº·n
Ġv Ã³c
Ġl on
Ġl áº«m
Ġl ink
Ġm iá»ĩt
Ġb áº§n
Ġk iÃªm
Ġs áº£y
Ġs áº¥m
Ġtr o
Ġtr Ã¢u
Ġng uyá»ģn
Ġg á»Łi
Ġh un
Ġr Ãłnh
Ġr áº¡ng
Ġr áº¡ch
Ġp rog
Ġd áº«u
ĠcÃ¡ u
Ġnhá» ķ
Ġchá» ĩch
ot os
an on
an ic
ang e
ĠT y
ĠT inh
Ġho áº¡n
on acc
ÄĲ á»Ļ
ÄĲ áº¥t
ĠC P
ĠC en
ĠC ur
Ġsá» ¡
Nh iá»ĩm
ĠM Ã´i
ĠM Ãª
ĠM oh
ĠB iá»ĥn
ĠB lo
ĠH áº¯n
ĠH all
ĠÄĲ áº·c
ĠA ur
ĠS Ã¡ng
Ġph u
ĠP ier
ĠK ib
ĠL Ã¢m
ĠL ov
ĠG an
ĠG á»Ńi
ĠG eh
ĠTr Äĥng
ĠTr eas
Ġxu áº©n
ĠD Ãłn
Tr Ã²
al ore
Ġvi Ãª
es e
Ãµ m
os h
ĠR a
ĠR od
ĠR uss
Ġtho a
et a
et own
Ng Ã´i
Ng Ã¢n
ĠI m
at z
Ġrá» ¥ng
ĠQ aeda
Ġ4 000
ĠJ ess
ap p
ĠF ib
ĠF BI
Ġ20 20
le ans
ĠNg uyÃªn
ac t
ur ch
ĠCh uyáº¿n
Ġ7 7
Ġ7 8
Ġ8 2
Ġ9 7
oi r
ri e
ĠÄĲá» Ŀi
net t
ĠSt r
ĠSt ir
id eo
th a
ran e
ĠU N
ĠU kr
ag an
ag er
Ġ12 5
ab ad
ĠAl b
ĠAl len
Tá» ī
ou l
ow itz
ChÃ ¢n
ĠZ ambia
Ġcan xi
ĠAr t
aw a
Ġ199 2
ĠEm ily
ph en
Ġ198 9
ĠxÃŃ t
ĠMc Donald
ber ry
ath em
ĠBá» Ŀ
ĠRos s
ĠBang alore
Ná» Ĺi
ĠSch w
een ey
ĠOr leans
ĠRom e
Ġsho ck
ĠGr ace
ĠVen ez
Dá» ¯
Ġmicro RNA
ĠWar ren
ĠPl ato
Ġser otonin
ĠKy oto
Ġne uron
ĠBal timore
KhÃ ³
Ġcal o
Ġmet an
ĠAmer ican
ĠWalk er
ĠLaw rence
ĠRog er
ĠLeb anon
ĠOak land
onacc i
ĠTreas ure
ĠVenez uela
6 00
A G
B Ã¬nh
B uá»ķi
C E
D i
E ric
G G
H iá»ĩu
J u
L uáºŃt
L uÃ´n
M Ã¬nh
M att
T áº¡o
V Ã¹ng
i re
l Ãª
l av
m á»
v a
y o
¡ i
² m
µ m
µ ng
Ġ #
Ġt Ãº
Ġc at
Ġv Ãª
Ġv Äĥng
Ġl áº©n
Ġm á»Ļi
Ġm Ãºt
Ġb áº¡t
Ġs áº£i
Ġs Ãºt
Ġs un
Ġng Ã¡ch
Ġg Ãło
Ġg Ã¡y
Ġg allon
Ġr Æ°á»Łi
Ġd uá»Ĺi
Ġd áº«m
Ġch en
Ġtá» ĥ
Ġqu áºŃt
Ġgi Ã²n
Ġx Ã´ng
Ġbá» ¥c
ĠT i
ĠT iáº¿p
ĠT enn
ĠT eh
ÄĲ Ã¢u
ÄĲ Æ°a
ÄĲ Ã¡m
ĠM ot
Ġlo Ãł
er b
ĠH áº§u
ĠH Ã¡t
ĠÄĲ Æ°á»Ŀng
en berg
ĠA aron
ĠA imee
ĠS il
ĠS á»ĳng
ĠS MS
ar en
Ġy ou
Ġph ai
ĠP ap
ĠP ink
ĠP otter
ĠK iáº¿n
ĠK le
ĠK eith
ĠL im
ĠL ock
Ġngá» Ńa
ĠG l
ĠG ord
ĠG aza
ĠD ol
Tr ÃŃ
ĠR áº±ng
ĠR ick
Ġtho i
Ng Ãłi
ĠI Q
ĠI l
Ġ5 3
Ġ5 7
ĠV inc
it ion
ol i
ĠF r
ĠF ellow
ĠF DA
ĠE c
Thá» ĭ
us d
Ġ6 8
ED I
ĠnghÃ ªnh
ob yl
ob ule
ĠY ale
li der
ri g
ri ch
ri el
re am
Ch eryl
Chá» ©ng
ĠSt ock
ing s
ing ton
ag a
ĠX Ã£
ĠX Ã¢y
ab a
Tá» ©c
ak s
Ġ40 4
ĠMar io
ib o
Ġ11 0
man n
man uel
if e
ĠQu áº£n
ec ca
uc e
ĠSh er
ee ch
ov er
ĠCá» ķ
Ġquá» ³
ĠJo el
ĠSau di
ĠBe at
ĠJam ai
ĠWik i
ern obyl
ĠFrank lin
Ġ194 5
PhÃ ¢n
ĠSw eeney
ĠJon athan
ĠGand o
Ġax ÃŃt
ĠCA D
ĠPan the
Ġnit ric
ĠMur ray
Jo e
ech n
ĠDen is
ĠnhÃº n
Ġgl uc
Ġhor m
ĠSus an
ĠDub ai
ĠCopern icus
osau rus
ĠOli ver
otos hop
ĠFib onacci
ĠStir ling
ĠTeh ran
ĠPanthe on
. &
4 5
A V
A m
B Ã¡o
C am
D aniel
H áº¡t
J on
J im
J enn
L e
M Æ°á»Ŀi
M áº¥t
M art
P H
R C
T M
X Ã¢y
b áº±ng
b in
c t
c háº
l et
m et
m ail
o ch
p kins
s ia
t z
w w
¡ n
£ c
Ã Ķ
Æ ł
Ġ 00
Ġ uyÃªn
Ġ áº£m
Ġ Ãºt
áº ¨n
Ġc omp
ĠÄĳ Å©a
Ġn ung
Ġn á»įc
Ġv Ã£n
Ġl anh
Ġm au
Ġb iáº¿ng
Ġs on
Ġs Æ°ng
Ġg áº·t
Ġg Ã¢n
Ġg ra
Ġthá» ¥c
Ġr Ã¡n
Ġd á»ĳt
Ġd áº·n
Ġhá» Ŀi
Ġchá» Ńng
an y
ch e
Ġnháº £m
on t
Ġcháº ¯t
ĠnhÃ ¬
Ġháº ±n
ĠM áº¯t
ĠM ed
ĠM ak
ĠM eyer
em ala
ĠN á»Ļi
ĠB il
ĠB ah
Ġlo Ã£ng
ĠH ong
ĠH Æ¡n
ĠH as
ĠÄĲ áº¥y
ĠÄĲ áº¡t
ĠA il
ĠA li
ĠS ho
ĠS áº¯p
ar s
ar ry
ĠP u
ĠK ay
ĠL áº¡i
ĠL en
ĠL ab
ĠL oÃłi
ĠL ike
ĠG ay
ĠG áº§n
ĠG er
ĠG iÃª
ĠTr Æ°á»Łng
ĠD AR
ĠÃ¡ t
es a
es k
el li
ĠI x
ĠV Å©
ĠV ik
at emala
Ġ4 7
ĠJ ud
Ġvá»¥ ng
as on
it s
ĠW h
ĠE ng
ĠE ast
ĠE ss
ho a
Ġ6 7
om an
ĠO tt
ĠY ves
ĠCh Æ°Æ¡ng
ĠCh ernobyl
ĠkÃ© n
Ġ8 4
ri r
ro f
Ġ100 00
ĠSt one
ah a
th ony
ĠU CL
lo ud
ĠAl l
Tá» «ng
ou x
ĠNh iÃªn
tr al
Ġf oot
ĠMar y
ex tin
ins ky
aw i
ĠVá» ¥
Bá» ı
ĠCal tech
ĠHar lem
ĠSan ta
ĠIra g
Ġlu áº©n
ĠPal m
ĠMo MA
ĠKho áº£ng
ĠAb u
ast ian
ok o
ĠxÃ© n
ĠJu li
ĠFre e
ĠTor a
Nháº Ńn
ThÃ¡ ch
Dá» ĭch
ĠLat inh
vá» ģ
ĠJon as
ster dam
ĠKhá» ĳi
ĠAh med
ĠWilliam s
ĠWhi te
ĠTit us
col ate
ĠLo an
ĠLang ley
Sp eech
ĠMoz art
Rob ert
Ġpherom one
ĠOp rah
shi re
ĠTah rir
ĠPep si
ĠMitch ell
Ġprog eria
ĠGeh ry
ĠTenn ess
ĠDol by
B ÃŃ
B áº¥y
B áº£y
C P
C hÃºc
D R
D áº§u
D Ã¹ng
E G
H ans
I PA
L Ãªn
L ee
M Ã´i
M á»Ł
M ED
M RI
S M
T áºŃp
T áº¡p
T ho
T om
T alk
Z K
b an
c m
c Ã¢u
c ia
j ev
j ect
k i
k ansas
l ot
m ud
m oud
o is
r ew
s in
s yl
s tein
y on
¬ a
Ġ is
Ġ aw
ı m
Ġt áº¥u
Ġt Ãºp
Ġt uÃ´n
Ġc á»Ļi
Ġc áºŃt
Ġc ello
Ġc opy
ĠÄĳ áº¥m
ĠÄĳ Ã¹i
Ġn hÃºt
Ġn oi
Ġn Ã¡u
Ġv Ã¡ng
Ġl áº§u
Ġm ÃŃ
Ġs Ãªn
Ġs áº£o
Ġtr u
Ġng Ã³
Ġng Æ¡
Ġng áº¥t
Ġng áº¥m
Ġr á»Ļ
Ġr Æ¡
Ġp en
Ġnh oi
Ġch iÃªu
Ġth iá»ĥn
Ġx ao
Ġchá» ¯ng
ot e
an o
Ġgiá» Ł
ĠT u
ĠT á»Ń
ĠT ob
ĠT arah
Ġho Ã¡n
Ġho Ã³c
Ġcháº Ń
ĠhÃ ³t
ĠC áº§n
ĠC áº£nh
ĠC oo
Ġsá» ¥c
Ġsá» ¥n
Ġsá» §a
Ġphá» ĵn
Ġbá»ĭ a
Ġkho áº£
Ġkho anh
Ġkho Ã¡t
ĠN ov
ĠN BA
ĠB o
ĠB uá»ķi
Ġlo ang
ĠH i
ĠH áº¡
ĠH un
ĠS á»¹
ĠS is
ĠS ara
Ġdo o
Ġy o
ĠP y
ĠP or
ĠP as
ĠK áº»
ĠL áºŃp
ĠL as
Ġá» ľ
ĠG ol
ĠG ri
ĠG ary
ĠTr iá»ĥn
ĠD áº¡
ĠD iana
Tr á»«
ĠR yan
el ine
ĠV ua
at s
Ġrá» ĩ
Ġrá» ¥i
Ġ4 1
ĠÃ ģn
as a
as ter
ĠW oo
ĠF ed
ĠE con
ĠNg Æ°Æ¡i
Ġ6 000
ad i
ĠO oh
ob o
ĠCh Æ°a
ĠCh en
ĠTED Women
ĠTED MED
ĠChÃ ¢n
Ġda f
Ġw att
ĠSt ein
ig er
ing o
ĠAl fred
Tá» ĩ
ak i
ou gh
ĠKá» ·
ĠKá» ĥ
um ara
ich olas
ĠChá» Ŀ
ĠChá» ĳng
ĠThÃ¡ p
ep ler
art z
ĠAr kansas
ook ie
ip p
KhÃ¡ i
ĠHar ry
ach us
Ph ong
Ġblog ger
Ġnho Ã¡ng
ĠCol l
ĠNhÃ ³m
ind er
ĠPh ong
ĠPal extin
ĠRos e
ett s
ĠThÃ Ń
Nhá» Ľ
ĠLib eria
van ia
Ġ36 0
ĠGu atemala
ĠSam uel
dy ss
Ġkáº½ m
ĠNor man
unt u
ĠUn ivers
ĠMos es
ĠOs car
In ternet
ĠMat thew
ĠIr eland
ĠGil bert
ĠPenn syl
ĠES G
ĠBlo om
ĠviÃª c
ĠAil en
ĠEss ex
ĠTora ja
ĠTenness ee
ĠTarah umara
ĠCoo per
ĠPennsyl vania
3 00
9 8
A S
B ay
C Æ°á»Ŀi
D I
F re
H z
H á»Ļi
P P
P oint
R obot
T D
T Ã¬m
T áº§m
W ell
Y eah
b ox
c am
d re
d ers
f li
g g
g en
g ie
h r
i os
k ar
l eton
m á»įi
p son
t áº¡i
t ail
u ch
v i
« m
Ġ ar
Ġ est
áº ©ng
ĠÄ ©
ĠÄĳ áº£
ĠÄĳ ong
ĠÄĳ áº§n
Ġn áº¡i
Ġn eo
Ġn áº¡t
Ġn áº¥p
Ġn Ã¡ch
Ġn Ãºm
Ġv áº¥p
Ġl Ã¬nh
Ġl á»ĳc
Ġl uá»ĵn
Ġl Ã³ng
Ġm em
Ġm Äĥng
Ã´ c
Ġs Ãłnh
Ġs Ã²
Ġng Ã²i
Ġr áº§u
Ġr Ã¢m
Ġr áº¯m
Ġr áº«y
Ġd Ã©p
ĠÄĳá» ħ
Ġcá» ĵng
Ġcá» £t
Ġth uyÃªn
Ġhá» īnh
ĠthÃ ©t
Ġcho colate
ch i
ĠT Ã¡m
ĠT so
Ġho p
ai re
ĠhÃ ¹
Ġná» ĥ
ĠC a
ĠC om
ĠC hÃºc
Ġto ur
ĠM Ã£
ĠM Æ°á»Ŀi
ĠM Ãłu
ĠM id
ĠM athem
Ġkho Ã©
ĠN ar
ĠN Ã£o
ĠB Ã³ng
ĠB ow
er at
ĠH ot
ĠH iá»ĩu
ĠH amp
ĠH ind
am an
ĠÄĲ Ã¢u
ĠÄĲ á»Ļc
ĠA z
ĠA ye
ĠS á»Ł
ĠS Ã¡ch
ĠS ri
ĠS OPA
ĠP ic
ĠP art
ĠP ost
ĠK Ã´ng
ĠK er
ĠK iá»ĥm
ĠK ab
ĠK ent
ĠL ev
ĠL áº¡y
Ġvá»ĭ n
Ġá» Ŀ
Ġngá» Ŀi
ĠG G
ĠG it
ĠG raham
ĠD ai
ĠD iá»ħn
ĠD or
ĠD un
es c
ĠR u
ĠR ow
ĠR iv
el t
el le
et s
ĠI K
at ica
Ġrá» £
ic ut
ĠJ ar
il ot
il ey
it es
it ra
ĠW in
ĠW ood
ĠF ound
ad ore
ad da
Ġvá»ĩ t
ĠO l
ĠO dyss
Ġ7 6
ĠHo pkins
ĠTED Talk
Ġ9 4
eb astian
Giá» ¯a
Th am
Th uá»ĳc
Ġw ater
Ch u
Ch uyáº¿n
ĠIn tel
Ġ15 00
Ġnghi Ã£
ag u
ĠbÃŃ p
ey n
ĠAl an
ĠThá» Ń
ou t
Ġ18 00
Ho áº¡t
tr ol
ĠMar yl
ĠMar sh
ĠChá» ©c
ĠThÃ¡ ng
Pháº £n
Ġtháº§ u
ĠBr and
ĠBr ad
ĠBr uce
ĠSh ah
ĠCar r
ĠCar ter
ĠJohn s
Ġ201 3
KhÃ¡ c
Ġgam ma
ĠAm sterdam
ee k
ĠLan ka
Ġ198 5
Ġ198 8
amb i
ĠSc i
ann ah
og a
og y
ith a
oy ager
ĠBar b
ĠBar ack
To Ã¡n
ĠBe au
ast le
ok e
ĠCr aig
ĠMal ay
ĠJu lie
ĠBrow ne
ĠChrist opher
ĠPalest in
ĠKar l
ĠGo ering
Ġngá»« Æ¡i
ect icut
Ste phen
ĠBay es
ever ly
ĠSi oux
ĠMill er
col m
Ġmil imet
ĠIr áº¯c
ĠYo ung
ĠWe ibo
ĠAus tr
mo or
ĠPower Point
ĠHir oshi
ston e
ĠThu la
hol m
ĠScr atch
ĠConn ecticut
ĠKib era
ĠJamai ca
Ġgluc ose
ĠUCL A
ĠFree Speech
jev o
lot te
ĠcháºŃ u
Ġrá»ĩ p
achus etts
fli x
ĠMathem atica
ĠMaryl and
1 6
A T
B e
B uá»ĵn
B ob
C a
C Æ¡n
C Ãº
D iá»ħn
G oogle
K B
M iá»ħn
O C
O S
Q aeda
S F
S áº£n
V Ã¢y
a a
c áº£m
d it
e us
h orn
k h
l au
m Ã©t
m ond
m inder
o on
p hÃ
r áº¥t
r ess
s u
s á»±
u h
u chia
v in
w a
w est
w ait
x ter
y te
y me
© y
Ã ©c
Ã §a
Ġ Æ°Æ¡m
ķ ng
Ġc áº·n
Ġc ock
ĠÄĳ Æ°á»Ľc
Ġn Ã¨
Ġv on
Ġv áº¡t
Ġv Æ°á»£n
Ġl Æ°
Ġl á»Ł
Ġl Ãµm
Ġm eg
Ġb Ã´
Ġs uyá»ħn
Ġtr Æ¡
Ġtr Æ°á»Ľng
Ġng Ãł
Ġng Ãµ
Ġng Ã³c
Ġng áº©ng
Ġr áº§m
Ġp ar
Ġd áº¿
Ġd em
Ġd áº¡t
Ġd áº±n
Ġcá» ıi
Ġqu Ã¢y
Ġqu áº·ng
Ġgi Ã´ng
Ġgiá» ı
ĠmÃł o
ĠT Ã¢n
ĠT áºŃp
ĠT ar
ĠT áº¡m
on ey
ĠkhÃ¡ nh
ao mi
Ġcháº Ńp
ĠchÃ ¨o
ĠchÃ ¨n
ĠhÃ ª
ĠhÃ ³m
ÄĲ á»Ļi
Ġná» ī
ĠC á»ĳ
ĠC ro
ĠC IA
Nh iáº¿p
ĠM Ãły
ĠM en
ĠM ir
ĠM BA
hi o
ĠN I
ĠN i
ĠB á»įn
ĠB Ã¡o
ĠB ach
ĠB BC
Ġlo anh
ĠH á»ĵ
ĠH az
ĠH ut
ĠÄĲ á»ĳc
ĠS a
ĠS ai
ĠS el
ia g
ar in
Ġy oga
Ġph iá»ĩt
ĠP it
ĠP ur
ĠP IPA
ĠK os
ĠK iva
ĠK epler
ĠL eo
ĠL á»Ŀi
ĠL imb
Ġngá» £m
ĠG ul
ĠTr ÃŃ
Ġxu a
or o
ĠD anh
ĠD ave
Tr uyá»ģn
al ie
os ev
ĠR em
ĠR ho
el y
et as
Ng oáº¡i
ĠI mp
Tháº §y
ĠV áº«n
is e
at Ã´ng
at ma
ic erat
ĠJ ean
ĠJ ustin
ap e
ap minder
ĠÃ įt
it ic
ĠW y
ĠW is
ĠW ind
Ġ19 91
Ġ19 93
le v
ĠNg uá»ĵn
ad y
ĠO xy
ĠTh anh
ur n
Ġ7 000
Ġ8 9
ĠTED ster
ĠchÃ¡ nh
un ch
ro Ã§a
Vá» Ĺ
ĠÄĲá» £i
re at
ĠIn st
ĠSt and
op e
ĠX áº¿p
ĠAl g
ĠThá» ĭ
Äĳ á»
Äĳ áº¿n
han e
ĠGi ao
ĠchÃ³ t
ow an
if lu
ĠQu áº£
Gi ao
ĠSh ar
Ġprot on
ip car
ĠHar ris
ph ua
ov o
Ġru á»Ļng
Ġ198 6
ĠChi ld
ĠSc oop
ĠTw eet
ĠBa xter
nÃ³ i
ass o
ĠChar lotte
ĠRob inson
ĠMon ter
ĠGre g
ort is
Ġmá»ĵ m
ĠLá» ħ
ĠNa uy
ĠMa x
org an
Ġ194 0
ĠInd iana
ĠLib Äĥng
ĠDi et
uk e
ĠGu ard
ĠWal mart
ĠCo ch
Ġká»ģ nh
ĠDá» ĭch
ĠBon net
rog en
Ġmar atÃ´ng
ĠWil son
ĠMel inda
Car ol
ĠTam iflu
ĠJac qu
ĠLin ux
ĠNo el
ĠPhil lip
Ġeur o
ĠBroad moor
NC RA
ĠGran t
Ġq Ãºi
Ġchá»Ļ p
ĠHom o
ĠTunis ia
ĠCen tral
ĠMoh am
má» Ĺi
Ġcat adore
ĠPap ua
ĠBah amas
ĠIx aren
ĠEng land
ĠSara jevo
ĠEcon om
ĠIK EA
ĠFound ation
ĠMalay sia
ĠAustr alia
Ġcock tail
icerat ops
2 4
2 9
A A
A h
A t
B on
B Ã¡nh
E T
H i
I s
J eff
K evin
L ÃŃ
N áº¡n
P rin
Q uá»ĳc
T B
T H
T inh
T Ã¢m
T iÃªu
T á»ĳc
U ng
V iá»ĩn
V áºŃn
W ow
Y áº¿u
b es
b us
c er
e u
f er
f us
g an
g ey
g ram
h n
h y
j u
j an
k im
k ho
l Ã´
o fi
p in
r l
r ett
t es
t hia
v iá»ĩc
v al
v et
v ent
y ota
z ero
¢ t
Ġ ad
Ġ ep
Ķ n
Ġt Ãºm
Ġc Ã²
Ġc oc
Ġc ortis
ĠÄĳ Äĥ
ĠÄĳ Ã¹ng
ĠÄĳ uá»
Ġn i
Ġl á»Ļc
Ġb á»Ł
Ġb Ã¹a
Ġs h
Ġs áº§u
Ġs en
Ġs al
Ġtr Å©ng
Ġtr Ã²ng
Ġg t
Ġg anh
Ġg eo
Ġg Ã£i
Ġh Å©
Ġthá» ģm
Ãª t
Ġr Ã¹ng
Ġr Äĥn
Ġr Ã³t
Ġr Ã¨m
Ġp a
Ġd Ã³
Ġd ÃŃ
Ġd áº·t
Ġd iÃªm
Ġnh an
Ġnh ung
Ġnh en
Ġvá» ĵng
Ġvá» Ľt
Ġch k
Ġch ang
Ġch Å©ng
Ġch Æ°ng
Ġch uá»ĵn
Ġch at
Ġch Ä©a
Ġnhá» ĳi
Ġtá» £n
ĠnÃł nh
Ġx iáº¿t
an istan
Ġra in
Ġbá» «a
ĠT Ãłng
ĠT Æ°á»Łng
ĠT áº¡p
ĠT ib
ĠnÄĥ n
ĠnhÃ Ńm
ĠnhÃ ³t
ĠnhÃ µm
ĠC á»±u
Ġsá» ĵi
á»ĵ n
Ġto ken
ĠM P
ĠM Ã´ng
ĠM ao
ĠM ob
ĠM ell
ĠM eg
ĠM ull
ĠN G
ĠN in
ĠN Äĥng
ĠN ico
ĠB P
ĠB iáº¿n
ĠB Ã¡n
ĠB re
er y
ĠH it
ĠH um
ĠÄĲ Ã¡ng
ĠA st
ĠS I
ĠS uy
ĠS ur
ĠS olly
ar ak
Ġph Æ°á»Ľc
ĠP C
ĠP e
ĠP o
ĠP ac
ĠP ilot
ĠK áº¿
ĠK as
ĠK id
ĠK ins
ĠK ate
ĠL A
ĠL y
Ġá» ¨ng
ĠG e
ĠG Ã¬
ĠG wen
ĠG apminder
ĠTr iceratops
or th
ĠD J
ĠD Ã¢y
ĠD em
ĠD ur
ĠD ean
ĠD onald
Tr á»įng
im Ã©t
os phere
ĠR eb
ĠR ub
ĠR ec
ĠR eg
ĠR ivers
ĠR achel
el yn
Ġ5 6
ĠV el
ĠV iv
ĠV Æ°á»Ŀn
ĠV oyager
is co
at an
Ġrá» ¯a
ĠJ ava
Ġdi ox
ĠW ang
ĠW ol
ĠW ide
ĠF lick
ĠE van
ĠE EG
Ġ10 1
Ġ19 20
Ġ19 18
ad er
ĠO w
ĠO hio
ĠTh uyáº¿t
ĠCh u
Ġ7 50
Ġla b
Ġgá» ī
ĠÄĲá» ©a
Ġw oo
Ġw ow
Ch rist
Chá» ¥p
ĠU p
ĠU t
ag as
lo ad
Ġsu l
ĠAl t
oh en
Ġnhu áº§n
Ġ18 7
Ġ18 8
um ann
Ġ40 1
Ġo Ãł
ĠMar c
ĠMar s
ĠMar ia
ĠMar garet
Ġ25 00
ĠChá» ¯
ub arak
ĠBr oth
art y
ĠSh aw
Ġ201 5
ff iti
Ġ198 3
ĠChi m
ann e
lin ois
Ġ197 3
Ġ197 9
ĠCol or
ĠRob b
ĠBá» ı
ĠPh otoshop
ĠMich el
Ġ196 5
ren e
ĠTháº Ńm
ĠBill y
Ġj ihad
ett y
ĠNá» ķ
ĠNá» Ĺi
yn thia
ĠCr u
ĠCr itic
ĠRe zero
PhÃ ³ng
PhÃ ²ng
ĠNháº Ńn
cÃ´ la
ĠCl ark
ts burgh
ĠWal es
thá» ©
thá» Ŀi
ĠAc cent
Mar co
Ġ195 7
ĠWat er
ĠBu ff
ĠMah moud
ĠMah atma
Char lie
KhÃ Ń
Ar thur
ĠBi osphere
ĠLin us
Ġenz yme
ĠvÃ£ nh
lash y
Ġgo Ã¡
ĠAg nes
ĠGeorg ia
ĠJenn ifer
ĠHir sh
Ġbl ah
ĠCamp uchia
ĠNet flix
ĠIM F
ocr ates
Ġamin o
ĠprÃ´ tein
Ġnguá» Ŀi
ĠthÃ¢ y
ĠMass achusetts
ĠArch ie
ĠFried man
Ká» ³
ĠAur ora
ĠRuss ell
ĠGord on
ĠIl linois
ĠVinc i
ĠStock holm
ĠDenis ov
Ġgra ffiti
ĠrÆ¡ m
ĠHun ter
ĠSis y
Ġest rogen
ĠHamp shire
ĠKab ul
ĠOdyss eus
ĠHiroshi ma
ĠPit tsburgh
ĠMonter ey
ĠGuard ian
ĠCoch rane
Prin ce
Ġcortis ol
ĠMell on
ĠFlick r
ĠAccent ure
1 7
4 00
6 5
6 6
8 00
9 5
A d
B R
B Ãłn
B rian
C T
D J
D áº¥u
D Ã²ng
G áº¥p
I á»
J ay
L á»±c
L á»±a
M M
N á»Ļi
P at
R N
S ang
T T
T Æ°
T ai
V áº»
a ff
b ab
c áº£
c as
c orn
d s
d Ã¹
d or
e ed
i or
j i
k u
l am
l ic
l air
m ent
n ick
o ac
r k
r áºŃp
r ass
w ick
x on
y le
z one
· ng
Ġ hÃº
Ġ au
Ġ Ãºp
Ġ áº¯p
Ġ usd
Ġ Æł
á» ¯
Ġt Ã©
Ġt en
Ġc ou
Ġc iv
ĠÄĳ Ãªn
Ġv Æ¡
Ġl Ãº
Ġl áº¹
Ġm m
Ġm Ã³
Ġm Ã¹ng
Ġm áº¯ng
Ġb eat
Ġb iÃªt
Ġs ex
Ġtr Äĥn
Ġtr ans
Ġng áº§u
Ġng Æ°á»£ng
Ġng áº¡t
Ġg Ãłng
Ġg oogle
Ġh uyá»ĩn
Ġr Ãªn
Ġnh Ãłn
qu ez
Ġvá» ĥ
Ġvá» ¥t
Ġch ao
Ġch uá»Ļc
Ġnhá» ©ng
Ġhá» ĳt
Ġkh ay
Ġchá» «
Ġchá» «a
ĠthÃ ²i
an c
Ġra o
Ġgiá» Ŀi
ch an
Ġnháº §y
Ä© u
ĠT ai
ĠT uyÃªn
ĠT Ãłu
ĠT od
on ia
on ie
ai s
ai za
Ġcháº §n
ĠchÃ ©m
ĠhÃ ©o
ÄĲ o
ÄĲ áº¡o
ÄĲ Ãªm
ĠnghÄ© nh
ĠC od
ĠC ass
ĠC omp
ĠC lev
ĠC ohen
Ġsá» ¯ng
Ġphá» ī
ĠphÃ¡ ch
Nh u
Nh iá»ĩt
Ġto Ã¡i
ĠM ard
ĠM edia
ĠM BI
ĠM ubarak
em a
Ġtrá» Ŀ
ĠN at
ĠN áº¥m
ĠN ik
ĠN ev
ĠB ÃŃ
ĠB Æ°á»Ľc
ĠB it
ĠB and
ĠB Ã¡nh
ĠB art
ĠB alk
uá» ĩ
er k
ĠH on
ĠH ey
ĠH ud
ĠH mm
am s
am ie
ĠÄĲ ang
ĠÄĲ Ãłn
ĠÄĲ Æ°Æ¡ng
ĠÄĲ áº£o
ĠÄĲ Ãªm
ĠA BC
Ġkhá» ©u
ĠS W
ĠS ar
ĠS ag
ĠS inc
ĠS áºµn
ĠS obule
Ġkháº ¯t
ĠmÃ¡ ch
Ġy áº¿n
Ġph oton
ĠP ia
ĠP ho
ĠP ach
ĠP erry
Ġháº¡ c
ĠK ap
ĠK ir
ĠL áº¥y
ĠL es
ĠL uáºŃn
ĠL iz
ĠL yn
ĠL ake
Ġngá» ¡
ĠG ard
ĠG illi
ĠG lad
Ġ3 9
ĠTr á»Ł
ĠTr Ã²
ĠD D
ĠD eb
ĠD anny
es ar
es ome
ĠR ab
ĠR ich
ĠR ep
ĠVÃł i
ĠVÃł ng
Ġso fa
ĠV iá»ħn
Ġrá» £n
ic ill
ĠJ R
ĠJ oh
ĠJ ihad
ĠJ ason
il eo
ĠF ul
ĠE b
ĠE DI
ter n
ho use
ĠNg uy
ĠNg Ã´n
Ġtu á»Ļt
ac re
hÃ¡ n
ad us
ĠPhi lipp
ĠCh in
ĠCh urch
-- -
ra ft
ĠHo use
li ot
Ġ8 000
Ġla ze
ÄĲá» ©c
ÄĲá» ĭnh
Ġgá» £n
Th u
Th iÃªn
un es
Vá» £
Vá» ¥
ĠÄĲá» ©ng
Ch uyá»ĥn
ĠSt udio
id ro
ĠU ng
ĠX e
lo ck
ton ia
Tá» ·
ĠGi an
um i
Ġlá»ĵ i
ik i
Ġf or
ĠMar co
ord s
ry n
ry st
ĠAn thony
ĠTá» «ng
ut en
Gi áº¥c
eg al
de z
ĠAfg anistan
Ġu Ã½
uc ky
ĠSh eph
ff e
Bá» Ĺng
Ġbá»ķ n
ĠâĢ ĭ
ĠKen d
ĠhÃ² m
ĠCan yon
ĠChi a
Kho áº£nh
Ph iÃªn
ĠnhÃ¡ p
ĠTo yota
st an
st ream
ek a
ThÃ ´i
ĠHy der
ric e
Ġ196 2
ĠBl u
ĠTháº §y
ĠBar ef
ĠJo ey
Ġe Bay
ug a
ĠJam ie
Ná» Ńa
ĠbÃ¹ m
ĠSch ool
ĠNa j
ĠHig g
ck en
ĠRe u
ĠHe h
Ġmic r
ĠPhÃ Ńa
ĠNe il
ĠEl vis
ĠKh u
Ġ194 9
ĠMal awi
ĠJu an
cel adus
ĠTrans ition
ĠDi am
ĠRom an
ĠFre ud
Ġ36 5
bur n
yr ne
An dr
our i
ĠCl ay
ĠCl onie
ĠVen ter
mm m
ĠEn celadus
Dá» ħ
oth y
ĠChrist ian
ĠCE RN
ĠBur n
Ste ve
ĠBon o
ĠOlympic s
nes ota
ĠCap e
ĠSer ra
Ġne u
Ġnit Æ¡
ĠEur o
ĠOs ama
Ġbon obo
ĠLar ry
ĠRed dit
ĠÂ ¼
ĠnhÃº m
Ġok ay
ĠHam let
Ġá»« m
ĠCas ey
ĠMin nesota
ĠMoz ambi
ĠAR N
ĠPri ze
ĠDu ol
ĠEx xon
Ġ185 8
Ġhel ium
Ġox ide
ĠHel en
ĠEle c
ĠSn ow
ĠOn line
ĠDav is
ĠHimalay as
áº¢ nh
ĠUkr aine
ĠKle in
Ġhorm ones
Mart in
Ġcomp lex
ĠBil bao
ĠSho w
ĠGay la
ĠVik ing
ĠJud y
ĠOtt oman
mud din
Ġpen icill
ĠPy th
ĠPic asso
ĠMarsh all
ĠBarb ara
Ġdem o
ĠKos ovo
osev elt
ĠAlg eria
ĠÄĳuá» £c
ĠHit ler
ĠRivers ide
ĠColor ado
Ġciv ic
ĠSinc lair
ĠBaref oot
ĠMozambi que
Ġpenicill in
3 7
4 8
5 9
A C
A my
B Ã©
C áº§u
C lay
D E
D anh
D áº§n
D ar
E L
E S
E l
H O
J K
J ac
K ÃŃnh
L V
L Å©
L arry
M áº«u
M ur
M áº¡ng
N Ãły
N athan
O V
P L
R ory
S al
S he
T Ã´n
V iáº¿t
V ai
V Ã²ng
Y Ãªu
b i
b Ãª
b ar
b ul
c hÃ
c ola
c astle
d ad
d ale
f ia
f ri
g ill
h t
i i
i en
i ra
j ec
k in
m ing
m ore
n ders
o it
p s
p ar
p oint
p ress
r áº¯c
r et
s en
s áº½
s son
u za
x o
y son
Ġ @
Ġ Æ°ng
Ġ eo
Ġ áº¡t
Ġ uyá»ĥn
Ġ as
Ġ ed
Ġ are
á» ª
Ġt áº±m
ng ay
ng Ãły
Ġc l
ĠÄĳ Ã¡i
Ġn Æ°Æ¡ng
Ġn áº¹p
Ġn iÃªm
Ġv Ã³i
Ġl á»±
Ġl áº£ng
Ġl Ã³c
Ġl uyáº¿n
Ġl uá»µ
Ġl á»ĳp
Ġm y
Ġm Ã²ng
Ġm od
Ġm ix
Ġb lu
Ġs iáº¿t
Ġs il
Ġs á»įc
Ġtr au
Ġtr áº·c
Ġtr á»ĵi
Ġng a
Ġng Ã¹ng
Ġg r
Ġg Ã¹
Ġg áº«u
Ġh iá»ģu
Ġh ot
Ġh iá»ģn
Ġh idro
Ġthá» Ľ
Ġthá» ¥t
Ġr áº§y
Ġd Æ¡
ĠÄĳá» Ŀ
Ġnh uyá»ħn
ĠkhÃ ©t
Ġtháº ©n
ĠcÃ¡c bon
Ġqu ot
Ġqu Ä©
Ġqu á»ĩ
Ġkh ong
ĠÄĳÃ£ ng
Ġchá» ĵi
ot ton
Ġngh iáº¿n
an or
an tha
Ġra ng
ch ester
Ġnháº £
ĠT H
ĠT áº¡
ĠT iá»ĥu
ĠT Ã¡i
ĠT ide
ĠT ulu
Ġlá» ıi
Ġlá» ¥i
Ġho oc
on i
Ġdá» «a
ÄĲ á»įc
ĠC orn
ĠC loud
Ġháº ¯t
Ġsá» ī
Ġsá» ĩt
ĠM olly
ĠN Ã´ng
ĠN Ãºi
ĠN icholas
ĠN aomi
ĠB K
ĠB ong
ĠB iáº¿t
ĠB in
ĠB ac
ĠB ion
ĠB all
ĠB ond
ĠB eth
ĠB agh
ĠB yrne
er r
ĠH iáº¿n
ĠH and
ĠH uck
ĠH uss
ĠH ome
ĠÄĲ o
ĠÄĲ iá»ĥm
en ix
ĠA I
ĠA th
ĠA ut
ĠS Ã´ng
ĠS um
ĠS ony
ĠS ean
ĠS af
ĠS OL
Ġhá»Ļ t
ĠmÃ¡ ng
ar o
Ġph Ãł
ĠP in
ĠP re
ĠP ran
ĠP oint
ĠK I
ĠK ob
ĠL á»±c
ĠL áº¡nh
ĠL HC
áº¹ t
Ġngá» ı
ĠG all
ĠG ood
ĠG owan
ĠTr Ã´ng
ĠTr Ã¬nh
ĠTr in
ĠTr Ã¢n
ĠTr áº¡m
ĠTr oy
ĠD C
ĠD ay
ĠD es
ĠD ep
ĠD olly
ĠD ennis
Tr anh
Tr á»Ŀi
al th
al og
Ġphá»¥ ng
ĠR NA
ĠR iley
el i
iÃª c
Ġtho áº¡t
et e
is cher
at in
ĠQ uá»·
ĠJ oy
il ton
it o
ol ph
ĠF il
ĠF ood
ĠE iff
le ep
us hi
us ton
Ġ6 2
Ġ6 3
Ġ6 6
Ġ6 50
ĠO z
ĠTh Æ°á»Ŀng
ĠTh Æ°á»Łng
ĠnghÃ ª
ur ia
ĠCh echn
Ġtrá»¥ i
ra g
ĠHo ff
Ġ8 8
eb er
ri k
ro ve
Vá» «a
re z
Ch ryst
Chá» ĵng
Chá» įn
ĠSt ef
id i
ist or
ĠU C
ĠThá» ĥ
Ġweb cam
ine ering
ĠGi áº¥c
ĠGi ff
tr ino
Ġrobot s
Cháº ¡y
Ġf t
Ġf lash
ĠChá» §ng
ib a
Ġvá»£ t
ChÃ ¬a
ĠdÄ© a
az ar
ĠAn ne
ĠAn dy
ĠTá» ¥i
Ġnháº¹ n
ĠZ etas
ĠBr end
ĠIs tan
Ġáº¢ nh
Ġu áº¥t
ĠCar ib
ĠCar gill
Ġ201 4
Bá» ĭ
KhÃ¡ ch
Ġ0 5
ph us
ov e
Ġ198 2
Ġ198 7
ĠDo anh
enn y
ain a
ann el
Cá» §a
ĠRob ics
ath y
sh mi
ĠBá» ī
ĠBá» ĭ
ĠMich oac
ĠSp ring
ĠSp lashy
Ġ196 8
ĠBl air
ĠBan k
ĠSau nders
Ġváº¹ t
urg a
ĠMá» Ľi
Ná» ¯
ĠLu ke
ĠRe agan
ĠHe ad
ĠHe ather
Ġná»ģ u
ĠPhÃ ¢n
ĠNe umann
ĠKh Æ¡
ĠKhÃ¡ c
Kh uÃ´n
end o
Ġ194 8
Ġngháº ¹n
ens p
ens tein
ĠNháº £y
ĠLib by
ĠRom a
ĠFre d
ĠsÃ´ cÃ´la
ĠGab riel
me ister
ĠchÃ¹ i
ĠStan ley
ĠAc tor
Lá» Ľp
ĠKhá» §ng
ĠLad y
ĠDá» ħ
AR S
ĠGen e
ĠAndr oid
ĠBrook s
Ste f
ĠBon nie
ĠBlack berry
Ġdollar s
ĠHill s
ĠAv iv
ĠRo osevelt
ĠKn ee
ĠFer ris
ĠJac ob
ĠMiss ouri
ĠBud rus
ĠWi red
yd ney
ĠNo ah
ĠKal uza
itt le
ĠFar mer
cá» ¥
ĠTer ence
Ġpherom ones
ĠPau ling
ĠFort une
Ġbl oop
ĠBroad way
ĠWhit acre
Ġpoly mer
ĠKhÃ Ń
Jos eph
ĠSad dam
pháº §n
Ġme erk
ĠAch ill
ĠKháº £
tháº Ńm
ĠSen egal
ĠKur d
eng ineering
ngh Ä©a
Ġbe ep
ĠShir ley
Fran k
ĠJess e
ĠDAR PA
ĠColl ins
ĠUnivers ity
ĠhÃ¹ m
ĠKent ucky
ĠRu fus
ĠSci ence
ĠNI H
ĠWind ows
ĠJacqu es
agas car
ĠAlt os
ĠSisy phus
ĠlÃº n
ĠCass ini
ĠClev eland
ĠSag meister
ĠGilli an
ĠHyder abad
ĠDuol ingo
ĠBagh dad
ĠHuss ein
ĠGowan us
ĠEiff el
ĠChechn ya
ĠIstan bul
ĠRobics ek
Ġmeerk at
3 3
7 00
9 7
A L
A N
A f
A lex
A rist
B r
B ren
C al
C Ã¡nh
C hia
D er
E lizabeth
G V
G á»įi
H P
H Q
I m
J M
K á»¹
K ÃŃch
L u
M W
M an
M ang
M á»±c
N áº¥m
O OC
P ar
R á»ĳt
R achel
S ong
S hi
S im
S Ã¡ch
T ay
T hi
T ony
T unes
U E
X u
a hoo
c ow
c ul
c ock
d t
d ie
f el
l áº¡i
l ia
m áº·c
m or
m at
m it
n háº
n is
n ic
r u
r at
s ey
t Æ¡
t inh
t ol
t ra
u ana
v ÃŃ
v old
w l
w ar
· c
Ġ _
Ġ es
Ġ ub
Ġt Ã¬
Ġt eo
Ġt Ã¡ng
Ġt Ã³t
Ġt ennis
ĠÄĳ u
ĠÄĳ Æ¡
Ġn u
Ġn áº¥y
Ġn om
Ġn ick
Ġn Ä©a
há» ĭch
Ġv Ã©t
Ġl t
Ġl áº£
Ġl im
Ġl iáº¿c
Ġm áºŃu
Ġm oi
Ġm ag
Ġb ung
Ġb Ãªu
Ġb Ã¡i
Ġb Ãºp
Ġb áº·m
Ġb iá»ħu
Ġk Ã©t
Ġs Ãłi
Ġtr Ãłnh
Ġng áº¥y
Ġng Ãłng
Ġng háº¿
Ġng áº¡ch
Ġng Ã¡p
Ġg u
Ġg Ãłn
Ġg oi
Ġg ara
Ġg áº«y
Ġh ec
Ġh ead
Ġthá» ±
Ãª ng
Ãª in
Ġr áº¡n
Ġr Ã²i
Ġd á»Ļt
Ġd Ã¬m
Ġd áºŃt
Ġch Æ°á»Ŀng
Ġch iÃªc
Ġth on
Ġth Ãłng
Ġhá» Ľt
Ġtá» ħ
Ġgi Äĥng
Ġgi Å©
Ġgi áº¥m
Ġgi Ã¹m
Ġx Ãª
Ġkh a
Ġkh uá»·
Ġchá» Ńi
Ġpháº ¿t
Ġpháº ©u
an ce
ay a
ay an
Ġsáº ·c
Ġcáº£ u
Ġbá» ıi
Ġbá» «ng
Ġbá» ©t
ĠT Ã¡c
ĠT iÃªu
ĠT uyáº¿t
ĠT ul
ĠT uc
ĠT ij
on s
Ġdá» ım
ai jan
ĠchÃ ª
ĠnhÃ ²m
ÄĲ á»ĵ
Ġmá» ĭt
au x
in as
ĠC L
ĠC Ã¢y
ĠC áº£ng
ĠC áº¥p
ĠC os
ĠC háº¿
ĠC Phi
ĠC oke
ĠM Ã´
ĠM á»Ł
ĠM Ãłn
ĠM áº¥y
ĠM am
ĠM á»ĳi
ĠM iá»ģn
ĠM un
ĠM itra
Ġkho Ã©t
hi eu
Ġtrá» ģ
Ġtrá» £n
Ġká» īnh
ĠN O
ĠB ai
ĠB Ãłn
ĠB Ã©
ĠB everly
ĠH Æ°ng
ĠH em
ĠH Ãºp
ĠH ob
ĠH ub
ĠH urt
ĠH annah
ĠH LV
ĠÄĲ Æ¡n
ĠÄĲ Ã¡nh
en os
ĠA ung
ĠA ss
ĠA TM
Ġqua rk
Ġkhá» ĳ
ĠS o
ĠS han
ĠS ir
ĠS ach
ĠS aul
ĠS low
ĠS leep
Ġy um
Ġph iáº¿m
iá»ħ m
ĠP av
ĠP ine
ĠK a
ĠK ong
ĠK ÃŃch
ĠK erry
ĠL Ã²ng
ĠL á»ĩ
ĠL ind
ĠL agos
ĠL inda
ĠL isa
ĠL OL
ĠL HQ
Ġá» ªm
Ġngá» ©a
ĠG oog
ĠG ram
ĠG ros
ĠG up
ĠG adda
Ġngo áº¡c
Ġxu i
or en
ĠD Ã²ng
ĠD od
ĠD yson
al o
Ġthu n
ĠR ap
ĠR agu
el s
Ġquyá» ĩn
Ng hi
ĠI N
ĠI NCRA
ĠV iÃªn
ĠV Ã²ng
ĠV áº«y
ĠV ui
ĠV ila
Ġrá» §a
as hi
it an
ol ogy
ĠW ell
ĠW hoa
ĠF i
ho d
ho v
ĠthÆ° c
om on
ĠO la
ĠO ne
li u
Ġ8 3
Ġ9 2
Giá» ¯
ÄĲá» ĭa
un n
un o
ĠNew castle
re en
Ġw his
Chá» ©
ĠSt ing
id es
id ad
ah n
ig rut
th eo
th us
op hia
Ġnhá»Ŀ n
ag ram
ag ue
ĠX DR
Ġ12 00
ab el
ab ian
ab ama
ĠAl abama
ĠThá» ©c
Má» Ŀi
ou ld
Äĳ á»ĳi
ĠGi áº£
ĠGi Ã¡c
ĠGi Ãºp
Ho ward
Ġo an
ChÃ Ńn
if i
ĠCon or
ack er
ĠAn ton
ĠTá» Ľ
Ġma fia
eg as
eg rass
Ġu p
ĠSh ack
ĠEm manuel
ip pi
yl oid
ĠGiá» ¯a
Ġ17 0
ers burg
ĠÃģ nh
ock s
Ġláº» o
ĠPháº £n
ĠCháº ¥t
Cá» Ńa
Ġnho Ãł
Ġ197 4
Ġ197 6
Ġ197 7
ĠGeo ff
pp er
á»ĩ n
ĠMc Chryst
ĠCol lider
ĠTháº Ńp
der ick
ug ust
ug ata
illi e
ĠHá» ıi
ĠThÃ ªm
ĠNá» ģn
ĠDar fur
di es
ĠKh ai
Kh ung
ĠPet ersburg
Ġ194 7
ĠNgh Ä©
ĠNgh iá»ĩp
ĠNháº ¡c
ĠFre eman
iss ippi
ix on
.. ..
ĠTor osaurus
eh r
ĠMad agascar
ĠMe ch
ĠMe ad
Ġcent s
ĠGal ileo
Ġmicro phone
Lá» £i
Ġnhá»ĭ n
ĠSim pson
ĠKar en
ĠDá» ¥c
ĠnhÃ£ ng
ĠSu u
ĠBu enos
ĠTrá» ¥c
Kháº ¯p
ĠNan o
ĠGen ev
ĠPl ay
Ġser ies
Ġpound s
ĠHans en
ĠTur k
ĠPan ts
ĠDe ep
ĠJim my
ĠBol t
ĠRock ett
ĠCD C
ĠAir es
ĠAir stream
ĠKy i
ĠFor bes
ĠMos cow
ĠAri ely
ĠTit anic
Ġkil omet
ĠEs kim
ĠEs tonia
ĠKu wait
ĠLar amie
las ma
ĠSk id
ĠWi i
Ġenz im
Ġenz ym
ĠRand olph
ĠMas low
ĠBot sw
ĠJord ans
Ġgl uten
ĠAmer ica
ĠGeorg etown
Ġmu á»Ļi
Ġeur eka
bor ough
Khá» ĳi
Khá» §ng
ĠHad ron
Ġ74 7
ym b
ms trong
ĠArab ia
ĠMcG on
ĠSchw artz
ĠvÃª nh
Ġsun phua
erb aijan
ĠPink er
ings uit
ĠWiki Le
Jon athan
Jenn ifer
tz mann
ĠJuli et
Ġaw esome
ĠTob ago
ĠPas cal
hr vold
ĠHind u
eyn man
trol ux
ĠEconom ist
Ġsal ad
ĠViv ian
ĠOw ens
ĠUt ah
ĠHirsh horn
Ġsex y
ĠNev ada
ĠBit co
ĠHud son
ĠKap lan
ĠGlad well
ĠDD T
ĠNaj muddin
ming ham
ĠBK T
ĠPre go
ĠGiff ords
Ġub untu
Ġngháº¿ ch
ĠTuc son
ĠHurt igrut
ĠGup ta
ĠGadda fi
ĠMcChryst al
ĠHurtigrut en
0 5
3 8
A ngel
B S
C N
C R
C r
C Ã´n
C ol
C háº¿
C ard
D U
E s
F L
F i
G B
G hi
G ab
H S
H áº±ng
H iá»ĩp
I Y
I CE
J ack
L M
L au
L á»ĳi
L ewis
M a
M áº¯t
M Ã³n
N o
N Ã´ng
O s
Q uyá»ĥn
S á»Ł
S an
S arah
S ylvia
S phere
S ebastian
T iá»ĩn
V Ã´
V Æ°á»£t
X a
b á»
b al
b ro
b ach
b eta
c uá»Ļc
c ed
d ay
f ul
g a
g y
h asa
j ad
k ut
l Æ¡
m Ã´
n est
n ish
o xy
p en
p era
r d
r t
r ot
r ai
r ia
r as
s ain
t u
t áº¡o
t eo
v ald
w ork
w att
x Æ¡
z net
z ka
§ u
¹ t
Ã Į
à ¸
Ġ áº¯t
Ġ oli
Ġ organ
Ŀ ng
á» ªm
áº ¤
áº µng
Ġt Ã£
Ġt áº¿t
Ġt uá»ĳc
Ġt uá»ĳi
Ġt era
Ġt áº¹o
Ġc au
Ġc Ãºc
Ġc uá»ĳc
Ġc Ãłm
Ġc ass
Ġc oll
Ġc otton
Ġn áº¯n
Ġn ap
hÃ ¨o
Ġv Æ¡i
Ġv áº£y
Ġv ali
Ġl á»įi
Ġl Äĥm
Ġl Ã¹a
Ġl Ã¬a
Ġl Ã¹n
Ġl á»±u
Ġm áº«n
Ġm Ãºc
Ġm áº£y
Ġm áº©n
Ġm Ã¨
Ġb áº¡
Ġb áº½
Ġb la
Ġk ang
Ġs áº¥y
Ġs á»įt
Ġs Ã©c
Ġs ushi
Ġng áº¥u
Ġng Ã¡y
Ġg uá»ĵng
Ġg uit
Ġh Æ¡
Ġh em
Ġh uyÃªn
Ġh it
Ġr em
Ġr oi
Ġr Ã¡o
Ġd áº£
Ġd Ã£n
Ġnh eo
qu are
Ġvá» ¯a
Ġvá» «ng
ĠcÃ³ ng
Ġch uá»ĳt
Ġhá» §
Ã£ nh
ĠnÃł i
Ġqu Ã¡c
Ġqu áºŃy
Ġgi Å©a
Ġx Ã¹
Ġx iáº¿c
Ġx áº»o
ĠthÃ ²
Ġpháº Ńt
Ġpháº §m
Ġgiá» ¡n
Ġnháº ±ng
Ġbá» £
Ġbá» £m
ĠT Ã´n
ĠT ut
ĠT NC
Ġlá» ķ
Ġlá» Ľi
Ġdá» ĥ
Ġcháº §m
ĠchÃ ²i
ĠchÃ ²m
ĠhÃ £n
au st
Ġná» Ľt
in ia
in ess
in awa
ĠC art
ĠC ash
ĠC eline
á»ĵ m
Ġ-- --
Ġto an
Ġto Ã¡t
ĠM áº¥t
ĠM ai
ĠM is
ĠM ik
ĠM ul
ĠM ore
ĠM od
ĠM á»Ŀi
ĠM org
ĠM AS
ĠM OOC
ĠsÃ¡ n
ĠN R
ĠN ap
ĠN iá»ģm
ĠN SA
ĠN ino
ĠN ixon
ĠB B
ĠB uy
ĠB áº£ng
ĠB Ã¡ch
ĠB ran
ĠB ak
ĠB ul
ĠB og
Ġlo Ã¡t
ĠH S
ĠH or
ĠH eb
ĠH áº¡nh
ĠH art
ĠH unt
ĠH ipp
ĠH AL
ĠÄĲ H
ĠÄĲ Ãłng
ĠÄĲ áº¥u
ĠA w
ĠS in
ĠS á»ĳt
ĠS ue
Ġph Ãłm
ĠP R
ĠP i
ĠP ao
ĠP hÃºc
ĠP ear
ĠK w
ĠK an
ĠK il
ĠK ey
ĠK oh
ĠK ris
ĠK ros
ĠK ant
ĠL em
ĠL Æ°á»£ng
ĠL ow
ĠL ight
ĠL ife
áº¹ n
Ġá» ¥
Ġá» ī
Ġá» Ķn
Ġngá» Ĺng
ĠG ut
ĠG ell
ĠG ould
ĠTr áº¡i
ĠTr ang
Ġngo áº·c
ĠD am
ĠD om
ĠD ew
ĠD áº¡ng
ĠD ak
ĠD ow
ĠD ev
ĠD own
ĠD har
ĠD uke
ĠD IY
Tr i
Tr á»
Tr áº£i
Tr á»ĵng
im a
im p
Ãµ ng
ĠR as
ĠR ah
ĠR á»ĵng
ĠR ain
ĠR ica
ĠR aj
ĠR IA
el ling
Ng á»
Ng á»ĵi
Ng há»ĭch
ĠI V
ĠI ce
ĠkhÃŃ t
Tháº ±ng
Tháº Ńp
Ġ5 9
Ġso und
Ġso cola
ĠV áº¡n
ĠV áºŃn
ĠV ib
ĠV á»įng
ĠV ideo
ĠV iag
at ra
Ġrá» ĥ
ĠQ uyáº¿t
ĠJ ans
ĠJ aw
ĠJ ake
ĠJ obs
Ġba ss
ĠÃ Ĭ
il lo
il ity
il ever
il ocks
Ġdi ng
as te
it or
it al
it ed
it iba
ol ulu
ĠW ong
ĠW att
ĠF in
ĠF oster
ĠF ez
ĠF ull
ĠF aiza
ĠE r
ĠE ngel
ĠE ames
Ġ10 3
ĠNg á»įn
ĠNg oÃłi
Thá» ©c
om a
ad ema
ĠO m
ĠO ld
ĠTh uá»·
ĠTh atch
ĠnghÃ ©n
ob log
ur u
ur ich
ĠY ellow
ĠCh e
ĠCh ap
ĠCh and
ĠCh ev
ĠCh uck
Ġ7 1
Ġ7 3
Ġ7 9
li f
Giá» Ľi
ÄĲá» ©ng
Ġgá» «ng
Th Æ°Æ¡ng
Th uáºŃt
ro v
ro ject
ĠÄĲá» §
Chá» Ĺ
Chá» Ŀ
id er
id ge
ist ry
ig n
th an
th am
ran i
ĠU hm
ĠX c
lo Sphere
ĠbÃŃ t
ak h
av i
av el
oc zka
han ol
son ian
ĠNh anh
ĠNh iá»ĩm
te au
Ġxá» Ľi
Ġxá» Ńa
Ġ18 6
ie g
Cháº ¿t
Ġf il
Ġf áº£i
Ġf orm
Ġf ont
ĠMar x
Ġ25 000
Ġ11 00
az i
az o
ack ing
ry lic
ick lider
ĠAn des
iv ia
iv es
he im
Gi Ã³
ĠZ ipcar
ĠBr ent
ĠAr n
ĠAr mstrong
ion s
ert o
de en
Bá» Ŀi
od y
od ka
Ġ21 00
ach i
ach t
Ġru pi
ĠHai dt
Ġ198 1
ĠnÆ¡ ron
Ġi Tunes
ain t
ĠPháº «u
ĠnhÃ¡ i
ĠnhÃ¡ m
ann es
ann ica
ĠCháº ¡y
Ġ197 2
Ġ197 8
ĠCol le
ĠBá» ¯a
ĠPal in
Ġ196 9
ĠMo unt
iz a
ĠNig ht
ĠRos sy
ĠBar bie
ani um
Ġj e
ĠEd ison
ug u
ĠCho pin
Ná» ķi
ĠPhá» ķ
ĠSch ul
ĠMa as
ĠCr uz
ĠHarv ey
ĠKh al
ĠKhÃ¡ m
uck er
end or
ĠAt kins
ott o
Ġngháº ¹t
ĠOr kut
ĠOr nish
ĠJos h
Ġxá»ī n
eth yl
ĠGreen ville
ĠSam antha
Dá» «ng
Al ain
ĠCo us
ĠCo de
ĠCo ast
ust y
Mar garet
esh a
red dies
ĠAh mad
Ġ195 3
we il
ĠGo gh
ther land
ĠMy hrvold
ĠSu therland
con sin
ĠPer cy
Ġngá»« oi
Ġháº» m
ef eller
mon ia
Ġac rylic
ĠPat el
ĠUn ilever
