{"[BOS]":0,"[PAD]":1,"[EOS]":2,"[UNK]":3,"!":4,"\"":5,"#":6,"$":7,"%":8,"&":9,"'":10,"(":11,")":12,"*":13,"+":14,",":15,"-":16,".":17,"/":18,"0":19,"1":20,"2":21,"3":22,"4":23,"5":24,"6":25,"7":26,"8":27,"9":28,":":29,";":30,"<":31,"=":32,">":33,"?":34,"@":35,"A":36,"B":37,"C":38,"D":39,"E":40,"F":41,"G":42,"H":43,"I":44,"J":45,"K":46,"L":47,"M":48,"N":49,"O":50,"P":51,"Q":52,"R":53,"S":54,"T":55,"U":56,"V":57,"W":58,"X":59,"Y":60,"Z":61,"[":62,"\\":63,"]":64,"^":65,"_":66,"`":67,"a":68,"b":69,"c":70,"d":71,"e":72,"f":73,"g":74,"h":75,"i":76,"j":77,"k":78,"l":79,"m":80,"n":81,"o":82,"p":83,"q":84,"r":85,"s":86,"t":87,"u":88,"v":89,"w":90,"x":91,"y":92,"z":93,"{":94,"|":95,"}":96,"~":97,"¡":98,"¢":99,"£":100,"¤":101,"¥":102,"¦":103,"§":104,"¨":105,"©":106,"ª":107,"«":108,"¬":109,"®":110,"¯":111,"°":112,"±":113,"²":114,"³":115,"´":116,"µ":117,"¶":118,"·":119,"¸":120,"¹":121,"º":122,"»":123,"¼":124,"½":125,"¾":126,"¿":127,"À":128,"Á":129,"Â":130,"Ã":131,"Ä":132,"Å":133,"Æ":134,"Ç":135,"È":136,"É":137,"Ê":138,"Ë":139,"Ì":140,"Í":141,"Î":142,"Ï":143,"Ð":144,"Ñ":145,"Ò":146,"Ó":147,"Ô":148,"Õ":149,"Ö":150,"×":151,"Ø":152,"Ù":153,"Ú":154,"Û":155,"Ü":156,"Ý":157,"Þ":158,"ß":159,"à":160,"á":161,"â":162,"ã":163,"ä":164,"å":165,"æ":166,"ç":167,"è":168,"é":169,"ê":170,"ë":171,"ì":172,"í":173,"î":174,"ï":175,"ð":176,"ñ":177,"ò":178,"ó":179,"ô":180,"õ":181,"ö":182,"÷":183,"ø":184,"ù":185,"ú":186,"û":187,"ü":188,"ý":189,"þ":190,"ÿ":191,"Ā":192,"ā":193,"Ă":194,"ă":195,"Ą":196,"ą":197,"Ć":198,"ć":199,"Ĉ":200,"ĉ":201,"Ċ":202,"ċ":203,"Č":204,"č":205,"Ď":206,"ď":207,"Đ":208,"đ":209,"Ē":210,"ē":211,"Ĕ":212,"ĕ":213,"Ė":214,"ė":215,"Ę":216,"ę":217,"Ě":218,"ě":219,"Ĝ":220,"ĝ":221,"Ğ":222,"ğ":223,"Ġ":224,"ġ":225,"Ģ":226,"ģ":227,"Ĥ":228,"ĥ":229,"Ħ":230,"ħ":231,"Ĩ":232,"ĩ":233,"Ī":234,"ī":235,"Ĭ":236,"ĭ":237,"Į":238,"į":239,"İ":240,"ı":241,"Ĳ":242,"ĳ":243,"Ĵ":244,"ĵ":245,"Ķ":246,"ķ":247,"ĸ":248,"Ĺ":249,"ĺ":250,"Ļ":251,"ļ":252,"Ľ":253,"ľ":254,"Ŀ":255,"ŀ":256,"Ł":257,"ł":258,"Ń":259,"á»":260,"áº":261,"Ġt":262,"ng":263,"Ġc":264,"Ãł":265,"ĠÄ":266,"ĠÄĳ":267,"Ġn":268,"há»":269,"hÃ":270,"Ġv":271,"Ġl":272,"Æ°":273,"Ġm":274,"Ġ,":275,"Ġb":276,"Ã³":277,"Ġ.":278,"Ġk":279,"iá»":280,"háº":281,"Ã´":282,"Ã¡":283,"nh":284,"Ġs":285,"Ġtr":286,"Æ°á»":287,"áº¡":288,"á»Ļ":289,"Ġng":290,"Ġg":291,"ĠlÃł":292,"áº¿":293,"Ã´i":294,"ĠvÃł":295,"Ġh":296,"Ġthá»":297,"áº£":298,"Ãª":299,"Ġr":300,"hÃº":301,"á»Ļt":302,"Ġp":303,"Ġd":304,"ĠÄĳá»":305,"ĠtÃ´i":306,"Ġnh":307,"qu":308,"Ġcá»":309,"Ġvá»":310,"Ġmá»Ļt":311,"áº¥":312,"ĠcÃ³":313,"ĠkhÃ":314,"Ġch":315,"hÃºng":316,"Ãªn":317,"ĠcÃ¡":318,"Ġth":319,"Ã¬":320,"¯ng":321,"Ġnhá»":322,"á»ĳ":323,"iá»ĩ":324,"Ã¢":325,"Ġhá»":326,"Ŀi":327,"Æ¡":328,"Ľi":329,"Ġnhá»¯ng":330,"Ġtháº":331,"Ġcá»§":332,"ĠchÃºng":333,"Ġcá»§a":334,"´ng":335,"iáº¿":336,"Ġtá»":337,"áº¡n":338,"Ġta":339,"Ã£":340,"ĠcÃ¡c":341,"ĠnÃł":342,"Ġqu":343,"iá»ģ":344,"ĠkhÃ´ng":345,"Æ°á»£":346,"ĠnÃ³":347,"á»Ł":348,"áº§":349,"ong":350,"áºŃ":351,"Æ°á»Ŀi":352,"Ġgi":353,"á»±":354,"ĠÄĳÃ³":355,"Ġx":356,"iá»ģu":357,"ĠngÆ°á»Ŀi":358,"Ġbáº¡n":359,"Ġkh":360,"áº¥t":361,"áº¡i":362,"Ġtrong":363,"Ġthá»ĥ":364,"Æ°á»£c":365,"uy":366,"ĠnÃły":367,"ĠÄĳÃ£":368,"Ġchá»":369,"Äĥ":370,"ĠÄĳÆ°á»£c":371,"ĠthÃ":372,"ĠnhÆ°":373,"Ã¢y":374,"Ġhá»į":375,"ot":376,"Ġ&":377,"Ġpháº":378,"Ġvá»Ľi":379,"Ġngh":380,"quot":381,"Ġcho":382,"an":383,"ay":384,"VÃł":385,"Ġra":386,"Ġsáº":387,"Ġsá»±":388,"Ġgiá»":389,"ĠmÃł":390,"ĠlÃłm":391,"ch":392,"Ã´ng":393,"áº±":394,"Ġnháº":395,"ang":396,"ĠphÃ":397,"iÃªn":398,"á»į":399,"Ġá»Ł":400,"áº±ng":401,"ĠÄĳá»ĥ":402,"Ġcáº£":403,"Ġvá»ģ":404,"Ã¬nh":405,"ÃŃ":406,"Ġsáº½":407,"Ġbá»":408,"uá»ĳ":409,"Æ¡n":410,"iá»ĥ":411,"iáº¿t":412,"£i":413,"áº·":414,"ĠÄĳiá»ģu":415,"Ä©":416,"ĠT":417,"Ġtháº¿":418,"Ġlá»":419,"Ġho":420,"on":421,"Æ°á»Ľ":422,"áº¿n":423,"áº§u":424,"áº¯":425,"Ġtá»«":426,"Ãłnh":427,"Ġkhi":428,"©ng":429,"uyá»":430,"anh":431,"Ã¹":432,"ĠkhÃ¡":433,"Ġsá»ĳ":434,"ĠnÃ³i":435,"inh":436,"±c":437,"áº§n":438,"ao":439,"Ġdá»":440,"ai":441,"Ġcháº":442,"©c":443,"iá»ĩn":444,"ĠchÃ":445,"Ãº":446,"ĠnÄĥ":447,"ĠÄĳáº¿n":448,"Ġtháº¥":449,"Ġ1":450,"ĠhÃ":451,"Ġ?":452,"Ġpháº£i":453,"ĠnhÃ":454,"iá»ĩc":455,"Æ°á»Ŀ":456,"Æ°á»Ľc":457,"Ã²":458,"ÄĲ":459,"Ġráº±ng":460,"Æ°á»Ŀng":461,"ĠvÃło":462,"Ãłn":463,"ĠgÃ¬":464,"ĠÄĳang":465,"Ġmá»":466,"Ġviá»ĩc":467,"au":468,"Ġláº¡i":469,"ĠváºŃ":470,"Ġtháº¥y":471,"ĠnghÄ©":472,"ĠÄĳá»Ļ":473,"Ġráº¥t":474,"ĠcÃ¡ch":475,"Ã½":476,"Ġná»":477,"in":478,"ĠhÆ¡n":479,"ĠC":480,"áº¥y":481,"Ġnhiá»ģu":482,"Æ°Æ¡":483,"Ãłi":484,"¢n":485,"Ġháº":486,"TÃ´i":487,"Ã¹ng":488,"áº£n":489,"ĠÄĳáº§u":490,"Ġthá»±c":491,"iáº¿n":492,"Æ°Æ¡ng":493,"¥t":494,"ĠÄĳÃ¢y":495,"Ġ-":496,"Ġhá»įc":497,"Ġcon":498,"ĠkhÃ¡c":499,"ķi":500,"á»įi":501,"Ġchá»ī":502,"Ã¢u":503,"áº¡o":504,"Ġsá»":505,"ĠcÃ´ng":506,"ĠtrÃªn":507,"áº¿u":508,"á»ĵ":509,"ĠcÃ¡i":510,"Ã¡c":511,"ĠnÃło":512,"Ġbiáº¿t":513,"ĠvÃ¬":514,"áº¿t":515,"ĠÄĳá»ģ":516,"ung":517,"uyá»ĩ":518,"ĠchÃŃ":519,"Ġphá»":520,"Ãłng":521,"iá»ĩu":522,"ĠphÃ¡":523,"Nh":524,"ĠnÄĥm":525,"Å©ng":526,"Æ¡i":527,"uá»ĳn":528,"ĠÄĳi":529,"Ġthá»©":530,"ĠthÃłnh":531,"Ġdá»¥":532,"á»Ļc":533,"Ġ:":534,"Ġ--":535,"áº¯t":536,"Æ°ng":537,"ĠcÅ©ng":538,"ĠnhÃł":539,"uá»Ļc":540,"ChÃºng":541,"Ġbá»ĭ":542,"ĳng":543,"Ġto":544,"ĠM":545,"áº»":546,"Ġkho":547,"Ġmuá»ĳn":548,"Ġquan":549,"ĠsÃ¡":550,"ĠtháºŃ":551,"em":552,"eo":553,"ĠmÃ¬nh":554,"ĠnháºŃ":555,"hi":556,"Ġtrá»":557,"¯a":558,"Ġnháº¥t":559,"Ġká»":560,"ĠN":561,"NhÆ°ng":562,"Æ°á»Ł":563,"áº«":564,"Ġtáº¡o":565,"ĠB":566,"Æ°á»Łng":567,"ĠÄĳá»Ļng":568,"Ġtá»ĳ":569,"ĠnhÆ°ng":570,"Ġgiá»Ľi":571,"ĠchÃŃnh":572,"Ġlo":573,"ĠnÃªn":574,"á»Łi":575,"Ġgiáº£":576,"ĠváºŃy":577,"ģn":578,"Ãły":579,"áº·t":580,"§n":581,"Ġlá»Ľ":582,"¬nh":583,"Ãªu":584,"Æ°a":585,"ĠhÃ¬nh":586,"Ã²n":587,"ıi":588,"iá»ĥu":589,"Ġhiá»ĩn":590,"Ġgiá»Ŀ":591,"Ġsá»ĳng":592,"Ã¢n":593,"ĠtÃŃ":594,"uyá»ĩn":595,"Ġtáº¡i":596,"Ġtiáº¿":597,"ĠnháºŃn":598,"Ġmá»įi":599,"Ã¡i":600,"Æ°á»£ng":601,"uá»":602,"áº¥n":603,"Ġnáº¿u":604,"er":605,"ĠH":606,"Ġcuá»Ļc":607,"Ã©":608,"Ġquy":609,"¬n":610,"am":611,"Ġcáº§n":612,"ĥn":613,"Ã¡n":614,"Ġhay":615,"Ġtá»±":616,"áº·c":617,"áºŃp":618,"Ġ2":619,"á»ĵi":620,"uáºŃ":621,"ĠthÃ¬":622,"Ã¢m":623,"ĠÄĳá»ĭ":624,"00":625,"ĠÄĳá»ĵ":626,"Ġtáº¥t":627,"ĠÃ´ng":628,"ĠÄĲ":629,"Ġáº¥y":630,"Ġbá»Łi":631,"Ġtá»Ľi":632,"en":633,"Ġtheo":634,"Ġbáº¯t":635,"ĠcÃ²n":636,"Ġlá»Ľn":637,"iá»ĥm":638,"ĠnhÃ¬n":639,"ĠA":640,"ĠÄĳÃ¡":641,"ĠcÃ¹ng":642,"áº«n":643,"Ġbáº±ng":644,"Ġcáº£m":645,"ĠÃ½":646,"iá»ĥn":647,"Ãºc":648,"Ġtáº¿":649,"Ġdá»¥ng":650,"ĠtháºŃt":651,"Ġsau":652,"ĠlÃªn":653,"Ġanh":654,"Ġcá»©":655,"ĠgiÃ¡":656,"ĠcÃ¢u":657,"Ġbáº£n":658,"Ġtin":659,"Ġsao":660,"Ġqua":661,"Ġthá»Ŀi":662,"Ġchuyá»ĩn":663,"Ġkhá»":664,"Ġtrá»Ł":665,"ĠngÃły":666,"ĠS":667,"Ã´n":668,"ĠnhÃ¢n":669,"iá»ĩm":670,"Ġbá»Ļ":671,"Ġhá»Ļ":672,"ĠcÆ¡":673,"Äĥn":674,"Ġsinh":675,"Ĺi":676,"Ġkháº":677,"ĳi":678,"¥c":679,"áº£nh":680,"áº£ng":681,"ĠthÃŃ":682,"ĠnÄĥng":683,"Ġsá»Ń":684,"ĠnÆ°á»Ľc":685,"ĠtrÆ°á»Ľc":686,"ĠphÃ¡t":687,"ia":688,"ĠÄĳá»ķi":689,"iá»ĩt":690,"Ġgia":691,"ĠtoÃłn":692,"ĠmÃ¡":693,"Ã¬m":694,"ĠnÆ¡i":695,"Ġpháº§n":696,"Ġdo":697,"ĠthÃ´ng":698,"Ġdá»±":699,"ĠtÃ¬m":700,"Ġnhau":701,"Ġmá»Ľi":702,"ar":703,"Ġthay":704,"Ġy":705,"ĠÄĳá»ĭnh":706,"Ġváº¥n":707,"ĠtrÆ°á»Ŀng":708,"Ġhá»ĩ":709,"Ġnghá»":710,"ĠnhiÃªn":711,"Ġph":712,"ĠtÃŃnh":713,"iá»ħ":714,"ĠtrÃ¬nh":715,"Ġmáº¡":716,"Ġtá»ĳt":717,"ĠtÆ°á»Łng":718,"Ġkáº¿t":719,"Äĥng":720,"ĠváºŃt":721,"ĠhÃłng":722,"¿t":723,"Ġhá»ıi":724,"ĠlÃ½":725,"ĠP":726,"Ġáº£nh":727,"Ġháº¡":728,"ĠK":729,"£p":730,"á»±c":731,"ĠmÃ¡y":732,"á»ĳi":733,"ĠTÃ´i":734,"uáºŃt":735,"ĠthÃ¡":736,"ĠL":737,"Ġhá»£p":738,"áº¡t":739,"Ġmáº·t":740,"¯c":741,"Ġtiáº¿p":742,"NÃ³":743,"ĠhÃłnh":744,"Ġná»¯a":745,"Ġkinh":746,"³ng":747,"ÄĲÃ¢y":748,"Ġgian":749,"Ġtrá»į":750,"Ġhá»Ļi":751,"Ġthá»©c":752,"áºŃy":753,"Ńa":754,"áº¹":755,"Ġchiáº¿":756,"Ġvá»ĭ":757,"áº¥u":758,"uyÃªn":759,"Ãło":760,"Ġthiáº¿t":761,"Ġá»":762,"Ġrá»ĵi":763,"Ġliá»ĩu":764,"Ġxem":765,"Ġtrá»įng":766,"uá»ķi":767,"ĠcÃ´":768,"ĠhoÃ¡":769,"ĠthÃŃch":770,"áº©":771,"ĠÄĳá»ĵng":772,"ĩnh":773,"áº£o":774,"iá»ħn":775,"Ġgiáº£i":776,"Ġtráº»":777,"iÃªu":778,"ĠlÆ°á»£ng":779,"Ġhai":780,"Ġai":781,"ĠÄĳo":782,"ĠquÃ¡":783,"Ġngá»":784,"ĠthÆ°á»Ŀng":785,"Ġbáº¥t":786,"ĠvÃłi":787,"ĠÄĳá»ģu":788,"ĠtiÃªn":789,"áº½":790,"ĠG":791,"á»Ļng":792,"ĠsÃ¡ng":793,"ĠÄĳá»ĳi":794,"Ġtráº£":795,"Ġhiá»ĥu":796,"Ġnay":797,"ĠtÃ¢m":798,"Ġláº§n":799,"Ġgiá»ĳng":800,"VÃ¬":801,"ÄĲÃ³":802,"áº£y":803,"Ġloáº¡i":804,"Ġbao":805,"Ġcá»©u":806,"ĠthÃº":807,"Ġbá»ĩnh":808,"ĭch":809,"Ġthá»ĳng":810,"Báº¡n":811,"Ã²ng":812,"Ġ3":813,"ĠviÃªn":814,"Ãºng":815,"£y":816,"iá»ģn":817,"ĠTr":818,"ĠÄĳiá»ĥm":819,"Ġnghá»ĩ":820,"Ġngo":821,"ĠnghÄ©a":822,"hÃºt":823,"Ġgá»įi":824,"Ġnhá»ı":825,"VáºŃy":826,"áº¯ng":827,"ĠÄĳÆ°a":828,"ĠhoÃłn":829,"ĠtÆ°Æ¡ng":830,"ĠÄĳÆ°á»Ŀng":831,"Ġxu":832,"Ġnghiá»ĩm":833,"Ġquáº£":834,"or":835,"ĠtÃ¡c":836,"ĠD":837,"uyá»ĥn":838,"Ġváº«n":839,"uyá»ĩt":840,"Tr":841,"Ġxáº£y":842,"Äĥm":843,"Ġchiáº¿c":844,"Å©":845,"á»ĳc":846,"Ġcá»ĳ":847,"uyá»ģn":848,"Má»Ļt":849,"ĠthuáºŃt":850,"Ġbiá»ĩt":851,"ĠÃŃ":852,"ĠÄĳáº¡i":853,"há»¯ng":854,"ĠdÃ¹ng":855,"al":856,"Ġtá»«ng":857,"ĠdÃ¢n":858,"Ġhoáº·c":859,"ĠbÃªn":860,"ĠlÃºc":861,"Ġtriá»ĥn":862,"iá»ĩp":863,"Ġchuyá»ĥn":864,"Ġdiá»ħn":865,"Ã£o":866,"Ãºp":867,"«ng":868,"Ġtrá»ĭ":869,"Ġquyáº¿t":870,"Ġcao":871,"Ġnghe":872,"Ġthu":873,"ĠÄĥn":874,"áº¯c":875,"uÃ´n":876,"uá»ĳc":877,"Ġtuyá»ĩt":878,"Ġdáº¡":879,"Ġmá»Ĺi":880,"Ġcáº§u":881,"uá»ĳi":882,"Ġtá»ķ":883,"Ġkhoáº£ng":884,"Ġlá»±c":885,"Ġphá»¥":886,"Ġvi":887,"Ġkáº¿":888,"Ġcháº¥t":889,"ĠÃ¡":890,"ĠgiÃºp":891,"im":892,"ĠbÃ¡":893,"áº¥p":894,"Ġem":895,"CÃ³":896,"ĠÄĳáº¥t":897,"Ġlá»Ŀi":898,"ĠgiÃ¡o":899,"ĠÆ¡n":900,"²ng":901,"es":902,"©a":903,"Ãµ":904,"Ġná»¯":905,"Ġchá»§":906,"Ġtrung":907,"áº©n":908,"Ġbáº£o":909,"Há»į":910,"ĠtÃ¬nh":911,"Ġháº¿t":912,"Ġkháº£":913,"Ġtiáº¿n":914,"ĠphÃ²ng":915,"os":916,"Æ°á»Ľi":917,"ĠR":918,"ĠchÆ°a":919,"hÃ´ng":920,"el":921,"Ġxe":922,"ĠnghiÃªn":923,"Ġxuáº¥t":924,"Æ°á»Ľng":925,"Ġmang":926,"á»¹":927,"ĠVÃł":928,"ĠliÃªn":929,"áº¯n":930,"Ġtuá»ķi":931,"ĠkhÃ³":932,"ĠphÃ¢n":933,"¥p":934,"Ġtranh":935,"ĠbÃłi":936,"ĠÄĳÆ¡n":937,"ĠÄĳiá»ĩn":938,"Ġtruyá»ģn":939,"ĠtáºŃp":940,"ĠnÃ£o":941,"ĠbÃ¬nh":942,"ĠphÆ°Æ¡ng":943,"ĠÄĳÃºng":944,"©m":945,"ĠÄĳáº·t":946,"ÄĲiá»ģu":947,"ĠtÆ°á»£ng":948,"iÃª":949,"uá»ĵ":950,"Ġtiá»ģn":951,"ĠyÃªu":952,"Ġbiáº¿n":953,"uá»ĳng":954,"Ġgiá»¯a":955,"Ġtay":956,"Ġsáº£n":957,"Ġtiáº¿ng":958,"©p":959,"Ġtho":960,"ĠbÃ©":961,"áº·p":962,"Ġquyá»":963,"ĠhÃ£y":964,"Ġngay":965,"áºŃn":966,"Ġkhoa":967,"áº¡c":968,"áº§m":969,"Ġbá»ı":970,"Ġláº¥y":971,"Náº¿u":972,"ĠtrÃŃ":973,"Ġgáº§n":974,"et":975,"ĠxÃ£":976,"Ng":977,"Nhá»¯ng":978,"Ġnháº¡":979,"Ġhoáº¡t":980,"Ġchiáº¿n":981,"Ġthá»ĭ":982,"Ġkhu":983,"ĠÄĳÃ¡ng":984,"ĠsÃ¡ch":985,"Ġphi":986,"Ġpháº©m":987,"ĠÄĳá»Ŀi":988,"ĠI":989,"ĠthÃ¢n":990,"ĠphÃ¡p":991,"Ġhiá»ĩu":992,"Ġcuá»ĳi":993,"ĠkhÃŃ":994,"Tháº":995,"Ġ5":996,"Ã£y":997,"Ġmáº¥t":998,"ĠchÆ¡i":999,"Ġminh":1000,"Ġsá»©c":1001,"ĠhÃ´":1002,"uyáº¿t":1003,"įng":1004,"Ġká»ĥ":1005,"á»Ļi":1006,"Ġso":1007,"ĠMá»¹":1008,"ĠV":1009,"uá»ĵn":1010,"Ġmáº¡nh":1011,"Khi":1012,"is":1013,"ĠkÃŃ":1014,"Ġnghiá»ĩp":1015,"ĠngoÃłi":1016,"at":1017,"Ã³c":1018,"Ġbá»©c":1019,"ĠÃŃt":1020,"Ġdáº«n":1021,"ĠláºŃp":1022,"ĠtÃłi":1023,"«a":1024,"ĠÄĳáº¥y":1025,"ĠmÃ´":1026,"¯p":1027,"ĠloÃłi":1028,"ĠluÃ´n":1029,"Ġká»³":1030,"Ġrá»":1031,"ĠQ":1032,"Ġ4":1033,"Ġtinh":1034,"uáºŃn":1035,"Ġphá»ĳ":1036,"Ġdá»±ng":1037,"Ġcá»Ļng":1038,"ĠxÃ¢y":1039,"Ã©t":1040,"ĠtiÃªu":1041,"ĠvÃ´":1042,"Ġchá»©ng":1043,"Ġchá»į":1044,"ĠvÄĥn":1045,"ĠtÃªn":1046,"Ġtá»Ń":1047,"ĠÃ¢m":1048,"áºŃt":1049,"Ġhá»ĵ":1050,"ĠhÆ°á»Ľng":1051,"ic":1052,"ĠJ":1053,"Ġthá»Ń":1054,"Ġnháº¡c":1055,"Ġquá»ĳc":1056,"Ġviáº¿t":1057,"Ġchá»©c":1058,"ĠÄĳÃ¢u":1059,"Ġkiáº¿n":1060,"ĠnguyÃªn":1061,"ap":1062,"ua":1063,"Ġvá»Ŀi":1064,"Ġá»©ng":1065,"Ġcháº¿t":1066,"Ġquyá»ģn":1067,"Ġba":1068,"Ġchá»įn":1069,"Ġgiáº£n":1070,"Ġcháº¿":1071,"ĠÄĳáº·c":1072,"Ġbá»ĳ":1073,"ĠÃ":1074,"iáº¿m":1075,"ĠtÆ°":1076,"Ġmáº¡ng":1077,"Ġcáº¥p":1078,"ĠbÃło":1079,"Ġtriá»ĩu":1080,"ĠbÃł":1081,"Ġsuy":1082,"³m":1083,"Trong":1084,"ĠÄĳá»©a":1085,"Ġtháº§n":1086,"Ġvá»¥":1087,"Ġná»ģn":1088,"ĠtÄĥng":1089,"Ġláº½":1090,"ĠÄĳáº¡o":1091,"£n":1092,"Ġkhá»ıi":1093,"áº£m":1094,"áº¡p":1095,"il":1096,"á»Ń":1097,"ĠsÄ©":1098,"Ġdi":1099,"ĠmÃłu":1100,"as":1101,"Ġchu":1102,"ĠÄĳÃ¡nh":1103,"CÃ¡c":1104,"Ġmáº¹":1105,"Ġcá»¥":1106,"Ġgáº·p":1107,"ĠthÃ¡ng":1108,"áº¥m":1109,"ĠdÆ°á»Ľi":1110,"Ġtá»ĵ":1111,"¯n":1112,"it":1113,"ªm":1114,"ĠchÃºt":1115,"ol":1116,"Ġxuá»ĳng":1117,"áº¹p":1118,"ĠW":1119,"áº§y":1120,"Ġgáº¯ng":1121,"Ã¢ng":1122,"Ġquanh":1123,"ĠF":1124,"ĠnhÃ³m":1125,"áºŃu":1126,"Ġ..":1127,"ĠphÃ©p":1128,"Ġdá»ĭch":1129,"Ġmá»Ł":1130,"ĠxÃ¡c":1131,"Ġchia":1132,"ĠE":1133,"Ġkhiáº¿n":1134,"Ġvá»±c":1135,"ĠÃ¡n":1136,"ĠChÃºng":1137,"Ġdá»¯":1138,"¢u":1139,"000":1140,"Ġ%":1141,"Ã¡ch":1142,"Ġbay":1143,"Ġtham":1144,"ĠthÃªm":1145,"Ã³ng":1146,"ĠÄĳÃłn":1147,"Ġmá»©c":1148,"Ġnhanh":1149,"ĠtrÃ²":1150,"Ġthuyáº¿t":1151,"Ġvá»įng":1152,"ĠthÃ´":1153,"Ġquay":1154,"ĠchÃº":1155,"Ġcá»±c":1156,"Ġcháº¡":1157,"Ġ10":1158,"ĠgÃ¢y":1159,"ĠrÃµ":1160,"Ġdáº¡ng":1161,"áº«u":1162,"Ġcáº£nh":1163,"Ġnguá»ĵn":1164,"ĠAnh":1165,"ĠvÃ¹ng":1166,"ĠÄĳáº¹p":1167,"Ã¨":1168,"Ġhoáº¡":1169,"ĠdÃ¹":1170,"Ġtá»¥c":1171,"ĠbÃ¡o":1172,"ĠgiÃ¡c":1173,"ĠsÃ¡t":1174,"Ġxa":1175,"ĠcÃ¢y":1176,"ĠcÃłng":1177,"Ġcháº¯c":1178,"Ġdá»ħ":1179,"KhÃ´ng":1180,"vÃł":1181,"Ã¡t":1182,"Ġnhá»Ľ":1183,"áº¯m":1184,"ĠbÃ¢y":1185,"ĠÄĳá»§":1186,"iÃªng":1187,"ĠphÃŃa":1188,"BÃ¢y":1189,"ĠvÃŃ":1190,"Æ°u":1191,"Ġtrang":1192,"ĠhÃ´m":1193,"Ġbiá»ĥu":1194,"ĠhÆ°á»Łng":1195,"Ġphim":1196,"ĠÄĳoáº¡n":1197,"Ġduy":1198,"Ġcháº³ng":1199,"Ġchá»ĭ":1200,"Ġláº¡":1201,"Ġ20":1202,"ĠkÃ¬":1203,"Ġ19":1204,"Ġ...":1205,"le":1206,"ĠvÅ©":1207,"Ġkiá»ĥm":1208,"ĠtrÃ¡i":1209,"ĠthÆ°Æ¡ng":1210,"ĠQuá»ĳc":1211,"Ķng":1212,"§ng":1213,"ĠdÃłi":1214,"Ńt":1215,"ter":1216,"ho":1217,"ĠNg":1218,"ĠvÃ²ng":1219,"ĠluáºŃn":1220,"Ġngá»¯":1221,"Ġpháº£n":1222,"ĠÄĳÃ´i":1223,"Ġtu":1224,"ĠÄĳáº§y":1225,"áº£i":1226,"Thá»":1227,"uyáº¿n":1228,"Ġdá»¥c":1229,"ĠÄĳÃ¬nh":1230,"Ġlá»£i":1231,"Ġkia":1232,"Ġgiáº£m":1233,"Ġty":1234,"ĠtháºŃm":1235,"HÃ£y":1236,"Ġvu":1237,"Ġkiáº¿m":1238,"Ġvá»«a":1239,"ĠtrÄĥm":1240,"Ġthuá»ĳc":1241,"Ġlá»ĩ":1242,"ĠchÃ¢n":1243,"ĠthÃ´i":1244,"ĠtÃŃch":1245,"ĠTrung":1246,"ĠthÆ°":1247,"us":1248,"ac":1249,"apos":1250,"and":1251,"Æ°á»¡":1252,"Ġ;":1253,"Ġgiao":1254,"iáº¿u":1255,"ĠbÆ°á»Ľc":1256,"Ġlai":1257,"Ġháº¡n":1258,"Ãłu":1259,"Ġ6":1260,"ĠÄĳÃ´":1261,"ĠsÃ¢u":1262,"Tháº¿":1263,"hÃ¡":1264,"Ġtá»ī":1265,"Ġtráº£i":1266,"ĠmÃ´i":1267,"iá»ģm":1268,"Ġtrá»Ŀi":1269,"Ġtá»ĵn":1270,"Ġdiá»ĩn":1271,"ĠtoÃ¡n":1272,"Ġphá»¥c":1273,"ED":1274,"Ġrá»Ļng":1275,"Ġgiá»¯":1276,"ĠÄĳá»ĭa":1277,"Ġthanh":1278,"ĠmÃ£":1279,"įc":1280,"Ġsá»£":1281,"ĠlÃ£":1282,"ĠlÃ²ng":1283,"ĠdÃłnh":1284,"om":1285,"uá»ĳt":1286,"ad":1287,"Ġná»ĳi":1288,"Ġthuá»Ļc":1289,"ĠriÃªng":1290,"Ġháº§":1291,"ĠÄĳá»©ng":1292,"ĠÄĳoÃ¡n":1293,"Ġchi":1294,"Ġvá»ĩ":1295,"Ġtáº¡p":1296,"Ġdáº¡y":1297,"Ġmáº¯t":1298,"Ġphá»§":1299,"Ġ!":1300,"Ġváº»":1301,"Ġmá»¥c":1302,"Ġmáº«u":1303,"ĠO":1304,"Ġná»ķi":1305,"Ġsáº»":1306,"ĠÄĳáº¡t":1307,"ĠTh":1308,"Ġsai":1309,"ĠcÄĥn":1310,"Ġká»¹":1311,"ĠthÃºc":1312,"ĠluáºŃt":1313,"ĠnghÃ":1314,"Ġtá»ĳi":1315,"Ġxung":1316,"ob":1317,"ĠPhi":1318,"ur":1319,"ĠÃ¡nh":1320,"Ġlá»ĭch":1321,"ĠbÃłn":1322,"ĠY":1323,"ĠÄĳá»įc":1324,"Ġlá»Ľp":1325,"ĠCh":1326,"Ġyáº¿u":1327,"Ġká»·":1328,"Ãłm":1329,"ĠgÃ¡i":1330,"Ġtrá»¥":1331,"Ġvui":1332,"Ġkháº¯p":1333,"Ġkhoáº»":1334,"ĠtrÃ´ng":1335,"Ġngá»ĵi":1336,"Ġcháº¡y":1337,"Ġtiáº¿t":1338,"ĠphÃŃ":1339,"ĠchÆ°Æ¡ng":1340,"ĠphÃºt":1341,"ĠkÃ©":1342,"ĠcáºŃu":1343,"áº·ng":1344,"Ġcuá»ĳn":1345,"Æ°á»£t":1346,"Ġtrá»£":1347,"Ġmá»ĳi":1348,"Ġbuá»ķi":1349,"ew":1350,"hÃºc":1351,"Ġsáº¯c":1352,"Ġsuá»ĳt":1353,"Ġcháº¯n":1354,"--":1355,"Ġháº§u":1356,"ĠsÆ°":1357,"Ġkiá»ĩn":1358,"á»±a":1359,"ra":1360,"Ġ7":1361,"ĠmÃ¹":1362,"ÃĶng":1363,"ĠtrÃºc":1364,"Ġchung":1365,"Ġbiá»ĥn":1366,"ĠHo":1367,"Ġdoanh":1368,"li":1369,"Ġmua":1370,"ĠngÃ´n":1371,"Ġcá»Ńa":1372,"Ġ8":1373,"Ġkiá»ĥu":1374,"ĠTED":1375,"Ġthoáº¡i":1376,"Ġ9":1377,"Ġáº":1378,"Ġsá»Ł":1379,"ĠváºŃn":1380,"ĠcÃ¡nh":1381,"ĠkhÃ¡m":1382,"eb":1383,"Ġngáº¡c":1384,"Ġtuáº§n":1385,"Ġtháº£":1386,"ĠxÃ©t":1387,"ĠbÃ¡n":1388,"Ġ&#":1389,"ĠxÃºc":1390,"ĠrÃłng":1391,"ĠlÃ¢u":1392,"oi":1393,"Ġpháº¡":1394,"Ġhiá»ĥm":1395,"oo":1396,"ĠchÃ¡":1397,"Ġhá»ĵi":1398,"áº±m":1399,"ĠlÃŃ":1400,"áº¡nh":1401,"Giá»":1402,"Ġcáº¥u":1403,"Ġchá»¥p":1404,"Ãºt":1405,"ĠNÃ³":1406,"Ġnhiá»ĩm":1407,"Æ°á»¡ng":1408,"Anh":1409,"Ġcung":1410,"ĠchuyÃªn":1411,"á»įn":1412,"ĠthiÃªn":1413,"Ġphá»©c":1414,"Ä©nh":1415,"ĠkÃŃch":1416,"Ġ200":1417,"Ġla":1418,"ĠbÃ³ng":1419,"ĠnháºŃp":1420,"Ġnáº±m":1421,"uá»·":1422,"Bá»Łi":1423,"áº¡ng":1424,"ÄĲá»":1425,"ĠBáº¡n":1426,"á»įc":1427,"Ġkáº»":1428,"ĠthÃ¡i":1429,"ĠngÃ´i":1430,"Ġcáº¡nh":1431,"ĠÄĳá»Ļc":1432,"¯u":1433,"Ġviá»ĩn":1434,"Ġghi":1435,"ĠhoÃł":1436,"Ġháº¡nh":1437,"Ġhá»¯u":1438,"Ġchá»Ĺ":1439,"ĠngÃłnh":1440,"áº¿p":1441,"Ġchá»©":1442,"ĠbÄĥng":1443,"ĠtháºŃp":1444,"Ġgá»":1445,"ĠtrÆ°á»Łng":1446,"Ġkhá»§ng":1447,"Ġváº½":1448,"ĠÃŃch":1449,"µn":1450,"iÃªm":1451,"ĠÄĳa":1452,"Th":1453,"Xin":1454,"ıng":1455,"Ġtra":1456,"ĠbÃ¡c":1457,"háº¿":1458,"Ġchuáº©n":1459,"Ġtáº¥m":1460,"ĠphÃºc":1461,"ĠquÃ½":1462,"Ġthiáº¿u":1463,"Ġchá»ĭu":1464,"Ġhá»ģ":1465,"Ġxanh":1466,"ĠChÃ":1467,"NgÆ°á»Ŀi":1468,"ĠháºŃ":1469,"Ġtá»ĩ":1470,"Ġláº¯ng":1471,"ĠhÃ¡":1472,"Ġtrai":1473,"áº©y":1474,"Ã¡m":1475,"Ġtá»©c":1476,"Ġsáºµn":1477,"ĠnhiÃªu":1478,"ĠkhÄĥn":1479,"Ġniá»ĩm":1480,"áº¡ch":1481,"Sau":1482,"Ġan":1483,"Ġpháº¡m":1484,"ri":1485,"un":1486,"ĠKhÃ´ng":1487,"ĠtÃ¡i":1488,"ĠÄĳau":1489,"Ãºi":1490,"Ġdung":1491,"Ġsáº¯p":1492,"ĠhÆ¡i":1493,"ĠÃ¡p":1494,"¥n":1495,"Ġmáº·c":1496,"uÃ´i":1497,"ro":1498,"Ã³n":1499,"Ãªm":1500,"Ġláº¡c":1501,"á»ĳng":1502,"Ġchá»ĳng":1503,"Táº¥t":1504,"Ġtháº¥t":1505,"ĠNhÆ°ng":1506,"Cáº£m":1507,"Ġmong":1508,"Ġxá»Ń":1509,"ĠchÃ¢u":1510,"Ġdá»±a":1511,"Ġcáº£i":1512,"NhÆ°":1513,"ĠÄĳÃ³ng":1514,"á»Ńi":1515,"á»Ļn":1516,"á»ŀ":1517,"Ġtrá»±c":1518,"Ġlá»±a":1519,"Ġban":1520,"ĠNew":1521,"Vá»":1522,"ĠÄĳá»Ļi":1523,"ĠháºŃu":1524,"NÃªn":1525,"Ġcá»ķ":1526,"«u":1527,"ĠmáºŃt":1528,"ĠbÃ¡nh":1529,"Ġkhá»ķ":1530,"Ġtá»ķng":1531,"Ġda":1532,"Ġkháº¯c":1533,"Ġná»Ļi":1534,"ĠvÆ°á»£t":1535,"Ġxin":1536,"Ġxáº¥u":1537,"Táº¡i":1538,"Ġgá»Ńi":1539,"Ġtáº§m":1540,"ĠtoÃł":1541,"©t":1542,"ĠÃ´":1543,"Ġáº©n":1544,"Ġdáº§n":1545,"ĠchÄĥm":1546,"Ġtá»·":1547,"Ġhá»©ng":1548,"ĠlÆ°u":1549,"Ġnguy":1550,"ÃŃch":1551,"ĠÄĲá»":1552,"Ġdanh":1553,"Ġtim":1554,"Ġthiá»ĩn":1555,"Ġnáº¡n":1556,"Ġháº¡t":1557,"Ġhy":1558,"Ġ30":1559,"¤n":1560,"¨o":1561,"re":1562,"Ġtráº¡ng":1563,"Ġnhiá»ĩt":1564,"ĠlÃ£nh":1565,"Ġchiá»ģu":1566,"ĠÄĳá»Ļt":1567,"Ã¡nh":1568,"Ġniá»ģm":1569,"Ġw":1570,"Ch":1571,"Ġdáº§u":1572,"Ġngoáº¡i":1573,"Ġtá»Ļi":1574,"net":1575,"Ġcha":1576,"Ġnhiá»ħ":1577,"ĠnghÃ¨o":1578,"Ġsang":1579,"ĠcáºŃn":1580,"Ġchá»¯a":1581,"Ġdáº¥u":1582,"Ġ100":1583,"ĠIn":1584,"Ġáº¤n":1585,"Giá»Ŀ":1586,"ĠÄĳáº¥u":1587,"Ġxo":1588,"ĠkÃŃnh":1589,"Ġmay":1590,"Chá»":1591,"Ġin":1592,"ĠSt":1593,"Ã¡ng":1594,"Thá»±c":1595,"Ġung":1596,"Ġná»Ĺi":1597,"ĠÄĲÃ³":1598,"id":1599,"ĠÄĳáº©y":1600,"Ġá»ķ":1601,"ĠkÃ©o":1602,"Ġngá»§":1603,"Ġ50":1604,"ĠhÃ¡t":1605,"ĠkhÃ¡ch":1606,"ĠChÃ¢u":1607,"ĠghÃ":1608,"Ã£i":1609,"ĠngÆ°á»£c":1610,"Ġthá»§":1611,"Ġ15":1612,"ĠthÃ¡ch":1613,"Ġtáº¯c":1614,"ĠÄĳen":1615,"ĠÄĲá»Ļ":1616,"Ġgiáº¥y":1617,"iáº¿p":1618,"ĠÆ°á»Ľc":1619,"Łi":1620,"ĠnuÃ´i":1621,"Ġgá»ĵ":1622,"Ġquáº£n":1623,"Ġbáº¡i":1624,"±ng":1625,"ĠTÃ¢y":1626,"ist":1627,"īnh":1628,"Ġcá»Ń":1629,"VÃ¢ng":1630,"ĠsoÃ¡t":1631,"Ġmáº¯c":1632,"Ġchá»¯":1633,"Ġnghi":1634,"ĠmÆ¡":1635,"Ġlá»Ĺi":1636,"ah":1637,"Ġná»Ńa":1638,"Ġtiá»ĩn":1639,"Ġhoáº¡ch":1640,"ig":1641,"ĠlÄ©nh":1642,"th":1643,"ĵng":1644,"Ġgiáº¿t":1645,"ran":1646,"Ġgá»ĵm":1647,"Ġnhiá»ħm":1648,"Ġtá»ĳc":1649,"Ġháº¡i":1650,"ĠdÆ°Æ¡ng":1651,"ÄĲá»ĥ":1652,"Ġcáº¯t":1653,"Ġkhiá»ĥn":1654,"Ãµi":1655,"Ġtáº£":1656,"ternet":1657,"ĠgÃ³":1658,"ĠsÃ³c":1659,"op":1660,"háºŃt":1661,"TháºŃt":1662,"ĠÄĳá»ĳ":1663,"Ġtháº³ng":1664,"ĠquÃ¢n":1665,"ĠMá»Ļt":1666,"ĠU":1667,"Ġbáº¡o":1668,"ĠdÃ¢y":1669,"ed":1670,"Ġquen":1671,"ĠNhá»¯ng":1672,"CÃ¡i":1673,"Ġca":1674,"ĠbÃły":1675,"á»ĵng":1676,"Ġkhá»ĳi":1677,"ĠtÃłu":1678,"ĠÄĳÃ´ng":1679,"ĠlÆ°á»Ľi":1680,"áº¯p":1681,"ĠdÃ²ng":1682,"Ġbáº§u":1683,"ard":1684,"Ġchiáº¿u":1685,"ing":1686,"ĠlÃ¡i":1687,"Ġngá»Ŀ":1688,"ĠÄĳÃŃch":1689,"ĠÄĳá»©c":1690,"Ġnhá»Ŀ":1691,"ĠÄĳÃªm":1692,"Ġtháº¥p":1693,"ag":1694,"ĠmÃª":1695,"Ġgen":1696,"ĠphÃ³ng":1697,"ĠcÆ°":1698,"ĠniÃªn":1699,"ĠCÃ³":1700,"ĠÄĳá»ķ":1701,"Ġthi":1702,"ĠX":1703,"ĠsÃłng":1704,"Ġrá»ĳi":1705,"Sá»±":1706,"ĠcÆ°á»Ŀi":1707,"Ġngáº¯n":1708,"ĠdÃłng":1709,"Ġkhai":1710,"Ġhá»Ĺ":1711,"Ġcháº·":1712,"ĠtáºŃn":1713,"lo":1714,"Ġgá»ĳc":1715,"ĠÄĳá»¡":1716,"Ġcháº¥p":1717,"Ġxáº¿p":1718,"ĠnÃ´ng":1719,"Ġgáº¥p":1720,"ĠÄĳem":1721,"Ġphong":1722,"ĠbÃŃ":1723,"ĠÄĲÃ¢y":1724,"ĠgiÃ¢y":1725,"Ġká»ī":1726,"ĠsÃ¢n":1727,"Ġ/":1728,"Ġgáº¯n":1729,"Ġláº¯m":1730,"ĠtrÃ¡ch":1731,"Ġbá»ĳn":1732,"Ġvai":1733,"ĠcÃ¡o":1734,"ĠcÃ¢n":1735,"ton":1736,"ĠtÃ´n":1737,"ĠngÃłn":1738,"ĠÄĳá»£i":1739,"91":1740,"CÃ´":1741,"Ńm":1742,"93":1743,"Ġsu":1744,"áº§ng":1745,"ey":1746,"Ġpháº«u":1747,"ÃĿ":1748,"Ġ12":1749,"ĠÃĤ":1750,"ab":1751,"ĠhÃłi":1752,"ĠthÆ¡":1753,"ĠxuyÃªn":1754,"Ġchuyáº¿n":1755,"Ġdá»«ng":1756,"ĠAl":1757,"Ġnháº£y":1758,"Tá»":1759,"Ńn":1760,"ĠsiÃªu":1761,"Ġthá»¥":1762,"ĠThá»":1763,"Ġhoa":1764,"Má»":1765,"Ġlao":1766,"uá»Ĺi":1767,"Ġchim":1768,"ak":1769,"Ġnghá»ĭ":1770,"ĠkÄ©":1771,"ĠkÃ½":1772,"Ġgiai":1773,"ĠmÃłn":1774,"Ġtáº£i":1775,"ĠHÃ£y":1776,"ork":1777,"Ġtáº§ng":1778,"Ġweb":1779,"Ã¡o":1780,"Ã¨n":1781,"oh":1782,"ĠÄĳáº£m":1783,"Ġáº£o":1784,"Ġháº¥p":1785,"Ġkhá»Łi":1786,"Ġphá»ķ":1787,"deo":1788,"Ġchá»īnh":1789,"Ġvideo":1790,"av":1791,"ĠtÃ¹":1792,"ĠngÄĥn":1793,"ine":1794,"Ġnháº¯c":1795,"ou":1796,"Ġrá»«ng":1797,"Äĳ":1798,"ĳn":1799,"³n":1800,"¹ng":1801,"ĠgÃ³c":1802,"Ġtháº£i":1803,"ĠYork":1804,"iáº¿ng":1805,"oc":1806,"ĠkhÃ¡i":1807,"ĠNam":1808,"Ġnam":1809,"han":1810,"Ġhá»Ļp":1811,"ĠhÃºt":1812,"ĠmÃ³n":1813,"ĠkhuÃ´n":1814,"son":1815,"ĠnghiÃªm":1816,"ĠÃĤu":1817,"ĠNh":1818,"Ġluyá»ĩn":1819,"Ġá»ķn":1820,"ĠcáºŃp":1821,"ĠkÃª":1822,"ĠtÃŃn":1823,"ĠlÃ¡":1824,"ĠInternet":1825,"Ġcoi":1826,"ĠgiÃłu":1827,"ĠBáº¯c":1828,"Ġchuá»Ļt":1829,"ģm":1830,"ĠÄĳá»ı":1831,"ĠgiÃł":1832,"obot":1833,"ĠngÃ¢n":1834,"ĠÄĳÃ¡m":1835,"Ġliá»ĩt":1836,"Má»įi":1837,"Ġtrá»«":1838,"Ġtáº¥n":1839,"Ġtuyáº¿n":1840,"Ġhuá»·":1841,"Ġtháº¯ng":1842,"Ġtrao":1843,"ĠChÃº":1844,"Rá»ĵi":1845,"ĠpháºŃn":1846,"Vá»Ľi":1847,"ĠTáº¡i":1848,"ĠGi":1849,"ĠHá»į":1850,"te":1851,"Ġnáº·ng":1852,"Ġnhu":1853,"Ġxá»":1854,"ĠdáºŃy":1855,"ĠÄĳáº£o":1856,"ĠmÃ´n":1857,"Ġtai":1858,"ĠNáº¿u":1859,"ĠnÃ³ng":1860,"Ġchá»©a":1861,"ĠKá»":1862,"ill":1863,"ĠchÃ¡u":1864,"Ġháº³n":1865,"Tuy":1866,"Ġmá»ģm":1867,"Do":1868,"ĠHoa":1869,"ĠchÃ³":1870,"Ġmáº¥y":1871,"Ã³t":1872,"LÃłm":1873,"ĠvÃ¢n":1874,"ĠsÃ³ng":1875,"ĠphÃ¹":1876,"Ġbuá»Ļc":1877,"ĠmÃ¹a":1878,"Chá»ī":1879,"ĠÄĳiá»ĥn":1880,"ĠhÃ£i":1881,"ĠdÆ°á»¡ng":1882,"ĠchÃ³ng":1883,"Ġmáº¡ch":1884,"Ġrá»Ŀi":1885,"Ġá»ĳng":1886,"ĭp":1887,"Ġmáº½":1888,"Ġ18":1889,"ĠmÃ¡u":1890,"Ġquyá»ĥn":1891,"£o":1892,"ĠcÅ©":1893,"Ġthiá»ĩu":1894,"ĠtrÃ¹ng":1895,"Ġtuá»":1896,"Ġchá»§ng":1897,"ĠChÃºa":1898,"um":1899,"Ġlinh":1900,"Ġmáº¯n":1901,"Ġtháº£o":1902,"Ho":1903,"Ġlá»Ļ":1904,"ĠsÆ¡":1905,"ĠdÃµi":1906,"ĠkhÃ¡n":1907,"áº¡m":1908,"Ã²i":1909,"Ġsá»Ńa":1910,"VÃŃ":1911,"ĠÄĳiÃªn":1912,"Ġláº§m":1913,"Ġlá»ĵ":1914,"tr":1915,"Ġuá»ĳng":1916,"Ġvá»¯ng":1917,"Ġloáº¡n":1918,"Ġtá»ĵi":1919,"ik":1920,"Ġtáº£ng":1921,"Ġchá»Ŀ":1922,"Ġ40":1923,"Ġrobot":1924,"Ġbuá»ĵn":1925,"ie":1926,"ĠÄĳÃ¡p":1927,"ĠtÆ°á»Ŀng":1928,"¥m":1929,"Ġmáº£nh":1930,"ĠÄĲiá»ģu":1931,"ĠÄĳÃ¨n":1932,"ow":1933,"©u":1934,"Ġlan":1935,"ĠkhÃ´":1936,"Ġo":1937,"Ġmiá»ħn":1938,"á»ĳt":1939,"ĠgÃ³p":1940,"ĠTháº¿":1941,"Ġkhá»ķng":1942,"ĠKá»³":1943,"ich":1944,"ĠtrÃ¡nh":1945,"ĠthÆ°á»Łng":1946,"ĠÄĳÃ³i":1947,"ĠTrÃ¡i":1948,"ĠmÃ¡i":1949,"Hiá»ĩn":1950,"Ġláº¡nh":1951,"Ġtrá»ĵng":1952,"Ġá»§ng":1953,"Cháº":1954,"Ġf":1955,"Ġkhoáº£n":1956,"Ġtá»ķn":1957,"ĠcÆ¡n":1958,"Ġtráº¯ng":1959,"ĠchÃłng":1960,"ev":1961,"ĠTrong":1962,"Qu":1963,"Ġtá»Ļc":1964,"Ġbáº£ng":1965,"ĠMar":1966,"ord":1967,"Ġláº«n":1968,"Ġtá»Ŀ":1969,"Ġdiá»ĩu":1970,"ĠÄĳá»īnh":1971,"áº¥c":1972,"Ġ25":1973,"Ġgiá»įng":1974,"Ľm":1975,"ĠnÃºi":1976,"Ġtiá»ĥu":1977,"ĠtrÃ¬":1978,"Ġphá»ıng":1979,"ĠÄĳÃło":1980,"CÃ¢u":1981,"la":1982,"Ġáº¥n":1983,"ĠquÃªn":1984,"Ġbá»ģ":1985,"Ġháº£o":1986,"ĠÄĲÃ´ng":1987,"Ġtá»ĳn":1988,"Ńnh":1989,"ĠÃ¡o":1990,"ĠtráºŃn":1991,"ĠCÃ¡c":1992,"ĠmÃ£i":1993,"ĠrÆ¡i":1994,"Ġdu":1995,"Ġgiá»ıi":1996,"Ġquáº£ng":1997,"Ġcháº¡m":1998,"istan":1999,"VÃło":2000,"Ġbá»ģn":2001,"ĠChá»":2002,"ĠNgÆ°á»Ŀi":2003,"Ġcáº§m":2004,"Ġpháº¥n":2005,"Ã¹a":2006,"Ġkim":2007,"CÃ²n":2008,"Ġcá»¡":2009,"Ġkhuáº©n":2010,"ĠÄĳÆ°Æ¡ng":2011,"ĠkhoÃ¡":2012,"Ġnghá»ī":2013,"Ġbang":2014,"ĠbáºŃt":2015,"ĠhÃ´n":2016,"Ġvá»ĳn":2017,"ĠsÃ¡nh":2018,"Cho":2019,"Ġtiá»ģm":2020,"ĠnghÃ¬n":2021,"ĠvÃłng":2022,"áº³ng":2023,"Ġnáº¯m":2024,"ĠlÆ°Æ¡ng":2025,"Má»Ĺi":2026,"ib":2027,"Ġvá»£":2028,"Ġcháº¥m":2029,"Ġcam":2030,"Ġhi":2031,"Ġmá»Ŀi":2032,"ĠkhÃŃch":2033,"Ġvá»¡":2034,"Ġhoáº£ng":2035,"Ġchiáº¿m":2036,"ĠlÃłng":2037,"ĠhÃło":2038,"Ġlá»Ńa":2039,"Ġngá»«ng":2040,"Con":2041,"ub":2042,"ĠÄĳá»«ng":2043,"ĠxÆ°Æ¡ng":2044,"Ġphá»ĳi":2045,"ly":2046,"Ġhiá»ĥn":2047,"Ġhá»ķ":2048,"Ġbá»¯a":2049,"Ġ11":2050,"Ġthá»ĭt":2051,"ĠVÃ¬":2052,"ĠÄĳiá»ĩu":2053,"ĠvÄ©":2054,"ĠbiÃªn":2055,"Ġgháº¿":2056,"áº·m":2057,"ĠtÃ¡ch":2058,"Ġquáº§n":2059,"ul":2060,"Ġná»ķ":2061,"ĠsÃ³t":2062,"ĠrÃºt":2063,"Ġká»ĭch":2064,"ent":2065,"ĠdÆ°á»Ŀng":2066,"Ġchuá»Ĺi":2067,"Ġcháº£y":2068,"ĠthoÃ¡t":2069,"ĠÄĳáº±ng":2070,"Ġsáº¡ch":2071,"ĠgiÃ³":2072,"ĠHá»ĵi":2073,"Ġkháº©u":2074,"ĠKhi":2075,"Ġong":2076,"ĠThÃ¡":2077,"oog":2078,"ĠÃĶng":2079,"ĠtÃłn":2080,"Ġchá»ĵng":2081,"Ġsá»Ľm":2082,"ĠtÃ´":2083,"Ġloáº¡t":2084,"Ġtáº¯t":2085,"ÃŃnh":2086,"ĠbÃ¨":2087,"Ã³m":2088,"ĠcháºŃm":2089,"ĠVÃ¢ng":2090,"ĠVáºŃy":2091,"ChÃ":2092,"ian":2093,"ĠdÄ©":2094,"Pháº":2095,"Ġtháº§":2096,"Ġgiáº¥c":2097,"ĠÄĲáº¡i":2098,"Ġnghá»ģ":2099,"oogle":2100,"Ġlá»ĳi":2101,"Ġláº·p":2102,"Ġgá»£i":2103,"Tá»«":2104,"io":2105,"ir":2106,"ĳt":2107,"Ġsuáº¥t":2108,"ĠmÅ©":2109,"Æ°Æ¡i":2110,"Ġkhá»©":2111,"man":2112,"Ġtrá»¯":2113,"az":2114,"if":2115,"ĠsÃ´ng":2116,"Ġnguyá»ĩn":2117,"Ġquá»¹":2118,"ĠphÃª":2119,"Ġlá»Ĺ":2120,"ĠchÃ¬":2121,"Ġ80":2122,"ĠCon":2123,"ack":2124,"ex":2125,"ry":2126,"ĠtÃºi":2127,"±m":2128,"ĠtrÆ°ng":2129,"Ġngáº¡i":2130,"ĠnhÃ©":2131,"ĠtÃ¡n":2132,"Ráº¥t":2133,"ep":2134,"Ġtráº¡i":2135,"ĠQu":2136,"Ġdáº·m":2137,"NgÃły":2138,"ick":2139,"ud":2140,"ĠcÃł":2141,"Ta":2142,"Ġkiá»ĩm":2143,"ĠAn":2144,"Ġviá»ħn":2145,"ĠthÆ°á»Ľc":2146,"ĠÄĳÄĥng":2147,"©n":2148,"Ġsá»¹":2149,"Ġcá»Ŀ":2150,"Ä©a":2151,"¢m":2152,"Thá»©":2153,"ĠÄĳuá»ķi":2154,"áº·n":2155,"ĠTá»":2156,"ĵi":2157,"ĠnÃ©":2158,"ĠkhÃ¡ng":2159,"ĠCáº£m":2160,"ĠnÃ¢ng":2161,"Ġquang":2162,"Ġnháº¹":2163,"Ġbá»¥":2164,"ĠkÃ©m":2165,"ut":2166,"ĠbÆ¡i":2167,"Ġvá»ı":2168,"Ġnháº¯n":2169,"Ġhoang":2170,"ĠphiÃªn":2171,"ĠGoogle":2172,"Ġváº¿t":2173,"ĠghÃ©p":2174,"iv":2175,"Ġthá»Ł":2176,"Ġráº»":2177,"ĠsÃ¡u":2178,"Æ°á»¡i":2179,"ohn":2180,"ĠcÃº":2181,"ĠthÄĥm":2182,"Ġkhoáº£nh":2183,"Ġ60":2184,"Váº¥n":2185,"Ġláº·ng":2186,"Ġsá»ĳt":2187,"est":2188,"Ġtháº£m":2189,"ĠnháºŃt":2190,"Ġbá»įn":2191,"Ġhu":2192,"TrÃªn":2193,"he":2194,"Ġháº¹":2195,"tÃ´i":2196,"ĠtÃłng":2197,"Ġná»Ĺ":2198,"Ġthoáº£":2199,"Gi":2200,"ĠZ":2201,"ans":2202,"TrÆ°á»Ľc":2203,"Ġcan":2204,"Ġlá»įc":2205,"ĠbÃ²":2206,"á»įt":2207,"one":2208,"Ġxoay":2209,"NÄĥm":2210,"¥u":2211,"ĠÄĳiá»ĩp":2212,"ĠtrÃ²n":2213,"Ġtrá»ĳng":2214,"ĠhÃ¹ng":2215,"ĠNháºŃt":2216,"amp":2217,"ĠPhÃ¡":2218,"ĠBr":2219,"art":2220,"ĠÄĳáº³ng":2221,"Ġbá»Ŀ":2222,"Ġdoáº¡":2223,"ins":2224,"ĠÆ°u":2225,"ĠAr":2226,"±a":2227,"Ġlá»¥c":2228,"ĠLÃłm":2229,"BÃł":2230,"bon":2231,"ĠÄĳáº¿":2232,"Ġvoi":2233,"ĠmÃ¹i":2234,"ook":2235,"ĠÄĳam":2236,"Ġngáº«u":2237,"Æ°á»Ŀn":2238,"ĠlÃłnh":2239,"ĠCÃ´":2240,"uá»µ":2241,"uá»ĵng":2242,"Ġthá»«a":2243,"Ãºa":2244,"§i":2245,"ĠÄĳá»±ng":2246,"era":2247,"ĠlÃŃnh":2248,"NhÃ":2249,"ec":2250,"ĠthuáºŃn":2251,"ell":2252,"Ġhá»įp":2253,"ÄĲÆ°á»£c":2254,"Liá»ĩu":2255,"ĠrÃ¡c":2256,"Ġthuá»·":2257,"Ġnhá»±a":2258,"Ġtháº¡":2259,"ĠÄĳoÃłn":2260,"IV":2261,"ĠÄĲáº¥t":2262,"ĠthÃ¡c":2263,"Ľt":2264,"ĠBá»Łi":2265,"Ġláº¯p":2266,"Ġma":2267,"ÄĲáº§u":2268,"Ġcáº¥y":2269,"ĠÄĳe":2270,"Ġthang":2271,"Ġ16":2272,"ĠAf":2273,"ĠtrÃŃch":2274,"Ġcháº·t":2275,"chÃºng":2276,"ion":2277,"Ġpr":2278,"ĠnhuáºŃn":2279,"ĩt":2280,"ĠÄĳáº¡p":2281,"Ġtan":2282,"aw":2283,"eg":2284,"Ġmiáº¿ng":2285,"ĠHIV":2286,"Ġkháº¥u":2287,"ĠtáºŃt":2288,"Ġgiáº£ng":2289,"ĠlÆ°á»£c":2290,"ert":2291,"de":2292,"ĠlÃ£ng":2293,"ĠcÃ£i":2294,"ore":2295,"Ġcháº·n":2296,"Ġngang":2297,"Ġmá»«ng":2298,"ĠgiÃ¡m":2299,"ĠyÃªn":2300,"ĠÄĳÃ²i":2301,"ĠthÃ¹":2302,"ĠhÃ¨":2303,"ĠAfg":2304,"50":2305,"ĠchÃło":2306,"Ġthai":2307,"ĠngoÃ¡i":2308,"ĠIs":2309,"ChÃŃnh":2310,"Viá»ĩc":2311,"Ġtá»¥":2312,"Ġlá»ħ":2313,"ĠÄĲá»©c":2314,"ein":2315,"Ġmáº¡i":2316,"Ġhuy":2317,"Ġdiá»ĩt":2318,"á»ĳn":2319,"ĠtháºŃn":2320,"all":2321,"ess":2322,"Ġáº¢":2323,"uá»Ļn":2324,"Ġ$":2325,"ĠmÃ¢y":2326,"ĠhÆ°Æ¡ng":2327,"Ġhuá»ĳng":2328,"Ġcáº£n":2329,"Ġsá»ķ":2330,"NÃ³i":2331,"Ġ199":2332,"Ġu":2333,"Ġthao":2334,"ĠxoÃ¡":2335,"uc":2336,"Ġdá»ĭ":2337,"ĠSh":2338,"Ġ90":2339,"ĠmÃ¬":2340,"ĠtrÃłn":2341,"Ġsá»£i":2342,"áº©u":2343,"ĠÄĳÃ¹a":2344,"Ġvong":2345,"Ġko":2346,"ĠsÃºng":2347,"Ġtri":2348,"ĠchÃ©p":2349,"Ġtháº¥u":2350,"ĠAD":2351,"orn":2352,"Cuá»ĳi":2353,"Hay":2354,"ge":2355,"ĠÄĳá»ĳng":2356,"Ġcá»©ng":2357,"ĠEm":2358,"Ľn":2359,"ĠvÃº":2360,"ĠcÃ¡t":2361,"Ġtá»ı":2362,"Ġ14":2363,"ĠCar":2364,"ĠVá»":2365,"les":2366,"rus":2367,"Ġcáº·p":2368,"ĠcÃ¡m":2369,"ĠÃ¡m":2370,"ĠJohn":2371,"Ġ201":2372,"ĠtÃ¡":2373,"Ġbom":2374,"ff":2375,"ĠmáºŃp":2376,"Ġmá»±c":2377,"Ġbi":2378,"Ġnháº±m":2379,"Ã¨o":2380,"ĠAfghan":2381,"Bá»":2382,"ĠtuyÃªn":2383,"Ġbá»ĳi":2384,"Ġsá»¥p":2385,"Ġphiáº¿u":2386,"Ngay":2387,"ĠchÃ¡n":2388,"Ġbáº¯n":2389,"ĠkÃªu":2390,"ĠtrÃło":2391,"ĠhÃł":2392,"ĠkhÃŃa":2393,"Ġnhá»ĭp":2394,"Ġ70":2395,"LÃºc":2396,"Ã´m":2397,"Ġhiáº¿m":2398,"ĠAi":2399,"ĠADN":2400,"ĠtiÃªm":2401,"nhÆ°ng":2402,"Ġngá»įn":2403,"Ġdá»ĳi":2404,"Ġlá»«a":2405,"Ã©p":2406,"ĠmÃ³c":2407,"Æ°á»£u":2408,"áºŃc":2409,"Ġ13":2410,"att":2411,"Ġtriáº¿t":2412,"Ġkhung":2413,"Ġmá»ı":2414,"ĠPhÃ¡p":2415,"ĠXin":2416,"Ġliá»ģn":2417,"Ġcá»¥c":2418,"ĠhoÃłng":2419,"Ġprot":2420,"CÃ´ng":2421,"ip":2422,"âĢ":2423,"ĠÃ³c":2424,"Ľp":2425,"ĠÄĳáºŃp":2426,"ĠmÆ°a":2427,"ĠbÃ©o":2428,"Ġgá»Ĺ":2429,"CÃ¡ch":2430,"Ġbá»ķ":2431,"NhÃł":2432,"Ġthoáº£i":2433,"Ġtháº§y":2434,"od":2435,"ris":2436,"ĠcÃ´n":2437,"ĠÄĳua":2438,"ĠbáºŃc":2439,"Ġthá»Ŀ":2440,"Ġhá»ĳi":2441,"KhÃ¡":2442,"yl":2443,"Ġ0":2444,"ĠÃ¡c":2445,"ĠâĢ":2446,"Ġgam":2447,"ĠSá»±":2448,"ĠKen":2449,"CÃ¡m":2450,"ĠcÄĥng":2451,"ĠlÅ©":2452,"ĠGiá»":2453,"Ġkháº£o":2454,"ail":2455,"ĠCal":2456,"Ġmáº¡c":2457,"ya":2458,"¯t":2459,"Ġthuyá»ģn":2460,"ĠTháºŃt":2461,"eet":2462,"Ġnáº¥m":2463,"ĠmÃ©t":2464,"ĠngÆ°á»¡ng":2465,"ĠrÆ°á»£u":2466,"Ġchá»ĳi":2467,"Ġ17":2468,"ĠtÃ¡o":2469,"Ġchá»ĳt":2470,"ÄĲá»ĳi":2471,"ers":2472,"CÅ©ng":2473,"NA":2474,"¯m":2475,"Ġtráº§m":2476,"Theo":2477,"Ġhuáº¥n":2478,"Ġá»Ĵ":2479,"ĠThÃ¡i":2480,"ĠnhÅ©ng":2481,"Ġá»©c":2482,"ĠghÃ©t":2483,"ĠAm":2484,"ĠÃģ":2485,"Ġhá»Ĺn":2486,"ĠCÃ´ng":2487,"ĠFran":2488,"ĠAfghanistan":2489,"ee":2490,"Ġche":2491,"Ġkhuyáº¿n":2492,"ĠhÃ²":2493,"ĠBáº£n":2494,"Ġbiá»ĩn":2495,"Ġbáº£y":2496,"ĠkhÃ¡t":2497,"Thay":2498,"LÃł":2499,"ĠvÃ¢ng":2500,"Ġtruy":2501,"Ġtá»īnh":2502,"ĠnÃºt":2503,"Ġsong":2504,"Ġthá»į":2505,"Ġcá»ı":2506,"NÃło":2507,"ĠÄĳáº¯t":2508,"ĠngÃ³n":2509,"ĠIran":2510,"Ġhá»ĵn":2511,"Hoáº·c":2512,"Ġáº¡":2513,"ĠphÃ¡n":2514,"ĠHar":2515,"ĠchÃ¡y":2516,"MÃł":2517,"á»Ŀi":2518,"Ġmáº¡o":2519,"ĠThuá»µ":2520,"Ġxá»©ng":2521,"ĠhÃ£":2522,"Nhiá»ģu":2523,"Ġ21":2524,"avid":2525,"ph":2526,"Ġá»ĵ":2527,"ĠvÆ°á»Ŀn":2528,"ĠgiáºŃn":2529,"ond":2530,"Ġháº¯n":2531,"ĠÄĲÆ°á»£c":2532,"ĠLan":2533,"land":2534,"ĠtÃºc":2535,"ĠsÄĥn":2536,"Ġthiá»ĥu":2537,"£t":2538,"ĵn":2539,"Ġgá»įn":2540,"Ġkhiáº¿p":2541,"log":2542,"ĠmÅ©i":2543,"DÃ¹":2544,"ov":2545,"xy":2546,"Ġcá»Ĺ":2547,"Ġcá»¥t":2548,"ĠCÃ¡i":2549,"Ai":2550,"Ġtia":2551,"ĠtÃ³c":2552,"ĠbÃ´ng":2553,"ĠbÃ£i":2554,"Ġdinh":2555,"Ġtrá»©ng":2556,"ĠthuÃª":2557,"Ġtháº¡ch":2558,"Ġprotein":2559,"ach":2560,"ĠÃł":2561,"Ġmai":2562,"Ġxong":2563,"ark":2564,"Ġnáº¥u":2565,"Ġlá»Ļn":2566,"Ġbinh":2567,"ĠdÃły":2568,"Ġthiá»ĩp":2569,"Ã£n":2570,"eria":2571,"Ġrá»§i":2572,"Vá»ģ":2573,"ĠÄĳáº¯n":2574,"Ġmá»Ļ":2575,"Ġbáº¡c":2576,"Ġkáº¹":2577,"Ġru":2578,"ÄĲÃºng":2579,"Ġcá»Ļt":2580,"ĠmÃ²":2581,"ĠhÆ°á»Ľc":2582,"ĠgiÃłnh":2583,"Æ°á»Ľt":2584,"ĠHai":2585,"ĠthÃ¡nh":2586,"Ġ198":2587,"ĠÄĳá»ĳc":2588,"Hai":2589,"ta":2590,"Ĺng":2591,"Ġbá»Ļt":2592,"ĠCan":2593,"ĠÄĲÃºng":2594,"ĠÄĳá»ĳt":2595,"Ġmiá»ģn":2596,"ĠbÃ³":2597,"ĠngÅ©":2598,"Ġdá»įc":2599,"iá»ĩng":2600,"ĠphÃ³":2601,"Ġcháº©n":2602,"ĠmÃ¡t":2603,"ĠLiÃªn":2604,"Ġthuáº§n":2605,"ĠÃĿ":2606,"ĠÄĳÃłi":2607,"Ġtruyá»ĩn":2608,"Ġhuyáº¿t":2609,"ĠrÄĥng":2610,"ĠxÆ°a":2611,"ĠTV":2612,"ĠTáº¥t":2613,"ĠDo":2614,"ĠNhÃł":2615,"ti":2616,"ĠxÃ¢m":2617,"ĠÄĳÄ©a":2618,"ĠrÆ°á»¡i":2619,"Ġchá»«ng":2620,"Ã½t":2621,"Ġáº¥m":2622,"ĠnÆ¡":2623,"Ġtrá»Ļn":2624,"ĠgÆ°Æ¡ng":2625,"Ġhiáº¿n":2626,"Ġro":2627,"Ã¹i":2628,"ĠChi":2629,"rael":2630,"Cháº³ng":2631,"Ġtáº·ng":2632,"Ġráº¯c":2633,"Ġnhá»ī":2634,"Ġnháº¥n":2635,"enn":2636,"Ġ500":2637,"ĠnÃ©m":2638,"Ġi":2639,"ĠdÃŃnh":2640,"iáº¿c":2641,"gh":2642,"ĠngÃłi":2643,"Ġthan":2644,"Ġxáº¡":2645,"ain":2646,"Ġcá»ĳt":2647,"ĠkhÃ³c":2648,"ico":2649,"ock":2650,"įt":2651,"Ġcáº©n":2652,"ĠrÃło":2653,"Ã¨m":2654,"aceb":2655,"Ġláº»":2656,"Ġngu":2657,"ĠquÃª":2658,"ama":2659,"acebook":2660,"Ġmiá»ĩng":2661,"amb":2662,"Ġtuá»³":2663,"Ġháº¹n":2664,"ĠIsrael":2665,"Háº§u":2666,"Kho":2667,"ĠÄĳá»Ľn":2668,"ĠSc":2669,"ĠPháº":2670,"ada":2671,"Ph":2672,"co":2673,"Ġtáº¡m":2674,"Ġbáº¯c":2675,"Ã¡y":2676,"Ġtháº©m":2677,"ina":2678,"Ġ24":2679,"ara":2680,"ĠgÃł":2681,"Ġtuá»ĩ":2682,"CáºŃu":2683,"ĠmiÃªu":2684,"Ġsa":2685,"Ġchai":2686,"Ġhá»ĳ":2687,"ĠquÃ¡n":2688,"ĠÄĳÃ³n":2689,"ĠBá»Ļ":2690,"Ġháº¡ng":2691,"Ġmáº©u":2692,"Ġngáº§m":2693,"Ġlá»ıng":2694,"ĠnhÃ¡":2695,"Ġphá»ķi":2696,"Ġcá»ĳc":2697,"Ġnháº¡y":2698,"ID":2699,"³i":2700,"ĠtÃ²":2701,"ĠÄĳáºŃu":2702,"Ġthá»£":2703,"ĠÄĳÃ¡y":2704,"áº©m":2705,"ĠvuÃ´ng":2706,"ĠÆ¡i":2707,"Ġblog":2708,"ann":2709,"ĠTo":2710,"HÃ´m":2711,"lin":2712,"ĠtÃ¢y":2713,"Ġly":2714,"Ġbáº¡ch":2715,"ĠtrÃ´i":2716,"Ġhiá»ĩp":2717,"Ġrá»ĵ":2718,"Ã£ng":2719,"ĠquÃ¡i":2720,"Ġhoáº¡i":2721,"Ġthoáº£ng":2722,"ĠFacebook":2723,"tein":2724,"ĠcÆ°á»Ŀng":2725,"ĠlÃ£o":2726,"ĠkiÃªn":2727,"Ġpin":2728,"ĠBra":2729,"ĠSan":2730,"ley":2731,"Ġgame":2732,"Báº±ng":2733,"st":2734,"há»ĩ":2735,"Ġtráº¯c":2736,"Ġhá»©a":2737,"iforn":2738,"Ġleo":2739,"Ġngá»±a":2740,"ĠdÃłn":2741,"ĠgiÆ°á»Ŀng":2742,"Pháº§n":2743,"ĠCaliforn":2744,"Sáº½":2745,"ĠtÃ³m":2746,"ĠlÃ¢y":2747,"ĠCháº":2748,"Ġháº±ng":2749,"ĠMÄ©":2750,"ĠCalifornia":2751,"ek":2752,"ĠÄĳáº£ng":2753,"ĠnÆ°á»Ľng":2754,"ĠhÆ°":2755,"ĠgiÃły":2756,"Ġcháº¥n":2757,"ĠnÃ©t":2758,"ĠlÆ°ng":2759,"Ġtráº¡m":2760,"ĠngÃ£":2761,"ĠchÄĥng":2762,"ĠquÃ©t":2763,"ĠxÃŃ":2764,"ĠÄĳeo":2765,"ĠTw":2766,"ĠBa":2767,"und":2768,"Cá»":2769,"ma":2770,"ĠtÄ©nh":2771,"ĠrÃ´":2772,"Ġnho":2773,"ĠCá»±c":2774,"Ġ197":2775,"Ġmáº»":2776,"Ã¬a":2777,"alk":2778,"og":2779,"Ġtuyáº¿t":2780,"ĠtÃ¡m":2781,"Ġtiáº¿c":2782,"ĠmÃ£n":2783,"ce":2784,"nÃ³":2785,"Ġvinh":2786,"Ġváº¯c":2787,"ĠtrÄĥng":2788,"áº«y":2789,"ĠGeo":2790,"ĠDNA":2791,"ĠÄĳáº¿m":2792,"pp":2793,"³c":2794,"á»ĩ":2795,"Ġninh":2796,"ĠmÃ¨o":2797,"ĠdÃ£":2798,"ass":2799,"Ġgá»¡":2800,"exico":2801,"Ġbá»¥ng":2802,"«n":2803,"ĠÃ©p":2804,"Ġcong":2805,"ĠkÃ¨m":2806,"ĠdÃ²":2807,"ĠdÃ¡n":2808,"Ġhá»ıng":2809,"ĠquÃł":2810,"ĠMc":2811,"Ġ300":2812,"ate":2813,"ith":2814,"ber":2815,"ĠlÄĥn":2816,"ĠCá»":2817,"ĠCol":2818,"Ġemail":2819,"TháºŃm":2820,"anda":2821,"áº«m":2822,"ĠIra":2823,"ĠgÃ³i":2824,"ThÃ":2825,"oáº¡i":2826,"ron":2827,"Ġtuy":2828,"Ġtiá»ĩc":2829,"ĠlÃ´i":2830,"Ġtrá»ĳn":2831,"Ġtá»ĭ":2832,"ĠkhuyÃªn":2833,"Ġmá»Ŀ":2834,"Ngh":2835,"ĠThe":2836,"ĠChar":2837,"Ġim":2838,"Ġtung":2839,"ĠlÃ¢m":2840,"Ġtráº§n":2841,"Ġgiáº¥u":2842,"Ġdá»©t":2843,"Ġkhoan":2844,"uá»¹":2845,"ite":2846,"ĠchÃ¬m":2847,"oÃłi":2848,"ĠbuÃ´n":2849,"ĠgiÆ¡":2850,"ĠthÃ³i":2851,"ÄĲÃ£":2852,"ĠRob":2853,"ĠÃļ":2854,"IDS":2855,"ĠgÃ£":2856,"ĠgÃµ":2857,"Ġcá»±":2858,"Ġlá»ģ":2859,"Ġlá»ĩnh":2860,"ĠMexico":2861,"Ġ2000":2862,"Ġphiá»ģn":2863,"Ġcá»¥m":2864,"zil":2865,"Ġand":2866,"Ġlu":2867,"Ġngon":2868,"Ġheo":2869,"Ġkhao":2870,"ath":2871,"ĠlÃ£m":2872,"ĠkÃªnh":2873,"ĠCanada":2874,"Cuá»Ļc":2875,"ĠÆ°":2876,"Ġláº·n":2877,"ĠbÃ£o":2878,"ĠsÃłn":2879,"Ġngá»įt":2880,"ĠdÆ°":2881,"ĠÄĳá»±c":2882,"ĠNhÃ":2883,"sh":2884,"Ã¡p":2885,"ĠBá»":2886,"ĠÃļc":2887,"DP":2888,"dam":2889,"ky":2890,"ĠDavid":2891,"ĠNga":2892,"NhÃ¬n":2893,"ford":2894,"ler":2895,"Ġcáº¥t":2896,"Ġdao":2897,"ĠthÄĥng":2898,"ĠgiÃ¡n":2899,"Ġmá»ĩnh":2900,"ind":2901,"ĠBer":2902,"ĠHy":2903,"ĠPh":2904,"Ġvirus":2905,"ĠKenya":2906,"á»ĥ":2907,"Ġlang":2908,"á»Ļm":2909,"ĠlÃłn":2910,"Ġhang":2911,"ĠhÃłm":2912,"ĠquÃŃ":2913,"ĠMich":2914,"ĠLiá»ĩu":2915,"Ġthuáº¿":2916,"Giá»ĳng":2917,"ram":2918,"Ġcar":2919,"ĠbáºŃn":2920,"Ġbáº¿p":2921,"ĠtrÆ°a":2922,"Ġthá»ķi":2923,"ĠdÃ¡ng":2924,"quang":2925,"Æ°á»£n":2926,"ĠAIDS":2927,"Ġbá»¥i":2928,"ĠcÃºm":2929,"ondon":2930,"Láº§n":2931,"ĠtÆ°Æ¡i":2932,"Ġcáº¥m":2933,"Ġva":2934,"ĠbÃ¹ng":2935,"Ġxinh":2936,"ÄĲÃ´i":2937,"Ġsá»¯a":2938,"ĠRáºŃp":2939,"ĠChá»ī":2940,"ĠBrazil":2941,"mÃł":2942,"tin":2943,"ĠtÃ¢n":2944,"Ġtáº¯m":2945,"ĠlÃµi":2946,"ĠphÃ¬":2947,"aul":2948,"Ġcamera":2949,"ĠdÆ°á»£c":2950,"Ġtháº»":2951,"ĠLondon":2952,"30":2953,"má»Ļt":2954,"oy":2955,"ĠcÆ°á»Ľi":2956,"Ġnáº£y":2957,"Ġliá»ģu":2958,"ĠlÆ°á»Ŀng":2959,"Ġbu":2960,"Ġsan":2961,"Ġngáº¯m":2962,"ĠrÃ©t":2963,"Ġá»ŀ":2964,"ĠquÃ¡t":2965,"ric":2966,"ĠTa":2967,"Ġháº£i":2968,"hing":2969,"ĠÄĲiá»ĥn":2970,"Ġkhá»ī":2971,"ĠPal":2972,"ĠtuÃ½":2973,"ling":2974,"Ġoxy":2975,"Ġsay":2976,"ĠsÆ¡n":2977,"ĠsÆ°u":2978,"Ġtá»§":2979,"ĠxÃ³m":2980,"ĠMon":2981,"ĠMá»įi":2982,"ĠHá»Ļi":2983,"ĠSp":2984,"ĠLe":2985,"Ġthá»ĭnh":2986,"itter":2987,"Ġ196":2988,"Ġháº§m":2989,"ĠÆ°a":2990,"ĠlÆ°á»Ľt":2991,"Ġmuá»Ĺi":2992,"Ã³i":2993,"ĠtrÆ°á»£t":2994,"ĠngáºŃp":2995,"Ġnháº¯m":2996,"ĠMo":2997,"ĠthÃ¡p":2998,"ĠchÃºa":2999,"Cháº¯c":3000,"ĠâĢĵ":3001,"Cáº£":3002,"iz":3003,"©o":3004,"Ġngá»ĳc":3005,"ĠrÃ£i":3006,"ĠthÃ¹ng":3007,"VÃłi":3008,"ĠBl":3009,"Ġ400":3010,"ĠÄĲá»«ng":3011,"ĠkhÃ´n":3012,"báº¡n":3013,"ren":3014,"Ġná»Ł":3015,"Ġgiam":3016,"Ġnháº«n":3017,"ĠCO":3018,"ĠkÃŃn":3019,"ĠIraq":3020,"Ġnan":3021,"ĠdÃ¡m":3022,"Ġquá»":3023,"ĠquÃ£ng":3024,"ĠchÃ¢m":3025,"Ġtrá»¥c":3026,"ĠBan":3027,"Ġpha":3028,"ĠKinh":3029,"ĠthÃ¡m":3030,"Ġthua":3031,"Ġfeet":3032,"20":3033,"ĠtÆ°á»Ľng":3034,"Ġná»ĳt":3035,"Ġthá»īnh":3036,"ĠphÃº":3037,"ĠnÃłng":3038,"ana":3039,"ĠthÃŃnh":3040,"Ġbá»ĳt":3041,"Pháº£i":3042,"LÃ½":3043,"ham":3044,"Ġnáº¯ng":3045,"Ġdáº¯t":3046,"Ġthiá»ĩt":3047,"ĠTháº":3048,"ÄĲáº¿n":3049,"ĠNig":3050,"ĠBill":3051,"ĠRos":3052,"Ġpháº¡t":3053,"Ġná»į":3054,"Ġbong":3055,"Ġsung":3056,"Ġrau":3057,"Æ°á»Ľp":3058,"ĠBar":3059,"Ġkhá»Ľp":3060,"ÄĲá»«ng":3061,"Ġ150":3062,"ĠTá»ķ":3063,"Gáº§n":3064,"SA":3065,"ĠcáºŃy":3066,"Ġcuá»Ļn":3067,"ĠdÃ£y":3068,"ĠTim":3069,"ĠphÃ¡i":3070,"Ġtoáº£":3071,"ĠthÃ¡o":3072,"ĠTwitter":3073,"Máº·c":3074,"by":3075,"ne":3076,"Ġtuyá»ĥn":3077,"ĠlÃ´ng":3078,"ĠbÆ¡":3079,"ĠPar":3080,"ĠGDP":3081,"ĠJo":3082,"lip":3083,"To":3084,"Ķi":3085,"ngel":3086,"ĠcÆ°á»¡ng":3087,"ĠlÃ²":3088,"Ġmáº¡n":3089,"ĠtrÃł":3090,"Ġgáº¥u":3091,"Ġvá»Ł":3092,"Ġkhuy":3093,"ĠnhÃ£n":3094,"áº»o":3095,"ĠBÃ¢y":3096,"ĠWas":3097,"ĠChris":3098,"DÄ©":3099,"Em":3100,"ĠÄĳuÃ´i":3101,"Ġsli":3102,"Ġtráº¥n":3103,"Ġnhá»Ł":3104,"ĠkhÆ¡i":3105,"Ġbá»Ľt":3106,"ony":3107,"Ġmá»ĩt":3108,"ĠSau":3109,"ĠKho":3110,"KhÃ¡n":3111,"ver":3112,"Ġmuá»Ļn":3113,"áº¿ch":3114,"ĠchÆ°á»Ľc":3115,"Ġsá»©":3116,"Ã©o":3117,"ĠTrá»Ŀi":3118,"Ġthuáº«n":3119,"olf":3120,"ĠchÃ¬a":3121,"Ġti":3122,"ĠÄĳÃ¢m":3123,"Ġchá»Ł":3124,"ĠMáº¹":3125,"ĠBos":3126,"ĠSao":3127,"ĠDÆ°Æ¡ng":3128,"ĠThiÃªn":3129,"ood":3130,"instein":3131,"CÃ¹ng":3132,"Tiáº¿p":3133,"Ġe":3134,"ĠlÃ¡t":3135,"Ġbá»į":3136,"Ġchá»¥c":3137,"ani":3138,"Ġhoáº£":3139,"ĠCáºŃp":3140,"ĠÄĳiÃªu":3141,"Ġhá»ĩt":3142,"Ġláº¡m":3143,"HoÃ¡":3144,"Ġá»ĵn":3145,"ĠGeor":3146,"Ġslide":3147,"Báº¥t":3148,"Káº¿t":3149,"der":3150,"Ġj":3151,"Ġváº£i":3152,"ĠlÃ¹i":3153,"Ġngá»±c":3154,"ĠthÆ°a":3155,"Ġranh":3156,"Ġná»£":3157,"Ġlog":3158,"ĠGre":3159,"ĠhÃ²n":3160,"hington":3161,"ael":3162,"vÃ¬":3163,"á»Ĵ":3164,"ĠnÃ´":3165,"ĠgÃ¡nh":3166,"Ġnháº·":3167,"Ġmá»¹":3168,"ĠBang":3169,"ĠAb":3170,"ĠEd":3171,"ĠthÃ´n":3172,"Khoáº£ng":3173,"Ġcac":3174,"Ġváº¹":3175,"Ġvua":3176,"ĠmÃºa":3177,"ĠbÃºt":3178,"Ġrung":3179,"Ġpháº³ng":3180,"Ġmá»ıi":3181,"Ġká»ĭp":3182,"ĠBe":3183,"ĠÄĳá»ĵi":3184,"urg":3185,"ĠYou":3186,"ĠHoáº£":3187,"ĠGiÃ¡o":3188,"xi":3189,"§m":3190,"Æ°Æ¡n":3191,"ĠkhÃºc":3192,"ĠÄĳá»Ľi":3193,"Ġsá»ĳc":3194,"ĠMI":3195,"ĠViá»ĩn":3196,"hom":3197,"ĠNha":3198,"ĠWashington":3199,"ug":3200,"za":3201,"Ġmáº¥u":3202,"ĠHÃł":3203,"ĠSm":3204,"ort":3205,"ĠChÃŃnh":3206,"ĠThá»±c":3207,"Ġcarbon":3208,"HÆ¡n":3209,"ka":3210,"Ġnhiáº¿p":3211,"Ġcá»Łi":3212,"áºŃm":3213,"ĠNÃły":3214,"ett":3215,"Ġrá»ħ":3216,"ĠJam":3217,"Chuyá»ĩn":3218,"ike":3219,"ĠkhÃ´i":3220,"site":3221,"ĠbÃª":3222,"ĠhÆ°u":3223,"Ġduyá»ĩt":3224,"á»ĳm":3225,"ĠthÃ¢m":3226,"Ġnghiá»ĩn":3227,"ĠMá»":3228,"ĠBen":3229,"are":3230,"ĠLos":3231,"ola":3232,"ander":3233,"Ġnháº·t":3234,"Máº¹":3235,"Ġcuá»ĵng":3236,"ĠrÃ¡p":3237,"Ġcá»ĳi":3238,"Ġtha":3239,"Ġmá»ĵ":3240,"ĠCho":3241,"ĠMáº·t":3242,"Ġnghá»ĭch":3243,"Ġngoan":3244,"Ġhá»ĵng":3245,"ĠTEDx":3246,"Ġinternet":3247,"Ġwebsite":3248,"Ġháº¹p":3249,"ĠFranc":3250,"ĠhÃ£ng":3251,"ĠNigeria":3252,"cÃ³":3253,"ĠmÃ¢u":3254,"Ġkhiáº¿m":3255,"Ġkháº³ng":3256,"ĠTrÆ°á»Ŀng":3257,"CÆ¡":3258,"Ná»":3259,"Ġa":3260,"Ġco":3261,"ĠvÃ¢y":3262,"ĠláºŃt":3263,"ĠlÆ°á»¡ng":3264,"Ġsáº¯t":3265,"inc":3266,"ĠCuá»Ļc":3267,"ĠÄĳá»ĭch":3268,"ĠkhÃ³i":3269,"lex":3270,"ĠThá»ķ":3271,"Bá»©c":3272,"ier":3273,"Ġgan":3274,"Ġráº¯n":3275,"ĠBro":3276,"ĠÄĳÃ¡o":3277,"ĠLa":3278,"ĠLá»":3279,"Ġ35":3280,"illi":3281,"ĠWik":3282,"ĠphÃŃm":3283,"tress":3284,"ube":3285,"ĠVá»Ľi":3286,"Ġcacbon":3287,"ĠMIT":3288,"lan":3289,"ĠÄĳÃłm":3290,"ĠvÆ°Æ¡n":3291,"ĠtrÃ¢n":3292,"ones":3293,"Ġ1000":3294,"ĠBÃ¬nh":3295,"ĠPak":3296,"ĠLu":3297,"Ġrá»Ńa":3298,"Thá»Ŀi":3299,"Ġmáº£ng":3300,"Ġgá»ĳi":3301,"Ġkhuyáº¿t":3302,"ĠphÃ´":3303,"ĠchÃŃn":3304,"ast":3305,"Thá»Ń":3306,"Ġ2008":3307,"ÄĳÃ³":3308,"PS":3309,"ld":3310,"ros":3311,"§a":3312,"Ġtáº§n":3313,"ĠcÆ°á»Ľp":3314,"ĠÄĳáº»":3315,"Ġnon":3316,"Ġlong":3317,"ĠbÃ¹":3318,"Ġcá»«u":3319,"Ġmá»ĵi":3320,"ĠkhoÃ¡i":3321,"ĠBÃł":3322,"ĠHá»":3323,"ĠHÃłn":3324,"ĠHá»įc":3325,"ĠPhá»":3326,"ĠÄĳoan":3327,"ĠÄĲá»ĥ":3328,"ichard":3329,"Ok":3330,"Ġcáº¡n":3331,"Ġstress":3332,"Ġdáº¡o":3333,"ĠdÃ¢m":3334,"ĠmÃłng":3335,"ĠThÃ":3336,"ĠSch":3337,"Ġ45":3338,"ĠOK":3339,"ĠThÆ°á»£ng":3340,"edia":3341,"ĠGiá»Ŀ":3342,"homas":3343,"ĠPakistan":3344,"rist":3345,"ward":3346,"¥ng":3347,"ĠÄĳáº¡n":3348,"Ġmanh":3349,"Ġsáº¡n":3350,"Ġtreo":3351,"Ġdáº£i":3352,"Ġdáº»o":3353,"ĠNa":3354,"ica":3355,"olly":3356,"Ġváº¹n":3357,"ĠFrancis":3358,"Bao":3359,"een":3360,"ok":3361,"ve":3362,"ĠNhÆ°":3363,"ĠláºŃn":3364,"Ġbá»įc":3365,"Ġhack":3366,"Ġdá»įn":3367,"ĠthÃ©p":3368,"ĠMa":3369,"ĠNá»":3370,"ĠDar":3371,"Ġlá»ĩch":3372,"RÃµ":3373,"yn":3374,"Ġamp":3375,"Ġcáº¯m":3376,"ĠÄĳáº¡c":3377,"Ġkiá»ĩt":3378,"Ġlá»Ŀ":3379,"Ġlá»£n":3380,"ĠÄĳá»ģn":3381,"ĠHig":3382,"ĠquyÃªn":3383,"ĠAngel":3384,"ald":3385,"ice":3386,"ash":3387,"ĠStev":3388,"trong":3389,"ĠbÆ¡m":3390,"ck":3391,"up":3392,"ĩn":3393,"ĠtÃ´ng":3394,"Ġcáº¯p":3395,"ĠvÄ©nh":3396,"Ġbáº¯p":3397,"Ġde":3398,"Ġtháº¯c":3399,"apt":3400,"ĠNgÃłi":3401,"Ġkáº¹o":3402,"Ġkáº¹t":3403,"ĠbuÃ½t":3404,"Bá»Ļ":3405,"ox":3406,"pe":3407,"ĠvÃ©":3408,"á»Ļp":3409,"Ġhuyá»ģn":3410,"ĠnhÃłng":3411,"ĠchÄĥn":3412,"ĠkhiÃªu":3413,"ĠCr":3414,"ĠCÃ²n":3415,"ĠHiá»ĩp":3416,"ami":3417,"ĠRe":3418,"ĠEinstein":3419,"ĠtuÃ¢n":3420,"rid":3421,"Ġgene":3422,"Ġkhuynh":3423,"TÆ°Æ¡ng":3424,"com":3425,"lor":3426,"ound":3427,"win":3428,"ĠÄĳai":3429,"ĠlÅ©ng":3430,"Ġláº¥p":3431,"ĠmÆ°á»Ŀi":3432,"ĠmÃ²n":3433,"Ġbia":3434,"Ġga":3435,"Ġham":3436,"ĠráºŃp":3437,"Ġnháº§m":3438,"ĠCá»Ļng":3439,"ĠBáº£o":3440,"ĠHe":3441,"ĠGPS":3442,"ation":3443,"ĠÃĢ":3444,"ĠchÃºc":3445,"ĠTá»«":3446,"Ġ2010":3447,"Ġmic":3448,"Ġthá»ķ":3449,"ĠÄĳá»Ĺ":3450,"ĠgiÃ£n":3451,"ĠxÃ¡m":3452,"Ġná»ģ":3453,"ĠPhÃ":3454,"ester":3455,"ĠRáº¥t":3456,"ĠhÃ´i":3457,"acc":3458,"ĠOb":3459,"ĠThá»©":3460,"NhÃ¢n":3461,"ĠHaiti":3462,"ĠPháº£i":3463,"ft":3464,"Ġvay":3465,"Ġmá»įc":3466,"ĠtrÃº":3467,"Ġráº½":3468,"Ġchua":3469,"Ġtháº±ng":3470,"ĠCÃ¡m":3471,"ĠNe":3472,"Ġtá»±a":3473,"ela":3474,"ĠÃĶi":3475,"10":3476,"rÃºt":3477,"ÃĢ":3478,"ĭnh":3479,"ĠcÆ°Æ¡ng":3480,"ĠnÃªu":3481,"ĠlÆ°á»£t":3482,"Ġdá»Ł":3483,"Ġmá»ıng":3484,"ern":3485,"ĠPaul":3486,"org":3487,"ĠEl":3488,"ĠOk":3489,"Ġ75":3490,"ĠHarv":3491,"ĠCharles":3492,"Ġcá»±u":3493,"&#":3494,"Ba":3495,"RI":3496,"di":3497,"ĠnÃ¡t":3498,"ĠvÆ°á»£ng":3499,"Ġdá»ĳc":3500,"ĠÄĳá»£t":3501,"ĠkhÃ©o":3502,"Ġchá»£":3503,"Ġcháº£":3504,"ĠCÃ¡ch":3505,"Ġ23":3506,"ĠKh":3507,"ĠLáº¡p":3508,"Ġngá»«a":3509,"eph":3510,"dr":3511,"Ġnáº£n":3512,"ĠsÃ´i":3513,"ĠdÅ©ng":3514,"Ġvá»Ĺ":3515,"ĠNA":3516,"uá»³":3517,"ĠKhÃ¡":3518,"ity":3519,"ide":3520,"uck":3521,"Kh":3522,"Nhá»":3523,"ney":3524,"Ġvang":3525,"Ġst":3526,"ĠsÃºc":3527,"Ġqui":3528,"ĠxÃ´i":3529,"Ġrad":3530,"ĠhoÃłi":3531,"Ġmá»ī":3532,"ĠphÃ¡c":3533,"amin":3534,"end":3535,"ĠAt":3536,"ĠPr":3537,"ĠPet":3538,"ĠthoÃ¡i":3539,"Cá»©":3540,"Máº·t":3541,"Phá»":3542,"khÃ´ng":3543,"Ġhung":3544,"Ġdá»Ļi":3545,"ĠmÃły":3546,"ĠHáº£i":3547,"Ġháº¡ch":3548,"ĠDer":3549,"Å©i":3550,"ĠbÃ¡ch":3551,"ĠChiáº¿n":3552,"ĠFrank":3553,"ĠtráºŃt":3554,"ĠgÃ¡c":3555,"ott":3556,"Ġnghiá»ĩt":3557,"Ġbá»Ĺng":3558,"ĠTá»±":3559,"ĠTalk":3560,"Ġná»¥":3561,"ĠRá»ĵi":3562,"ates":3563,"old":3564,"Ġ194":3565,"ĠNghá»ĩ":3566,"Ġ2007":3567,"ago":3568,"Ġtháº§m":3569,"ĠnÃ©n":3570,"ĠiPh":3571,"ĠxÃŃu":3572,"ĠGeorge":3573,"bert":3574,"nhá»¯ng":3575,"Ġtiá»ħn":3576,"ĠÄĳáº½":3577,"ĠvÃµ":3578,"Ġmen":3579,"Ġmuá»ĳi":3580,"Ġbáº¥y":3581,"ĠxÄĥng":3582,"Ġtrá»«u":3583,"Ġvá»¥n":3584,"lie":3585,"Má»¥c":3586,"PM":3587,"PhÃ":3588,"ner":3589,"Ġvan":3590,"Ġmá»Ļng":3591,"ĠbÃ¬a":3592,"Ġtrá»Ļm":3593,"Ġngháº":3594,"ĠrÅ©":3595,"Ġhá»¥t":3596,"ĠxÃ©":3597,"Ġ22":3598,"ens":3599,"Ġpho":3600,"ish":3601,"Ġcá»ķng":3602,"low":3603,"HÃłng":3604,"Loáº¡i":3605,"TED":3606,"ean":3607,"lad":3608,"´n":3609,"Ġá»ĳc":3610,"ĠÄĳÃł":3611,"há»į":3612,"ĠlÆ¡":3613,"Ġláº¯c":3614,"ĠlÃºa":3615,"Ġtháº³m":3616,"Ġgiáº·t":3617,"ĠxÃŃch":3618,"ĠhÃ©t":3619,"ĠMal":3620,"ipedia":3621,"Ġruá»ĵi":3622,"ĠHarvard":3623,"ĠiPhone":3624,"Sá»ĳ":3625,"Tin":3626,"ĠmÆ°Æ¡i":3627,"ĠmÆ°á»£n":3628,"Ã¡u":3629,"ĠTom":3630,"Ã¹m":3631,"ĠhÃ³c":3632,"ĠCáºŃu":3633,"ĠMan":3634,"ĠNob":3635,"ĠtÃŃm":3636,"Ġquyáº¿n":3637,"ĠApp":3638,"ary":3639,"Trung":3640,"imer":3641,"Ġsoáº¡n":3642,"ĠJu":3643,"ĠNgh":3644,"ĠOh":3645,"ĠMichael":3646,"ĠAngeles":3647,"HÃ¬nh":3648,"Há»ĩ":3649,"TÃªn":3650,"ThÃ´ng":3651,"cel":3652,"toc":3653,"ue":3654,"Ġal":3655,"Ġá»ĳm":3656,"ĠbÆ°á»Ľ":3657,"Ġbáº©n":3658,"ĠtrÃ¡ng":3659,"ĠgÅ©i":3660,"Ġthe":3661,"ĠxÆ°á»Łng":3662,"ĠxÆ°á»Ľng":3663,"Ġchá»£t":3664,"ĠThomas":3665,"ĠÄĳá»Ļn":3666,"ĠCam":3667,"ĠTrans":3668,"atch":3669,"hÃ¡u":3670,"ĠOr":3671,"Ġ99":3672,"Ġ2009":3673,"ĠInd":3674,"umb":3675,"Ġof":3676,"ĠThÃ¡nh":3677,"ĠObama":3678,"BÃªn":3679,"Ká»ĥ":3680,"fi":3681,"Ġáº¿ch":3682,"á»©c":3683,"ĠvÃ¡n":3684,"ĠlÃ¢n":3685,"Ġngáº«m":3686,"áº±n":3687,"ÃŃt":3688,"Ġdá»Ĺ":3689,"Ġcháº½":3690,"ink":3691,"Ġ---":3692,"ĠkhoÃ¡ng":3693,"ĠNháº":3694,"ĠBig":3695,"ĠSah":3696,"ĠLib":3697,"ĠDi":3698,"ĠbÃ¡m":3699,"ĠRom":3700,"ĠRichard":3701,"ĠJos":3702,"ĠNgÃ¢n":3703,"rip":3704,"ĠÃ´m":3705,"thal":3706,"ivi":3707,"BÃłi":3708,"cÃ´":3709,"náº¿u":3710,"ĠcÆ°á»£c":3711,"Ġmáº¿n":3712,"ĠtrÃ¡n":3713,"ĠÄĳá»ĩ":3714,"ĠnhÆ°á»Ŀng":3715,"Ġcá»ĳng":3716,"Ġquáº·c":3717,"Ġtháº¥m":3718,"ĠnhÃło":3719,"ĠAdam":3720,"ĠFre":3721,"QuÃ¡":3722,"ĠRobert":3723,"ĠSmith":3724,"ĠWikipedia":3725,"May":3726,"Sao":3727,"eah":3728,"ĠlÃ¡nh":3729,"Ġbáº¥m":3730,"ĠsÃ´":3731,"Ġsáº¯m":3732,"ÄĲiá»ĥm":3733,"ĠgÃ¬n":3734,"Ġná»ĵng":3735,"oran":3736,"Ġnháº¡t":3737,"iss":3738,"Ġrá»Ĺng":3739,"icon":3740,"attan":3741,"berg":3742,"Ġlá»ģu":3743,"ĠFrancisco":3744,"Ġhacker":3745,"Ġradio":3746,"ĠNobel":3747,"PA":3748,"mp":3749,"uk":3750,"ĳc":3751,"Ġluá»¹":3752,"Ġsho":3753,"Ġgáº¡ch":3754,"Ġhiáº¿p":3755,"Ġthung":3756,"ota":3757,"ĠchÃ´n":3758,"ĠsÃ¡o":3759,"ali":3760,"ĠNgÃły":3761,"ĠmÃ£nh":3762,"Ġxá»ī":3763,"ĠChá»§":3764,"Ġruá»Ļt":3765,"ĠParis":3766,"ĠKhoa":3767,"ĠNASA":3768,"tocin":3769,"Bá»ĳ":3770,"dro":3771,"ix":3772,"van":3773,"ĠcÃłi":3774,"Ġváº¡ch":3775,"ĠlÃ¹ng":3776,"Ġrun":3777,"Ġnhá»ĩn":3778,"Ġlá»ĵng":3779,"Ġmá»ķ":3780,"Ġ27":3781,"Ġphun":3782,"ĠLÃł":3783,"ĠGab":3784,"Ġ36":3785,"ush":3786,"ĠHoÃł":3787,"azon":3788,"Ġlogic":3789,"ĠDarwin":3790,"..":3791,"len":3792,"ĠrÃ£":3793,"ĠthÆ°á»£ng":3794,"ĠxÄĥm":3795,"Ġgiá»įt":3796,"ĠTor":3797,"Ġlá»¡":3798,"Ġcháº±m":3799,"ĠAlex":3800,"ĠGr":3801,"ĠxuÃ¢n":3802,"ĠDan":3803,"ĠWeb":3804,"ace":3805,"Ġ2005":3806,"Chiáº¿c":3807,"ĠNhÄ©":3808,"Quan":3809,"udio":3810,"aptop":3811,"ĠSahara":3812,"Nháº":3813,"bur":3814,"eh":3815,"tor":3816,"ĠlÄĥng":3817,"ĠsÃ©t":3818,"Ġtriá»ĩt":3819,"Ġvá»Ŀ":3820,"Ġchá»Ľp":3821,"ĠTal":3822,"anhattan":3823,"air":3824,"ĠCop":3825,"ĠMÃ¬nh":3826,"hia":3827,"ĠNÄĥm":3828,"ĠDÃ¢n":3829,"eth":3830,"Ġchá»įc":3831,"raham":3832,"rop":3833,"Ġinch":3834,"age":3835,"Ġhuynh":3836,"ĠhÃ£m":3837,"crip":3838,"me":3839,"tÃ´":3840,"xin":3841,"yr":3842,"Ġoh":3843,"ĠtÃª":3844,"Ġtivi":3845,"ĠvÃ²i":3846,"ĠlÃ©o":3847,"ĠmÃ³ng":3848,"ĠbÃ³c":3849,"Ġcá»į":3850,"ĠCÆ¡":3851,"ĠManhattan":3852,"ĠLeg":3853,"ĠGu":3854,"ĠkÃ¬a":3855,"azz":3856,"heimer":3857,"ToÃłn":3858,"ĠSteve":3859,"ĠDerek":3860,"cript":3861,"An":3862,"ja":3863,"line":3864,"our":3865,"ss":3866,"wood":3867,"zheimer":3868,"ĠÃ¡i":3869,"Ġáº©m":3870,"ĠÄĳc":3871,"ĠvÃ²":3872,"Ġquáº¡":3873,"ĠTiáº¿n":3874,"ĠCl":3875,"ĠMad":3876,"erry":3877,"Ġtá»±u":3878,"ĠSÄ©":3879,"Ġvá»ĭnh":3880,"ilicon":3881,"Cha":3882,"ĠAlzheimer":3883,"Ġoxytocin":3884,"ĠGreen":3885,"Báº£n":3886,"ca":3887,"cago":3888,"gs":3889,"Ġtuá»·":3890,"Ġli":3891,"ĠlÆ°á»¡i":3892,"Ġkm":3893,"Ġvá»©t":3894,"ĠTiáº¿ng":3895,"ĠkhiÃªm":3896,"ĠchÃ¹":3897,"Ġmá»³":3898,"ĠCÃ¢u":3899,"Ġ26":3900,"iá»ħu":3901,"ala":3902,"ĠRw":3903,"ĠII":3904,"ĠVen":3905,"ĠQuá»¹":3906,"ĠchuÃ´ng":3907,"ĠWor":3908,"uss":3909,"ThÃłnh":3910,"ĠCarol":3911,"ĠAmazon":3912,"ĠJames":3913,"Láº¥y":3914,"SD":3915,"ThÃ¡":3916,"per":3917,"ts":3918,"Ġnáº¿p":3919,"Ġluá»ĵng":3920,"Ġlaptop":3921,"Ġbá»ĳc":3922,"Ġngáº©n":3923,"ĠgáºŃy":3924,"ĠÄĳÃ³m":3925,"ĠxÃł":3926,"ĠhoÃłnh":3927,"ĠHaw":3928,"ĠSe":3929,"ĠSub":3930,"ĠPark":3931,"oster":3932,"Ġnhiá»ħu":3933,"oca":3934,"ĠChicago":3935,"Ġlui":3936,"ĠTá»ķng":3937,"ĠBoston":3938,"ĠvÃµng":3939,"ez":3940,"mm":3941,"tit":3942,"Ġáº¥u":3943,"Ġ000":3944,"ĠÄĳÃºc":3945,"ĠÄĳuá»ĳi":3946,"ĠkiÃªng":3947,"ĠngÆ°ng":3948,"Ġron":3949,"Ġtháº¯t":3950,"Ġbá»ĵi":3951,"Ġdá»ĭp":3952,"ĠnhÃ³c":3953,"ĠMe":3954,"ĠkhoÄĥn":3955,"ĠHay":3956,"ĠSam":3957,"ĠÄĳoáº¡t":3958,"ĠWal":3959,"ĠEn":3960,"Thiáº¿t":3961,"ĠThá»Ŀi":3962,"Ġtuá»µ":3963,"ĠMark":3964,"ĠMartin":3965,"Ġ1990":3966,"ĠRwanda":3967,"Dá»":3968,"TÆ°á»Łng":3969,"dy":3970,"Ġcent":3971,"ĠÄĳáºŃm":3972,"Ġvacc":3973,"Ġsá»į":3974,"Ġmá»¡":3975,"inson":3976,"Æ°á»Łi":3977,"ĠLat":3978,"Ġngá»Ľ":3979,"ĠÄĳÃ´la":3980,"rian":3981,"ĠStan":3982,"Ġ250":3983,"Ġnano":3984,"ridge":3985,"£m":3986,"Ńng":3987,"Ġcu":3988,"Ġlam":3989,"Ġngá»Ļt":3990,"ĠgÃ£y":3991,"Ġgolf":3992,"Ġnhá»§":3993,"oth":3994,"Ġbá»ĥ":3995,"ĠhoÃ£n":3996,"ĠhÃŃt":3997,"imb":3998,"Nghá»ĩ":3999,"NgoÃłi":4000,"athan":4001,"Ġrá»ī":4002,"Ġ600":4003,"ĠháºŃn":4004,"Ġhydro":4005,"ĠNhÃ¢n":4006,"ĠMont":4007,"Ġquá»·":4008,"illiam":4009,"Al":4010,"lick":4011,"thá»":4012,"Ġtiá»ĩm":4013,"Ġcanh":4014,"ĠÄĳiá»ģn":4015,"Ġváº£":4016,"ĠbÄĥn":4017,"Ġgom":4018,"ĠnÃłn":4019,"ĠgiáºŃt":4020,"Ġhoan":4021,"ĠCo":4022,"ĠÄĲáº£ng":4023,"ĠAc":4024,"ĠSinh":4025,"ĠGates":4026,"ĠDel":4027,"Nghe":4028,"ure":4029,"ĠghÃª":4030,"ĠUy":4031,"ÄĳÃ¢y":4032,"Ġxá»©":4033,"Ġhá»ķng":4034,"ĠiP":4035,"ĠTimes":4036,"ĠBrow":4037,"ĠApple":4038,"ĠTranscript":4039,"ĠSubtit":4040,"ĠSubtitles":4041,"NÆ¡i":4042,"TÃ¬nh":4043,"mer":4044,"ny":4045,"oft":4046,"to":4047,"vá»":4048,"½n":4049,"Ġon":4050,"Ġvá»Ļi":4051,"Ġlau":4052,"Ġbáº§y":4053,"Ġdáº¡i":4054,"Ġchuyá»ģn":4055,"ĠthiÃªng":4056,"emen":4057,"ĠSw":4058,"ĠKoran":4059,"ĠGal":4060,"ĠTriá»ģu":4061,"ĠDá»±":4062,"ĠViá»ĩt":4063,"ĠJon":4064,"ĠOx":4065,"iano":4066,"ĠnhÃ¡nh":4067,"Phá»¥":4068,"Ġngháº½n":4069,"Báº¯t":4070,"lar":4071,"na":4072,"Æ¯":4073,"ĠÆ°Æ¡ng":4074,"Ġváº¥t":4075,"Ġmáº§m":4076,"Ġbáº©m":4077,"ĠtrÃºng":4078,"ĠÄĳá»¥ng":4079,"Ġgien":4080,"Ġdá»ĩt":4081,"ĠCoca":4082,"ĠgiÃ¡p":4083,"ust":4084,"ĠChrist":4085,"Ġ2004":4086,"Ġ2006":4087,"ida":4088,"QuÃ½":4089,"Bá»ĩnh":4090,"Ġmicro":4091,"Lá»":4092,"Mar":4093,"ster":4094,"ÃĤ":4095,"Ġor":4096,"Ńi":4097,"Ġlá»į":4098,"Ġbáº»":4099,"ĠsÃºp":4100,"ĠsÆ°á»Ľng":4101,"ĠchÃły":4102,"Ġbá»ĵ":4103,"ĠTas":4104,"ini":4105,"ĠCE":4106,"ĠBáº±ng":4107,"ĠAd":4108,"ĠTrÆ°á»Ľc":4109,"ale":4110,"ĠJack":4111,"ĠFlor":4112,"Ġ95":4113,"ĠÄĳá»ĳm":4114,"iban":4115,"ĠCháº³ng":4116,"Cáº§n":4117,"OK":4118,"TÃ¡c":4119,"chá»":4120,"car":4121,"uel":4122,"Ġuy":4123,"ĠÃło":4124,"ĠtÃ¹ng":4125,"Ġváº·t":4126,"Ġlá»Ļt":4127,"Ġráº¡p":4128,"ĠdáºŃp":4129,"Ġnhá»ĭ":4130,"Ġtá»ĭch":4131,"Ġque":4132,"ĠnÃ³n":4133,"ĠxÃ¡ch":4134,"Ġkhen":4135,"ĠTÆ°":4136,"ĠhÃ´ng":4137,"ĠMRI":4138,"ĠBur":4139,"Ġ28":4140,"enz":4141,"ĠKhá»":4142,"alia":4143,"esh":4144,"ĠphiÃªu":4145,"Ġphá»ĳt":4146,"ĠJe":4147,"ĠTheo":4148,"ĠNÃ³i":4149,"red":4150,"Ġxoáº¯n":4151,"ĠStar":4152,"Tá»ķ":4153,"GiÃ¡o":4154,"Ġ2011":4155,"Ġ1960":4156,"ĠHá»£p":4157,"ĠGabby":4158,"ĠvÃ²m":4159,"David":4160,"Qua":4161,"Tá»ĳt":4162,"Ġuá»ĳn":4163,"Ńp":4164,"ĠvÆ°Æ¡ng":4165,"Ġmá»ĳc":4166,"ĠhÃłn":4167,"Ġthá»ĳt":4168,"Ġrá»Ļn":4169,"ĠrÃ¬a":4170,"ongo":4171,"ĠTiÃªn":4172,"ÄĲáº¥y":4173,"ĠCamb":4174,"ĠMac":4175,"Ġká»ģ":4176,"ĠBab":4177,"enry":4178,"ĠAh":4179,"ĠKing":4180,"ĠLÃ½":4181,"Ġ32":4182,"ĠVan":4183,"ĠmÃ´t":4184,"ile":4185,"ĠWilliam":4186,"Ġ195":4187,"Ġ2003":4188,"hana":4189,"Ġ1970":4190,"NghÄ©a":4191,"ĠNhÃ¬n":4192,"ĠPalest":4193,"BÆ°á»Ľc":4194,"Dá»±":4195,"LoÃłi":4196,"go":4197,"khi":4198,"váºŃy":4199,"we":4200,"Ġclip":4201,"Ġbá»±c":4202,"Ġbiáº¿m":4203,"Ġkáº½":4204,"ĠtrÃ¹m":4205,"ĠkhÃ¹ng":4206,"ĠcÃ¡p":4207,"Ġtháº¯n":4208,"Ġcá»§ng":4209,"Ġkhan":4210,"Ġnháº¥p":4211,"Ġcáº£ng":4212,"ĠTuyá»ĩt":4213,"int":4214,"ĠnhÃłm":4215,"ĠMic":4216,"ĠNor":4217,"ĠSim":4218,"ĠKar":4219,"ĠLad":4220,"Ġá»§i":4221,"Ġngá»¥c":4222,"ĠGo":4223,"ĠGand":4224,"ĠDá»":4225,"ĠRio":4226,"ĠthoÃ¡ng":4227,"NguyÃªn":4228,"ĠWhi":4229,"ĠWat":4230,"Ġ65":4231,"omb":4232,"ĠChÃł":4233,"ĠChuyá»ĩn":4234,"ThÆ°á»Ŀng":4235,"igh":4236,"igami":4237,"ther":4238,"Ġ120":4239,"ĠchÃ³c":4240,"own":4241,"ĠtÃ´m":4242,"ĠZe":4243,"NghiÃªn":4244,"izza":4245,"Ġvaccine":4246,"Ġorigami":4247,"ChÃº":4248,"Tube":4249,"ger":4250,"Ġel":4251,"á»Ľ":4252,"ĠÄĳinh":4253,"ĠbÃºa":4254,"Ġkem":4255,"Ġpiano":4256,"ĠnhÃ£":4257,"ÄĲÆ¡n":4258,"ĠchÃŃp":4259,"ĠMy":4260,"Ġkhoai":4261,"Ġká»ĩ":4262,"ĠBÃłi":4263,"Ġtá»ĳng":4264,"ĠSu":4265,"Ġsá»Ńng":4266,"ĠphÆ¡i":4267,"ĠPháºŃt":4268,"Tráº»":4269,"ĠWar":4270,"ĠFord":4271,"ĠThÃłnh":4272,"ĠhÃ¡i":4273,"ĠUg":4274,"outh":4275,"Äĳá»ĥ":4276,"ThÃªm":4277,"Ġax":4278,"ĠÄĳá»ĩm":4279,"ĠTasman":4280,"ba":4281,"lu":4282,"ĠtÄĥm":4283,"ĠlÃª":4284,"ĠmÃ©p":4285,"Ġkáº¹p":4286,"Ġsc":4287,"ĠsÆ°á»Ŀn":4288,"Ġgai":4289,"ĠchÆ°á»Ľng":4290,"Ġtam":4291,"Ġxá»Ļn":4292,"ĠchoÃ¡ng":4293,"ania":4294,"ĠTes":4295,"Ġdá»ĵn":4296,"Ġmá»Ľ":4297,"ĠBu":4298,"ĠBush":4299,"Ġphe":4300,"Ġvá»ĭt":4301,"ĠGhana":4302,"ĠTrá»":4303,"Ġrá»¡":4304,"ĠWall":4305,"ĠYemen":4306,"Giá»įng":4307,"ĠghÃ©":4308,"ĠthÆ¡m":4309,"tron":4310,"ĠhuÃ½t":4311,"Ġdá»ĭu":4312,"ĠâĢĶ":4313,"ght":4314,"Ġstudio":4315,"mpic":4316,"yria":4317,"AR":4318,"Cola":4319,"Kháº":4320,"MÃ¡y":4321,"NÆ°á»Ľc":4322,"con":4323,"lob":4324,"ĭt":4325,"Ġtáº¡ng":4326,"Ġváº©n":4327,"Ġtriá»ģu":4328,"ĠtrÃ¨o":4329,"Ġgáº¡t":4330,"Ġdai":4331,"ĠÄĳá»¥c":4332,"Ġvá»Ľ":4333,"Ġthiá»ģn":4334,"á»ĳp":4335,"ĠÄĳÃ£i":4336,"ĠCA":4337,"ĠMay":4338,"ĠNÃªn":4339,"ĠNan":4340,"ĠBá»ĳ":4341,"ĠSyria":4342,"arah":4343,"Ġphiáº¿n":4344,"ĠKÃ¬":4345,"ĠKim":4346,"Ġtrá»įn":4347,"ĠÄĳom":4348,"ĠGen":4349,"ĠGia":4350,"Ġ3000":4351,"Trá»Ł":4352,"ĠViá»ĩc":4353,"Ġrá»Ĺi":4354,"ille":4355,"itz":4356,"ĠÄĲá»ı":4357,"lyn":4358,"ĠPháº§n":4359,"rosoft":4360,"ĠHiggs":4361,"Nhá»Ŀ":4362,"ĠbÆ°á»Ľm":4363,"ĠTaliban":4364,"ĠWorld":4365,"ĠOxford":4366,"ĠCambridge":4367,"ĠUganda":4368,"da":4369,"ªnh":4370,"ĠÃ¢u":4371,"Ġam":4372,"ĠtÃºng":4373,"Ġváº§n":4374,"ĠmÆ°u":4375,"ĠngÆ°":4376,"ĠhÆ°ng":4377,"ĠrÃ¢u":4378,"ĠrÃ¨n":4379,"Ġdáº¹p":4380,"Ġtang":4381,"Ġgieo":4382,"otle":4383,"ĠTá»ĳt":4384,"ĠnhÃ©t":4385,"ĠCongo":4386,"ĠNL":4387,"Ġkháº©n":4388,"ĠPer":4389,"ĠLED":4390,"Ġngá»¥":4391,"Ġngá»«":4392,"Ġ33":4393,"ati":4394,"Ġ1950":4395,"ÄĲá»©a":4396,"eda":4397,"Äĳiá»ģu":4398,"ĠAndr":4399,"ĠBrook":4400,"ect":4401,"ĠYouTube":4402,"ĠLego":4403,"500":4404,"kg":4405,"lÃł":4406,"ten":4407,"įn":4408,"Ġtáº©y":4409,"ĠÄĳÃ²n":4410,"Ġváº¡n":4411,"ĠbÃ³n":4412,"Ġbáº«y":4413,"Ġgh":4414,"ĠdÃª":4415,"ĠchiÃªm":4416,"ĠthÃ¨":4417,"ane":4418,"ÃŃn":4419,"ĠTuy":4420,"onald":4421,"ĠhÃ¢m":4422,"ÄĲÆ°á»Ŀng":4423,"ĠCy":4424,"Ġháº»":4425,"ĠMah":4426,"Ġtrá»ħ":4427,"Ġtrá»«ng":4428,"Ġdol":4429,"Ġngá»£i":4430,"etro":4431,"itch":4432,"ĠEric":4433,"ĠChÃło":4434,"ower":4435,"Giáº£":4436,"ĠPeter":4437,"ropy":4438,"á»Ľc":4439,"Tiáº¿ng":4440,"fe":4441,"oáº¡n":4442,"ze":4443,"¥i":4444,"´i":4445,"ĠÆ°á»Ľt":4446,"ĭa":4447,"ĠÄĳÃ¨":4448,"Ġbanh":4449,"Ġbá»Ļc":4450,"Ġbuá»ĵng":4451,"Ġpizza":4452,"Ġcá»ĵn":4453,"Ġvá»įt":4454,"áº¥ng":4455,"ĠcÃ³c":4456,"Ġxay":4457,"Ġbá»ĵn":4458,"Ġphá»ĵng":4459,"ĠMand":4460,"eop":4461,"Ġká»ģn":4462,"ĠNÃło":4463,"ere":4464,"ero":4465,"ĠHenry":4466,"ĠAs":4467,"ari":4468,"ĠPl":4469,"ĠLester":4470,"ora":4471,"Ġbá»ıng":4472,"ĠOly":4473,"ĠHoÃłng":4474,"right":4475,"unt":4476,"ChÆ°a":4477,"Ġnhuá»Ļm":4478,"Ġjazz":4479,"anderthal":4480,"ĠNeanderthal":4481,"Ġshow":4482,"Æ¯á»Ľc":4483,"BÃ¡c":4484,"MT":4485,"Ste":4486,"ef":4487,"mon":4488,"sau":4489,"thÃ":4490,"ven":4491,"Ġac":4492,"ĠnÃ¢u":4493,"Ġváº¯ng":4494,"ĠlÃ´":4495,"Ġser":4496,"ĠngÃ¢y":4497,"Ġrá»ĳt":4498,"Ġpound":4499,"ĠdÆ¡i":4500,"Ġnha":4501,"Ġchay":4502,"Ġnhá»Ļ":4503,"Ġpháº¿":4504,"ĠnghiÃªng":4505,"cho":4506,"ĠTex":4507,"ĠTony":4508,"ĠChÃ¡u":4509,"ĠphÃ¡o":4510,"ĠMÃł":4511,"ĠAp":4512,"ĠShi":4513,"ĠSing":4514,"Ġngá»Ńi":4515,"ĠTrÃªn":4516,"aser":4517,"Ġ2001":4518,"ĠÃ´tÃ´":4519,"thur":4520,"oph":4521,"ardo":4522,"ĠXÃ´":4523,"ake":4524,"ulin":4525,"ĠScot":4526,"ĠJoe":4527,"ĠPhÃ²ng":4528,"ĠStanford":4529,"ĠFlorida":4530,"ĠMicrosoft":4531,"ĠthÃ¨m":4532,"ĠTexas":4533,"12":4534,"BM":4535,"Ban":4536,"enh":4537,"hua":4538,"Ġáº¥p":4539,"Ġent":4540,"á»«":4541,"Ġnáº¡p":4542,"Ġnuá»ĳt":4543,"ĠbÆ°u":4544,"ĠkÃ¬m":4545,"ĠdÆ°a":4546,"Ġnhi":4547,"Æ°á»£m":4548,"Ġxáº£o":4549,"ant":4550,"ĠnhÃ´":4551,"emp":4552,"ĠBon":4553,"ĠHans":4554,"ĠPat":4555,"ĠLuáºŃt":4556,"ory":4557,"ĠbÃ¡t":4558,"NgÆ°á»£c":4559,"ĠVir":4560,"ata":4561,"Ġ....":4562,"ĠHoward":4563,"Ġ85":4564,"ĠUn":4565,"agen":4566,"ĠÃĤm":4567,"Ġtháº¡o":4568,"ĠxoÃ¡y":4569,"Ġbá»ķng":4570,"aniel":4571,"ĠAbraham":4572,"Ná»ģn":4573,"Ġonline":4574,"ÃĤm":4575,"Ġentropy":4576,"18":4577,"200":4578,"kins":4579,"oot":4580,"sulin":4581,"¡c":4582,"Ġuá»·":4583,"á»·":4584,"Ġtáº£o":4585,"Ġcá»Ļ":4586,"Ġcay":4587,"ĠÄĳáº¯m":4588,"Ġbáº¿n":4589,"Ġbáº©y":4590,"Ġkeo":4591,"ĠngÆ°Æ¡i":4592,"áº¿m":4593,"Ġrá»±c":4594,"ĠdÃ¢ng":4595,"ĠchiÃªn":4596,"Ġthen":4597,"Ã¬u":4598,"Ġtao":4599,"ĠquáºŃn":4600,"Ġxáº¿":4601,"Ġxen":4602,"Ġnghiá»ģn":4603,"chia":4604,"ĠTur":4605,"ÄĲa":4606,"ĠMÃ¡y":4607,"ĠNord":4608,"ĠÄĲÃ´i":4609,"Ġquad":4610,"ĠSáº½":4611,"ĠPan":4612,"ĠDe":4613,"ĠvirÃºt":4614,"ĠJer":4615,"ĠJim":4616,"ole":4617,"ĠWolf":4618,"ĠGiáº£i":4619,"GiÃ¡":4620,"ĠBron":4621,"ĠShak":4622,"ĠVá»ĭnh":4623,"Ġ1980":4624,"ĠYout":4625,"ollywood":4626,"ĠNá»¯":4627,"ĠchÃ¹m":4628,"ĠBrown":4629,"ĠOlympic":4630,"19":4631,"40":4632,"John":4633,"MÃłu":4634,"nes":4635,"se":4636,"ĠnÃŃn":4637,"Ġlay":4638,"Ġlá»Ļi":4639,"ĠsÃ¹ng":4640,"Ġgay":4641,"Ġdiá»ģu":4642,"Ġthiáº¿p":4643,"Ġthuá»³":4644,"Ġnhá»ĵi":4645,"Ġkhiáº¿u":4646,"ĠhÃ¢n":4647,"ÄĲá»Ļt":4648,"ÄĲá»ĵng":4649,"ĠMu":4650,"ĠBay":4651,"ĠBol":4652,"ĠÄĲáº¡o":4653,"ĠSouth":4654,"ĠviÃªm":4655,"ĠRock":4656,"Ġsoi":4657,"ĠVÆ°Æ¡ng":4658,"Ġ2050":4659,"rog":4660,"Chá»§":4661,"agh":4662,"ever":4663,"ĠPhÃ¡t":4664,"ĠGiá»Ľi":4665,"arket":4666,"ĠluÃ¢n":4667,"ĠBá»ĩnh":4668,"ĠBlack":4669,"ĠRosling":4670,"Ġdollar":4671,"Ġnhá»Ļn":4672,"ĠYoutube":4673,"CH":4674,"bá»Łi":4675,"den":4676,"rap":4677,"ĠÃ¢n":4678,"ĠláºŃu":4679,"Ġsáº¿p":4680,"Ġtrinh":4681,"Ġtrá»Ļi":4682,"Ġgá»Ļp":4683,"Ġtháº¯p":4684,"ĠxÃ´":4685,"ĠxÃ¡":4686,"Ġxáº£":4687,"ĠkhÄĥng":4688,"ĠTan":4689,"ona":4690,"Ġdá»¡":4691,"ĠhÃ©":4692,"ino":4693,"ĠCÃ¹ng":4694,"ĠCap":4695,"ĠMor":4696,"ĠMáº¡ch":4697,"ĠHer":4698,"Ã©n":4699,"ĠÄĲa":4700,"ĠÄĲÃ£":4701,"ĠSi":4702,"ĠLÃºc":4703,"Ġ31":4704,"Ġkhuáº¥t":4705,"ĠVÃ´":4706,"ĠVÄĥn":4707,"ison":4708,"ĠNghe":4709,"Ġ700":4710,"Char":4711,"Chá»ĭ":4712,"ĠGiÃ¡ng":4713,"ĠArist":4714,"PhÆ°Æ¡ng":4715,"urger":4716,"ĠMá»Ĺi":4717,"ĠLatin":4718,"ĠNorden":4719,"15":4720,"Váº«n":4721,"my":4722,"rut":4723,"yan":4724,"Ãģ":4725,"Ġtw":4726,"Ġtua":4727,"Ġcai":4728,"Ġcáº©u":4729,"ĠlÆ°á»£m":4730,"Ġmar":4731,"Ġmá»įt":4732,"Ġbáº¿":4733,"ĠsÃ³i":4734,"ĠtrÆ°Æ¡ng":4735,"ĠtrÃªu":4736,"ĠngÃ´":4737,"Ġngá»Ļ":4738,"ĠgáºŃp":4739,"Ġray":4740,"Ġria":4741,"Ġdang":4742,"ĠnhÄĥn":4743,"ĠkhÃ¢u":4744,"Ġkhe":4745,"Ġbá»Ľi":4746,"ĠTÃ¬nh":4747,"Ġná»©t":4748,"ĠCD":4749,"Ġháº£":4750,"ĠMil":4751,"ĠkhoÃ¡n":4752,"ĠHill":4753,"Ġ29":4754,"ĠÄĲan":4755,"ĠÄĲá»ĵng":4756,"ĠAir":4757,"Ġkhá»ĳn":4758,"ĠSer":4759,"ĠSal":4760,"ĠKy":4761,"ĠGore":4762,"ĠDV":4763,"ĠDa":4764,"ĠDetro":4765,"aland":4766,"ĠRay":4767,"elson":4768,"eton":4769,"Ġ55":4770,"oll":4771,"ĠWil":4772,"ĠFor":4773,"Ġchip":4774,"ĠHoáº·c":4775,"lian":4776,"Ġ800":4777,"reet":4778,"Ġinsulin":4779,"ĠPhÆ°Æ¡ng":4780,"Ġcuáº£":4781,"lobal":4782,"ĠScotland":4783,"arketing":4784,"ĠAristotle":4785,"ĠDetroit":4786,"AM":4787,"BC":4788,"EC":4789,"cÃ¡c":4790,"do":4791,"gin":4792,"gar":4793,"ies":4794,"kel":4795,"mad":4796,"tan":4797,"§y":4798,"Ġne":4799,"ĠnÃ£y":4800,"Ġnit":4801,"Ġváº«y":4802,"ĠliÃªng":4803,"ĠlÆ°á»£n":4804,"Ġlaser":4805,"Ġsp":4806,"Ġsáº£nh":4807,"ĠngÆ¡i":4808,"Ġgiáº¿ng":4809,"Ġráº£i":4810,"ĠnhÆ°á»£c":4811,"ĠkhÃ©p":4812,"Ã¢t":4813,"ĠxÆ¡":4814,"ĠThÃ´ng":4815,"Ġlá»©a":4816,"ÄĲi":4817,"ĠMos":4818,"ĠMel":4819,"ĠMill":4820,"ĠBal":4821,"ĠBrian":4822,"eron":4823,"ĠÄĳá»ĵn":4824,"ĠAri":4825,"ĠSom":4826,"ĠLong":4827,"ĠDis":4828,"espe":4829,"ĠVÃŃ":4830,"ĠVic":4831,"Ġrá»ķ":4832,"apore":4833,"ĠEar":4834,"ĠEur":4835,"ĠOs":4836,"ThÆ°a":4837,"ĠhÃ¡n":4838,"ĠStreet":4839,"ĠUSD":4840,"ave":4841,"ĠGiai":4842,"evin":4843,"iana":4844,"ansas":4845,"ĠbÃ³p":4846,"sha":4847,"onesia":4848,"ĠphÃ´i":4849,"ĠIndonesia":4850,"burgh":4851,"vá»Ľi":4852,"ĠCEO":4853,"Ġscan":4854,"ĠCyrus":4855,"Ġháº»o":4856,"ĠMandela":4857,"ĠBronx":4858,"CÃ¡":4859,"Chi":4860,"NÃ£o":4861,"Sh":4862,"bÃ¢y":4863,"ear":4864,"hay":4865,"ke":4866,"nia":4867,"rá»ĵi":4868,"ux":4869,"via":4870,"ĠtÆ¡":4871,"ĠÄĳan":4872,"ĠÄĳÃłng":4873,"ĠÄĳun":4874,"Ġváº·n":4875,"ĠvÃ¡y":4876,"Ġláº¥n":4877,"Ġmarketing":4878,"Ġsuá»ĳi":4879,"ĠngÃło":4880,"Ġthá»ģ":4881,"Ġdev":4882,"ĠÄĳá»įng":4883,"Ġtá»Ľ":4884,"Ġtá»¥t":4885,"Ġquáº¡t":4886,"ĠxÃłi":4887,"Ġkhiáº¿t":4888,"Ġchá»ĳn":4889,"oto":4890,"ĠTit":4891,"Ġsá»ıi":4892,"Ġkhoang":4893,"ĠHá»ĩ":4894,"ĠÄĲi":4895,"ĠÄĲáº¿":4896,"ĠÄĲáº§u":4897,"ence":4898,"ĠAv":4899,"Ġkhá»ĳc":4900,"ĠKáº¿t":4901,"ĠRo":4902,"Ġmáº¹o":4903,"oop":4904,"Ġcháº·ng":4905,"ĠbÃ¹n":4906,"celand":4907,"ĠPalestine":4908,"ĠLaden":4909,"ĠWatson":4910,"ĠShakespe":4911,"80":4912,"BI":4913,"CC":4914,"Car":4915,"Háº¯n":4916,"In":4917,"PT":4918,"bá»ĳt":4919,"col":4920,"ium":4921,"jo":4922,"¥a":4923,"ĠÃªm":4924,"ĠtÃ¡t":4925,"Ġnáº¡":4926,"Ġnuá»ĳi":4927,"Ġnáº¯p":4928,"Ġnáº¿m":4929,"ĠvÃ¡ch":4930,"ĠlÃ¡ch":4931,"Ġmi":4932,"ĠmuÃ´n":4933,"Ġkil":4934,"Ġngáº¯t":4935,"ĠgÄĥng":4936,"ĠvÃłn":4937,"ĠhÄĥng":4938,"Ġhiáº¿u":4939,"ĠhÃłu":4940,"ĠrÃ²":4941,"Ġráº·ng":4942,"ĠdÃ¢u":4943,"que":4944,"Ġxi":4945,"ĠthÃª":4946,"á»įng":4947,"Ġlá»Ńng":4948,"ĠMat":4949,"ĠMur":4950,"ĠBáº¯t":4951,"Ġloa":4952,"ĠHÃ´m":4953,"ĠÄĲiá»ĩn":4954,"Ġbá»Ļi":4955,"ĠKn":4956,"atar":4957,"Ġrá»ĩt":4958,"ilet":4959,"Ġchui":4960,"ĠEs":4961,"ĠEver":4962,"ĠÄĲá»ĭa":4963,"Quay":4964,"ĠQuan":4965,"ivers":4966,"pha":4967,"Ġlogo":4968,"ĠbÃªnh":4969,"Okay":4970,"ĠCarolina":4971,"ThÃ¡ng":4972,"ĠParkinson":4973,"ĠMontana":4974,"ĠZealand":4975,"Ġtweet":4976,"ĠDVD":4977,"ĠVictor":4978,"25":4979,"MA":4980,"SW":4981,"hai":4982,"mi":4983,"oint":4984,"ville":4985,"Ġ+":4986,"īa":4987,"Ġclick":4988,"Ġlen":4989,"Ġmil":4990,"Ġbon":4991,"ĠquÄĥng":4992,"Ġxá»ĳp":4993,"oton":4994,"ĠTam":4995,"ĠTed":4996,"Ġdá»Ŀi":4997,"ÄĲáº·c":4998,"ĠCáº£":4999,"Ġtoa":5000,"Ġtoilet":5001,"ĠNÆ°á»Ľc":5002,"ĠHollywood":5003,"amine":5004,"ĠÄĲÃ´":5005,"ĠSá»©c":5006,"ĠSilicon":5007,"ĠPro":5008,"Ġá»ª":5009,"Ġá»ıi":5010,"Ġ37":5011,"Ġngoáº¡n":5012,"ĠDr":5013,"TrÃ¡i":5014,"ĠIr":5015,"ĠVal":5016,"Ġchuá»Ļng":5017,"ollo":5018,"ĠEt":5019,"ome":5020,"ĠYo":5021,"ĠChiáº¿c":5022,"Ġ2002":5023,"ĠStew":5024,"Ġngá»§i":5025,"ĠCháº¯c":5026,"Ġelec":5027,"ĠVirgin":5028,"Ġdevil":5029,"ĠShakespeare":5030,"Bill":5031,"Hy":5032,"Jo":5033,"KhÃ":5034,"Phi":5035,"TÃŃnh":5036,"VáºŃt":5037,"Xem":5038,"bo":5039,"din":5040,"ech":5041,"eat":5042,"har":5043,"si":5044,"ye":5045,"Ãįt":5046,"ĠÆ¡":5047,"Ġáº¯c":5048,"Ġop":5049,"ĠtÆ°á»Ľc":5050,"Ġtáº¡c":5051,"Ġcal":5052,"Ġcáº¯n":5053,"Ġcua":5054,"Ġná»Ļ":5055,"ĠvÆ°á»Ľng":5056,"ĠlÃ³t":5057,"ĠÄĳá»©t":5058,"Ġchuá»ĳi":5059,"ĠcÃ¡n":5060,"Ġhá»Ł":5061,"ÄĲiá»ĩn":5062,"ÄĲoáº¡n":5063,"ĠMá»Ļc":5064,"hic":5065,"ĠBáº¥t":5066,"ĠBÃ¡c":5067,"Ġkhá»Ń":5068,"aron":5069,"ĠPop":5070,"ĠDen":5071,"Ġnháº¡o":5072,"ĠIBM":5073,"ĠIceland":5074,"Ġ46":5075,"ĠFer":5076,"Ġ1900":5077,"Ġ1930":5078,"omp":5079,"ewis":5080,"ĠNewton":5081,"ChÃł":5082,"Ġcafe":5083,"agos":5084,"Ġ1999":5085,"ylon":5086,"ĠAmy":5087,"ĠnhÃ¡t":5088,"ĠToÃłn":5089,"Ġquá»µ":5090,"ĠLá»Ľn":5091,"ĠDelhi":5092,"ĠGandhi":5093,"thÃ¬":5094,"Ġelectron":5095,"Ar":5096,"BJ":5097,"Cá»Ļng":5098,"Há»":5099,"Kiá»ĥu":5100,"giá»":5101,"ni":5102,"nie":5103,"pi":5104,"rin":5105,"so":5106,"ui":5107,"ves":5108,"¥y":5109,"ĠÃ´i":5110,"ħn":5111,"ĠÄĳáº¡m":5112,"Ġnáº¿n":5113,"Ġná»Ļp":5114,"Ġlá»įt":5115,"ĠbÃ¬":5116,"Ġbar":5117,"Ġkiá»ģm":5118,"ĠtrÃ³i":5119,"Ġngáº£":5120,"Ġthá»ı":5121,"Ġthá»«ng":5122,"Ġthá»ĳn":5123,"Ġcá»įc":5124,"Ġnháº¥c":5125,"ĠTin":5126,"Ġkhinh":5127,"Ġdá»ĵi":5128,"Ãºm":5129,"Ġsá»©a":5130,"ĠMer":5131,"ĠMag":5132,"ĠNÆ¡i":5133,"ĠSá»ĳ":5134,"ĠSand":5135,"ĠKu":5136,"ĠLo":5137,"ĠLau":5138,"ĠLar":5139,"ĠGold":5140,"ĠDon":5141,"TrÃ´ng":5142,"ose":5143,"ĠRed":5144,"eland":5145,"ĠVÃło":5146,"ato":5147,"ĠJac":5148,"oly":5149,"ĠWright":5150,"ĠFri":5151,"Ġcháº¡p":5152,"ĠThay":5153,"eck":5154,"Ġnguá»Ļi":5155,"Khoa":5156,"ThÃ¬":5157,"NghÄ©":5158,"ĠAtlan":5159,"ĠSingapore":5160,"ĠWolfram":5161,"CL":5162,"Gia":5163,"Tuyá»ĩt":5164,"WK":5165,"af":5166,"aeda":5167,"burg":5168,"ij":5169,"las":5170,"nÃªn":5171,"nik":5172,"¨n":5173,"¹n":5174,"ĠÂ":5175,"Ġtáº»":5176,"ngÆ°á»Ŀi":5177,"Ġcáº¡o":5178,"ĠcÆ°á»¡i":5179,"ĠÄĳÃŃnh":5180,"ĠnhÃº":5181,"Ġnáº·c":5182,"Ġbin":5183,"ĠsÆ°á»Łi":5184,"Ġtre":5185,"Ġha":5186,"Ġrong":5187,"ĠdÃło":5188,"ĠthiÃªu":5189,"Ġquáº©n":5190,"ĠgiÃłn":5191,"ĠTay":5192,"ĠTáº¡o":5193,"ĠTel":5194,"Ġlá»¥a":5195,"Ġhoi":5196,"ĠcháºŃt":5197,"ÄĲÆ°Æ¡ng":5198,"ĠCáº§u":5199,"Æ°Æ¡c":5200,"Ġsá»Ŀ":5201,"ĠMike":5202,"ĠMiss":5203,"Ġtrá»ĩ":5204,"ĠBi":5205,"ĠBob":5206,"ĠBud":5207,"ĠHan":5208,"ĠHÃłnh":5209,"ames":5210,"ĠSk":5211,"ĠphÃłn":5212,"ĠLin":5213,"ĠLou":5214,"ĠGÃ´":5215,"ĠDÃ¹":5216,"TrÆ°á»Ŀng":5217,"Há»įc":5218,"eld":5219,"Ġrá»Ľt":5220,"Ġchá»įi":5221,"ĠWi":5222,"hop":5223,"use":5224,"ĠphÃŃch":5225,"oid":5226,"row":5227,"opia":5228,"ĠÄĳá»ĳn":5229,"ĠThá»ĳng":5230,"ĠNhiá»ģu":5231,"HoÃłn":5232,"Ġok":5233,"ĠChá»ĭ":5234,"ĠQuÃ¢n":5235,"ĠZimb":5236,"ĠArg":5237,"Ġ2012":5238,"Ġ1984":5239,"ĠChile":5240,"ĠColumb":5241,"ĠCharlie":5242,"ĠLeon":5243,"ĠPhá»¥":5244,"ational":5245,"ĠAndrew":5246,"ĠTanz":5247,"100":5248,"BA":5249,"DÆ°á»Ŀng":5250,"DÆ°á»Ľi":5251,"Global":5252,"Ráº±ng":5253,"St":5254,"SÃ¡u":5255,"Tá»±":5256,"bum":5257,"km":5258,"mar":5259,"táº¥t":5260,"uit":5261,"well":5262,"yd":5263,"³t":5264,"Ġáº£":5265,"ĠÃ´n":5266,"Ġenz":5267,"Ġtiá»ĩt":5268,"ĠcÆ°a":5269,"Ġcáº±n":5270,"ĠnhÃºng":5271,"hÃ£y":5272,"ĠvÃ£":5273,"ĠvÃ¹i":5274,"Ġbá»įt":5275,"ĠtrÃ¡":5276,"Ġgáº¯t":5277,"Ġgáº§y":5278,"Ġhao":5279,"Ġcá»Ľ":5280,"Ġnhá»¥c":5281,"Ġtá»Ł":5282,"iá»ģng":5283,"Ġxáº¥p":5284,"Ġchá»ĳc":5285,"uyá»ħn":5286,"Ġmá»ĭ":5287,"ĠClin":5288,"Ġphá»Ľt":5289,"ĠkhoÃ¡c":5290,"ĠNo":5291,"ĠNelson":5292,"ĠtÃŃt":5293,"ering":5294,"eryl":5295,"ĠHam":5296,"ame":5297,"ĠLang":5298,"ĠLak":5299,"Ġá»§":5300,"ors":5301,"ĠRam":5302,"ĠRand":5303,"eter":5304,"ĠVáº¥n":5305,"ican":5306,"ĠWe":5307,"ters":5308,"hoáº·c":5309,"ĠNgÃ´i":5310,"liz":5311,"ĠhÃ¡o":5312,"rey":5313,"Chris":5314,"ĠAlbert":5315,"ĠAlpha":5316,"ulia":5317,"entina":5318,"ĠArthur":5319,"ĠScott":5320,"inda":5321,"ĠThÃ´i":5322,"ĠAlexander":5323,"chá»ī":5324,"ĠJeff":5325,"ight":5326,"ĠBrooklyn":5327,"Ġghen":5328,"ĠDisney":5329,"CA":5330,"Geo":5331,"Kinh":5332,"VÅ©":5333,"aj":5334,"lash":5335,"way":5336,"Ġtuá»Ļc":5337,"ĠcÃłnh":5338,"ĠÄĳiáº¿u":5339,"há»ĭ":5340,"ĠlÃ¡ng":5341,"ĠmÃ©o":5342,"ĠtrÃłng":5343,"Ġngáº¡o":5344,"Ġngá»įc":5345,"Ġgo":5346,"Ġgáº¡o":5347,"ĠvÃłnh":5348,"Ġthá»ĳi":5349,"ĠrÃ¬u":5350,"Ġpop":5351,"Ġposter":5352,"ĠdÆ°ng":5353,"Ġdáº³ng":5354,"Ġdiá»ħu":5355,"Ġvá»±ng":5356,"Ġtháº£y":5357,"Ġcá»§i":5358,"Ġbá»ī":5359,"Ġbá»Ŀi":5360,"ĠMas":5361,"ĠMatt":5362,"ĠBot":5363,"ĠBao":5364,"ĠHu":5365,"ĠÄĲá»Ļng":5366,"ĠAus":5367,"ĠgiÃ¡ng":5368,"Ġdop":5369,"Ġphanh":5370,"ĠKi":5371,"ĠKat":5372,"ĠLee":5373,"Ġá»«":5374,"ost":5375,"elly":5376,"etti":5377,"NgÃ´n":5378,"Ġkhuáº¿ch":5379,"ĠIg":5380,"isa":5381,"Ġ48":5382,"ĠJord":5383,"Ġ2030":5384,"ĠThiáº¿t":5385,"obi":5386,"ĠYeah":5387,"rab":5388,"ĠTEDGlobal":5389,"Ġgá»Ľm":5390,"ĠUá»·":5391,"ardy":5392,"abeth":5393,"Cháº¥t":5394,"Quáº£":5395,"ull":5396,"iff":5397,"ĠQuáº£ng":5398,"ive":5399,"Giáº£i":5400,"ĠmÃ¬n":5401,"ĠMoore":5402,"ĠTháº§n":5403,"ierra":5404,"ĠHigh":5405,"ĠKhÃ¡n":5406,"ucks":5407,"ĠNghiÃªn":5408,"Ġalbum":5409,"ĠVenice":5410,"ĠHawai":5411,"ĠiPod":5412,"Ġaxit":5413,"enhagen":5414,"Ãģnh":5415,"ĠVirginia":5416,"ĠTanzania":5417,"lizabeth":5418,"Dan":5419,"FG":5420,"Lá»Ŀi":5421,"MÃ¹a":5422,"OL":5423,"RA":5424,"Sp":5425,"Sá»©c":5426,"ThÃº":5427,"eas":5428,"fa":5429,"gi":5430,"hh":5431,"mo":5432,"ool":5433,"rr":5434,"tamin":5435,"uáº§n":5436,"zler":5437,"ĩch":5438,"ĠÄĥ":5439,"ĠÄĳáº§m":5440,"ĠÄĳáº·n":5441,"há»ģ":5442,"Ġváº¯t":5443,"Ġven":5444,"ĠmÃ¡c":5445,"Ġmet":5446,"Ġbuá»ĵ":5447,"Ġkg":5448,"Ġkiá»ģu":5449,"ĠsÆ°Æ¡ng":5450,"Ġgl":5451,"Ġchinh":5452,"Ġnhá»©c":5453,"Ġnhá»įn":5454,"Ġquáº§y":5455,"Ġxáº»":5456,"Ġpháº£":5457,"ĠchoÃłng":5458,"ĠTÃłi":5459,"Ġlá»¥t":5460,"Ġhon":5461,"ÄĲá»Ļng":5462,"Ġná»Ľi":5463,"ĠCN":5464,"ĠCÅ©ng":5465,"ĠCas":5466,"ĠchÃŃch":5467,"ĠMin":5468,"Ġkhoe":5469,"ĠNÃ´":5470,"ĠNick":5471,"ĠHiá»ĩn":5472,"ĠAg":5473,"ĠPower":5474,"ĠKal":5475,"ĠKÃŃnh":5476,"ĠGil":5477,"Å©a":5478,"alem":5479,"Ġvitamin":5480,"elp":5481,"Ġnháº¡i":5482,"Ġ44":5483,"ics":5484,"ĠJill":5485,"ily":5486,"itt":5487,"ĠFar":5488,"ĠNgay":5489,"Thá»īnh":5490,"usalem":5491,"ĠPhil":5492,"Ġ86":5493,"ĠgÃ³t":5494,"ops":5495,"Má»Ľi":5496,"aze":5497,"Ġtá»¥ng":5498,"ĠCarn":5499,"ĠAmer":5500,"aine":5501,"ĠToÃł":5502,"ĠColomb":5503,"ĠMoz":5504,"ĠBosnia":5505,"ĠGeorg":5506,"ĠCopenhagen":5507,"ĠTeszler":5508,"Kháº£":5509,"ĠJerusalem":5510,"Ġopera":5511,"ĠArgentina":5512,"ĠClinton":5513,"Ġdopamine":5514,"Ġbuá»ĵm":5515,"ChÃ¡u":5516,"IA":5517,"JH":5518,"LiÃªn":5519,"Oh":5520,"PhÃ¡":5521,"Sá»Ń":5522,"cá»":5523,"ken":5524,"lÃłm":5525,"ned":5526,"sy":5527,"ÃĶi":5528,"Ġao":5529,"Ġah":5530,"áº³n":5531,"ĠcÃło":5532,"ĠÄĳÆ°Æ¡c":5533,"Ġná»±c":5534,"Ġnáº¥c":5535,"ĠlÆ°á»Ŀi":5536,"ĠliÃªu":5537,"Ġmu":5538,"Ġman":5539,"ĠmÃ´ng":5540,"Ġbá»±":5541,"Ġsilicon":5542,"Ġhuá»³":5543,"Ġthá»ī":5544,"Ġvá»īa":5545,"Ġnhá»ĳt":5546,"ĠTemp":5547,"ÄĲÃ¡ng":5548,"Ġtoáº¡":5549,"ĠMi":5550,"hidi":5551,"hiopia":5552,"ĠNep":5553,"ĠNair":5554,"ĠBÄĥng":5555,"ĠBir":5556,"erom":5557,"ĠHÃłng":5558,"ĠÄĲáº¿n":5559,"ena":5560,"ĠPort":5561,"ĠLine":5562,"Ġá»Ľt":5563,"Ġviol":5564,"ellow":5565,"ĠJenn":5566,"ĠJones":5567,"oln":5568,"ĠWow":5569,"ĠWest":5570,"Ġ193":5571,"urt":5572,"ĠCha":5573,"ĠkÃ©p":5574,"ĠHoÃ¡":5575,"reg":5576,"Chiáº¿n":5577,"ChÃło":5578,"ĠsuÃ½t":5579,"oug":5580,"ĠGiÃ¡":5581,"iberia":5582,"ĠCarl":5583,"ĠJohnny":5584,"ylvia":5585,"ĠnhÃ¡y":5586,"ThÃŃ":5587,"hammad":5588,"ĠMá»¥c":5589,"incoln":5590,"ĠLuÃ¢n":5591,"ĠThÃ¬":5592,"ĠJoshua":5593,"ĠBabylon":5594,"PTCH":5595,"ĠStewart":5596,"ĠColumbia":5597,"Ġtá»Łm":5598,"13":5599,"70":5600,"CÃłng":5601,"Cuá»ĳn":5602,"Láº¡i":5603,"Mich":5604,"Rob":5605,"SÃ¡ng":5606,"TÃ³m":5607,"ko":5608,"men":5609,"wich":5610,"áº¤n":5611,"ĠcÃºi":5612,"ĠÄĳáº¯ng":5613,"ĠvÃ¡c":5614,"Ġlung":5615,"ĠlÃºng":5616,"ĠlÃ©n":5617,"Ġbit":5618,"Ġkiáº¿p":5619,"nhÆ°":5620,"áº¡y":5621,"ĠgÃ¡n":5622,"Ġgá»ĳm":5623,"Ġráº£nh":5624,"ĠrÃ¹a":5625,"Ġdáº¡n":5626,"Ġhá»©c":5627,"Ġtaxi":5628,"ĠnÃ³c":5629,"Ġgiáº§y":5630,"ĠxÃ¬":5631,"Ġchá»ķ":5632,"ĠmÃłi":5633,"cher":5634,"ĠTer":5635,"ĠchÃªnh":5636,"ĠCity":5637,"ĠMov":5638,"ĠBell":5639,"ĠHÃ¬nh":5640,"ĠHung":5641,"ĠHir":5642,"ĠAR":5643,"ĠSá»Ń":5644,"ĠSky":5645,"ĠSierra":5646,"Ġphiá»ĩn":5647,"Ġpherom":5648,"ĠPau":5649,"ĠPri":5650,"ĠKhan":5651,"Ġ38":5652,"Ġ350":5653,"ĠTráº¯ng":5654,"ĠxuÃ´i":5655,"ĠDu":5656,"ĠDaniel":5657,"ĠbÃ¡u":5658,"ello":5659,"Ġ42":5660,"ila":5661,"ĠWalk":5662,"ĠFort":5663,"ĠEx":5664,"acy":5665,"ĠOp":5666,"ĠPhilad":5667,"Ġ72":5668,"Ġ96":5669,"Ġgá»¥c":5670,"rib":5671,"ChÆ°Æ¡ng":5672,"igan":5673,"thay":5674,"ĠXem":5675,"ĠThá»§":5676,"Ġxá»ķ":5677,"ifer":5678,"utan":5679,"Ġ140":5680,"ĠVá»ģ":5681,"Ġ130":5682,"ĠGiá»ĳng":5683,"ĠCá»¥c":5684,"ĠCá»©u":5685,"ather":5686,"kyo":5687,"ĠLeone":5688,"derson":5689,"Ġmá»īa":5690,"ĠJoseph":5691,"Nháº¡c":5692,"ĠiPad":5693,"ĠStarb":5694,"ĠNorth":5695,"Ġacid":5696,"ECD":5697,"ĠSomalia":5698,"ĠVictoria":5699,"ĠEthiopia":5700,"ĠZimbab":5701,"ĠHawaii":5702,"Ġhuá»³nh":5703,"PTCHA":5704,"Bá»įn":5705,"CÄĥn":5706,"HÃłnh":5707,"Há»ĵi":5708,"MÃ´":5709,"Máº¥y":5710,"Má»ĳi":5711,"Mark":5712,"Paul":5713,"Quy":5714,"Tiáº¿n":5715,"Tuá»ķi":5716,"grap":5717,"med":5718,"rge":5719,"ule":5720,"vÃło":5721,"vÃŃt":5722,"Äĳi":5723,"Ġz":5724,"ĠÆ°Æ¡i":5725,"á»«ng":5726,"Ġtáº¡":5727,"ĠcÃ´i":5728,"ĠcÄĥm":5729,"ĠÄĳÆ°á»Ŀi":5730,"ĠÄĳiá»ĥu":5731,"ĠÄĳiáº¿c":5732,"Ġbl":5733,"Ġsá»Ļ":5734,"Ġsáº¥u":5735,"Ġngá»±":5736,"ĠngÃ¢m":5737,"Ġnguá»µ":5738,"Ġhen":5739,"Ġrock":5740,"ĠchÃł":5741,"Ġtháº£n":5742,"Ġquáº¥n":5743,"ĠxÃło":5744,"otter":5745,"Ġgiá»¥c":5746,"Ġbá»ĩ":5747,"ĠTÆ°Æ¡ng":5748,"ĠTÃ¬m":5749,"Ġcháº£o":5750,"ĠchÃ©o":5751,"ĠnhÃŃ":5752,"ĠCÃ¡":5753,"Æ°Æ¡m":5754,"Ġbá»ĭt":5755,"ĠMT":5756,"ĠBh":5757,"erson":5758,"ĠÄĲÃło":5759,"ĠShe":5760,"ĠSiberia":5761,"ĠPenn":5762,"ĠLincoln":5763,"ĠGod":5764,"Ġngoáº·t":5765,"Ġvirut":5766,"ĠbÃ©n":5767,"ĠIt":5768,"ĠQatar":5769,"ĠJay":5770,"ĠJes":5771,"ĠJane":5772,"ĠJulia":5773,"ĠEv":5774,"ĠNghá»ĭ":5775,"Ġtá»īa":5776,"ĠlÃ£i":5777,"ĠOECD":5778,"ooh":5779,"ĠNews":5780,"ĠÄĲá»ĭnh":5781,"Ġxoa":5782,"Ġcá»Ńu":5783,"ĠAlice":5784,"ÄĳÆ°á»£c":5785,"Ġoxi":5786,"uba":5787,"ulu":5788,"ĠQuÃ¡":5789,"ĠAnderson":5790,"utnik":5791,"NhÃ³m":5792,"egie":5793,"ĠEmma":5794,"ennis":5795,"ambia":5796,"ĠToÃ¡n":5797,"ĠBerlin":5798,"ĠBerkel":5799,"Ġeur":5800,"ĠBroad":5801,"ĠPhá»¥c":5802,"uper":5803,"Ġmá»īm":5804,"ladesh":5805,"ĠrÃ£nh":5806,"ĠGreenland":5807,"ĠSimon":5808,"ĠTasmanian":5809,"ĠMaya":5810,"ĠMuhammad":5811,"shahidi":5812,"George":5813,"azeera":5814,"ĠCarnegie":5815,"ĠStarbucks":5816,"ĠZimbabwe":5817,"ĠBerkeley":5818,"Adam":5819,"Donald":5820,"OX":5821,"So":5822,"bor":5823,"ble":5824,"ih":5825,"jamin":5826,"mart":5827,"ston":5828,"tÃ´ng":5829,"wen":5830,"¹o":5831,"Ġ=":5832,"Ġion":5833,"Ĥn":5834,"ĠtÃ½":5835,"ĠtÃ²i":5836,"ĠcÆ°ng":5837,"ĠcÃły":5838,"ĠcÃºng":5839,"Ġváº§y":5840,"Ġláº§y":5841,"Ġmáº§u":5842,"Ġmá»Ļc":5843,"Ġbáº§m":5844,"Ġgas":5845,"Ġhamb":5846,"Ġrá»ĵng":5847,"ĠráºŃm":5848,"ĠdÃ¬":5849,"ĠduyÃªn":5850,"ĠÄĳá»±":5851,"ĠÄĳá»Ĺi":5852,"Ġnham":5853,"Ġchiáº¿t":5854,"Æ¡c":5855,"Ġquáº¥y":5856,"ĠxÃ¡o":5857,"ĠxÃ³t":5858,"ĠTÃ¢m":5859,"Ġhor":5860,"Ã¹n":5861,"ÄĲáº¡i":5862,"ĠCamp":5863,"ĠMau":5864,"ĠsÃ¡p":5865,"ĠNet":5866,"ĠNike":5867,"ĠBá»ĵ":5868,"ĠBali":5869,"ĠHav":5870,"ĠÄĲá»ĵ":5871,"ĠSus":5872,"ĠSun":5873,"ĠSud":5874,"ĠSarah":5875,"ĠmÃ¡nh":5876,"ĠPol":5877,"ĠLaw":5878,"ĠLewis":5879,"ĠGh":5880,"ĠTráº»":5881,"ĠDub":5882,"ĠRon":5883,"Ġ5000":5884,"ĠVi":5885,"ĠJeop":5886,"ĠJazeera":5887,"ĠÃĶ":5888,"aska":5889,"iti":5890,"ĠFOX":5891,"Ġ192":5892,"ĠNgoáº¡i":5893,"ade":5894,"ĠThu":5895,"ĠThÆ°Æ¡ng":5896,"ĠThuáºŃt":5897,"uron":5898,"une":5899,"ĠSteph":5900,"opa":5901,"ĠXanh":5902,"Ġxá»ĭt":5903,"ĠchÃ³i":5904,"ĠchÃ³p":5905,"Ġ180":5906,"Ġ185":5907,"Ġhip":5908,"ĠBrit":5909,"Ġ160":5910,"ĠJohnson":5911,"ĠKenned":5912,"Ġhá»ĳc":5913,"ĠTokyo":5914,"Cá»¥":5915,"ĠBá»©c":5916,"ĠSputnik":5917,"rence":5918,"ĠBangladesh":5919,"ĠLuther":5920,"Khu":5921,"ĠbÆ°á»Ľu":5922,"ĠCameron":5923,"thalate":5924,"thá»±c":5925,"ĠWhit":5926,"ĠEarth":5927,"ĠAtlanta":5928,"ĠLeonardo":5929,"ĠÄĥng":5930,"elphia":5931,"ĠColombia":5932,"ĠPhiladelphia":5933,"ĠStephen":5934,"ĠKennedy":5935,"99":5936,"Cá»ĳ":5937,"DA":5938,"DÃ¢n":5939,"Dá»±a":5940,"EA":5941,"Khá»":5942,"MS":5943,"NC":5944,"SS":5945,"Suy":5946,"Táº¥m":5947,"bie":5948,"des":5949,"ha":5950,"key":5951,"lay":5952,"lem":5953,"sc":5954,"shi":5955,"zÆ¡":5956,"ħu":5957,"Ġtáº£n":5958,"Ġtest":5959,"Ġcm":5960,"Ġna":5961,"ĠvÃ´i":5962,"Ġviá»ģn":5963,"ĠbÃ´i":5964,"Ġsand":5965,"Ġtriá»ħn":5966,"Ġnguyá»ĩt":5967,"Ġgiá»ģng":5968,"ĠrÃł":5969,"Ġpoly":5970,"Ġgiun":5971,"ĠxÃ¢u":5972,"Ġxáº¯n":5973,"Ġchá»ĵn":5974,"ĠTáº¡ng":5975,"ait":5976,"Ġcháº£i":5977,"ĠchÃ©n":5978,"ÄĲÃłn":5979,"inburgh":5980,"ĠMinh":5981,"ember":5982,"Ġtrá»Ľ":5983,"Ġtrá»Ĺi":5984,"ĠBel":5985,"ĠBas":5986,"ĠBert":5987,"ĠHa":5988,"ĠHad":5989,"amas":5990,"ĠÄĲÃ´n":5991,"Ġkhá»ĳng":5992,"ĠSiÃªu":5993,"ial":5994,"Ġyeah":5995,"ĠKhÃ":5996,"ĠKam":5997,"ĠKelly":5998,"ĠLoáº¡i":5999,"ĠquÃ¡ng":6000,"ĠGran":6001,"aly":6002,"ĠbÃ¡ng":6003,"ĠRobot":6004,"ĠRog":6005,"ette":6006,"Nguá»ĵn":6007,"Ġ58":6008,"ĠVáºŃt":6009,"apagos":6010,"olas":6011,"omen":6012,"ĠThÆ°a":6013,"ĠPhilip":6014,"Ġghim":6015,"the":6016,"opatch":6017,"ava":6018,"eller":6019,"Ġtá»¥i":6020,"Ġ1995":6021,"Ġ1996":6022,"Ġ1998":6023,"phone":6024,"phere":6025,"ĠCá»©":6026,"ĠMichigan":6027,"ĠEdinburgh":6028,"ĠLibya":6029,"ĠCopern":6030,"ĠHawk":6031,"ĠGalapagos":6032,"Tá»ķng":6033,"ĠTasmania":6034,"ĠNanopatch":6035,"ĠApollo":6036,"ĠnhÃ´m":6037,"ĠEverest":6038,"ĠLakota":6039,"Ġthá»īu":6040,"ĠNepal":6041,"ĠNairobi":6042,"ĠHungary":6043,"graphic":6044,"ihad":6045,"Ġhamburger":6046,"Ben":6047,"Háº³n":6048,"Jos":6049,"Kiáº¿n":6050,"OPA":6051,"Peter":6052,"TS":6053,"Táº¿":6054,"XÃ£":6055,"ax":6056,"cy":6057,"nÃ´":6058,"oz":6059,"pu":6060,"ray":6061,"tt":6062,"tim":6063,"tic":6064,"tháºŃt":6065,"zona":6066,"±n":6067,"ĠáºŃp":6068,"Ġooh":6069,"Ġtá»Ļt":6070,"ĠcÃ¢m":6071,"ĠcÃ²i":6072,"ĠÄĳáºŃy":6073,"ĠÄĳáº¯c":6074,"Ġno":6075,"Ġve":6076,"ĠvÃ¡":6077,"ĠvÅ©ng":6078,"Ġviá»ĩt":6079,"Ġláº«y":6080,"ĠbÃłnh":6081,"ĠbÃłng":6082,"ĠsáºŃp":6083,"ĠngÆ°á»Ľc":6084,"Ġngáº·t":6085,"Ġgel":6086,"ĠgáºŃt":6087,"Ġghá»ģ":6088,"ĠhiÃªn":6089,"Ġhel":6090,"Ġthá»§ng":6091,"ĠrÃ¡ch":6092,"Ġdáº¥n":6093,"ĠnhÆ°á»£ng":6094,"á»±u":6095,"Ġrap":6096,"ĠphÃ´ng":6097,"ĠTáº¿":6098,"aig":6099,"airo":6100,"Ġcháº±ng":6101,"inn":6102,"ĠMap":6103,"eman":6104,"ĠNational":6105,"ĠBá»ĳn":6106,"ĠBoy":6107,"ĠHol":6108,"ĠSá»":6109,"ĠSol":6110,"ĠSad":6111,"ĠSÃ¡u":6112,"ĠSuper":6113,"ĠKr":6114,"ĠKevin":6115,"ĠKansas":6116,"ĠLáº¡t":6117,"ĠLeb":6118,"ĠGar":6119,"ĠTruyá»ģn":6120,"ĠRes":6121,"ĠRoy":6122,"Ġkhuáº¥y":6123,"ĠIM":6124,"Ġ52":6125,"ĠViáº¿t":6126,"ater":6127,"ĠES":6128,"omet":6129,"ĠOak":6130,"ura":6131,"Ġ74":6132,"Ġ98":6133,"Ġ900":6134,"unk":6135,"Vá»ĭ":6136,"ĠUshahidi":6137,"ÄĳÃ£":6138,"ocr":6139,"Ġox":6140,"ĠQuay":6141,"ĠQuÃ½":6142,"ĠAnas":6143,"Ġáº¢o":6144,"attle":6145,"ĠBern":6146,"ĠEdward":6147,"inceton":6148,"ĠPrinceton":6149,"PhÃŃa":6150,"umbai":6151,"ĠNháº¥t":6152,"osterone":6153,"ĠJackson":6154,"ĠTrá»ĭ":6155,"opher":6156,"ĠArizona":6157,"giá»Ŀ":6158,"ĠTempest":6159,"ĠMovember":6160,"ĠSudan":6161,"ĠJeopardy":6162,"14":6163,"90":6164,"AK":6165,"Biá»ĥu":6166,"Einstein":6167,"HC":6168,"Hiá»ĥn":6169,"Káº¿":6170,"NG":6171,"RW":6172,"Richard":6173,"SC":6174,"Suá»ĳt":6175,"Tá»ĳi":6176,"Tuáº§n":6177,"br":6178,"bao":6179,"cou":6180,"cent":6181,"eith":6182,"fur":6183,"iel":6184,"mÃ´n":6185,"pháº":6186,"uz":6187,"vis":6188,"ym":6189,"zz":6190,"Ġet":6191,"Ġamin":6192,"ĠÆ¯á»Ľc":6193,"Ġtáº·c":6194,"ĠtÆ°á»Ľi":6195,"Ġcáº©m":6196,"ĠÄĳáº¯p":6197,"ĠnÃ¡o":6198,"Ġvuá»ĳt":6199,"Ġviáº¿ng":6200,"Ġme":6201,"Ġmao":6202,"Ġmáº·n":6203,"ĠbÃ£":6204,"ĠsuÃ´n":6205,"ĠtrÆ¡n":6206,"ĠtrÃ¹":6207,"Ġngáº§n":6208,"Ġgram":6209,"Ġrá»įi":6210,"Ġreo":6211,"ĠrÃ²ng":6212,"Ġráº©y":6213,"Ġnhai":6214,"Ġcá»«":6215,"Ġnhá»įc":6216,"Ġtháº¹n":6217,"Ġpháº«n":6218,"Ġsáº¹o":6219,"ĠphÃ¬nh":6220,"ĠTÃªn":6221,"ĠTah":6222,"onto":6223,"Ġná»ĵi":6224,"ĠCao":6225,"ĠCor":6226,"ĠCuá»ĳi":6227,"ĠCairo":6228,"Ġbá»ĭch":6229,"ĠMáº·c":6230,"ĠMáº¡ng":6231,"ĠMumbai":6232,"emy":6233,"Ġká»µ":6234,"Ġká»ĭ":6235,"ĠNhá»":6236,"ĠBáº£y":6237,"ĠBeet":6238,"ĠHel":6239,"ĠÄĲÃłi":6240,"ĠAch":6241,"ias":6242,"ĠPep":6243,"ĠKháº":6244,"ĠLai":6245,"ĠLuc":6246,"ĠGro":6247,"ĠDie":6248,"ĠDoug":6249,"alay":6250,"osau":6251,"NgÃłnh":6252,"atur":6253,"ĠQua":6254,"Ġ43":6255,"Ġláº½o":6256,"ĠFox":6257,"ĠEle":6258,"Ġ190":6259,"hoo":6260,"hoven":6261,"ado":6262,"ĠYÃªu":6263,"rah":6264,"ĠHoÃłn":6265,"Ġ93":6266,"ĠlÃŃt":6267,"ree":6268,"ĠInter":6269,"Chá»¯":6270,"ĠXu":6271,"ĠAlaska":6272,"Tá»Ľi":6273,"ĠGiÃ¡m":6274,"ump":6275,"Ġfan":6276,"QuÃŃ":6277,"QuÃ¢n":6278,"ChÃ¢u":6279,"ĠAnn":6280,"Giai":6281,"ĠprÃ´":6282,"ĠâĢ¦":6283,"ĠÃģo":6284,"achel":6285,"ĠTime":6286,"ĠPhá»ĳ":6287,"field":6288,"ĠCAPTCHA":6289,"Ġviolin":6290,"Michael":6291,"ribati":6292,"Ġtestosterone":6293,"60":6294,"Bá»ĳn":6295,"Cáº£nh":6296,"Ed":6297,"Quyá»ģn":6298,"SB":6299,"Sinh":6300,"VÄĥn":6301,"cÅ©ng":6302,"ding":6303,"hm":6304,"hol":6305,"kr":6306,"rÃ´":6307,"rick":6308,"rina":6309,"sw":6310,"tháº":6311,"tion":6312,"word":6313,"yc":6314,"Ġ)":6315,"Ġq":6316,"Ġen":6317,"Ġáº§m":6318,"Ġit":6319,"ĠÄĳÃª":6320,"Ġnang":6321,"Ġnai":6322,"Ġvv":6323,"Ġlá»ĳ":6324,"Ġlá»Ļng":6325,"Ġliá»ħu":6326,"Ġbo":6327,"ĠkiÃªu":6328,"Ġsáº¡c":6329,"Ġnguá»":6330,"ĠgÃ²":6331,"ĠgÃ´n":6332,"Ġgáº§m":6333,"ĠhÆ°Æ¡":6334,"Ġdáº¥y":6335,"ĠdÃ¨":6336,"Ġcá»Ĺi":6337,"Ġchanh":6338,"Ġchuá»ĵng":6339,"Ġquáº³ng":6340,"Ġgiang":6341,"Ġxá»Ł":6342,"Ġchá»Ļ":6343,"Ġchá»ķi":6344,"ĠthÃ¢":6345,"ĠthÃ¬nh":6346,"Ġhá»įng":6347,"Ġnháº½":6348,"ĠTiá»ģn":6349,"ĠTun":6350,"ÄĲáº·t":6351,"aus":6352,"ines":6353,"ĠCuba":6354,"Ġháº¯c":6355,"Ġsá»¥t":6356,"ĠMus":6357,"ĠMÃ¹a":6358,"ĠMama":6359,"Ġtrá»ı":6360,"ĠNathan":6361,"ĠHal":6362,"ĠHá»ĵng":6363,"ĠÄĲÆ°a":6364,"ĠÄĲá»ĳi":6365,"ĠAng":6366,"Ġkhá»Ŀ":6367,"ĠSn":6368,"ĠSen":6369,"Ġphao":6370,"ĠKá»¹":6371,"ĠKur":6372,"ĠLi":6373,"ĠLáº§n":6374,"Ġtrá»įt":6375,"Ġngá»£p":6376,"orm":6377,"ĠDick":6378,"Trang":6379,"ĠÃŃn":6380,"alin":6381,"imet":6382,"oshi":6383,"ĠRad":6384,"ĠRid":6385,"ĠIvan":6386,"ĠVol":6387,"ister":6388,"ĠQuyá»ģn":6389,"icus":6390,"ĠJan":6391,"ĠJers":6392,"ĠbazÆ¡":6393,"ĠEve":6394,"ĠElizabeth":6395,"ustin":6396,"Ġ64":6397,"ĠOn":6398,"ĠOli":6399,"ĠThung":6400,"obs":6401,"ring":6402,"Ġbanjo":6403,"ĠUr":6404,"eyer":6405,"Má»©c":6406,"oud":6407,"ĠYorker":6408,"tech":6409,"ows":6410,"ĠQuáº§n":6411,"ĠhÃ¨n":6412,"Ġ1994":6413,"Ġgames":6414,"ĠGiá»įng":6415,"ĠScr":6416,"anna":6417,"anny":6418,"Ġ1975":6419,"ĠMcC":6420,"ĠCá»§a":6421,"Ġkhuya":6422,"ĠLá»ĭch":6423,"ĠRomo":6424,"...":6425,"ĠSeattle":6426,"Lá»ĭch":6427,"ChÃºa":6428,"ĠLesterland":6429,"Charles":6430,"garet":6431,"ĠLouis":6432,"ĠKiribati":6433,"ĠCNN":6434,"ĠSkype":6435,"ĠJesus":6436,"ĠÄĳá»±Æ¡c":6437,"ĠHavard":6438,"Ġsandwich":6439,"couver":6440,"ĠBeethoven":6441,"ĠJersey":6442,"AO":6443,"Biáº¿t":6444,"CÃ¢y":6445,"GM":6446,"James":6447,"Ken":6448,"MG":6449,"NÄĥng":6450,"RG":6451,"RNA":6452,"SR":6453,"Sá»":6454,"Sai":6455,"Tiá»ģn":6456,"Tim":6457,"Thomas":6458,"Women":6459,"XL":6460,"cÃ²n":6461,"cal":6462,"cus":6463,"eng":6464,"ead":6465,"iro":6466,"ms":6467,"off":6468,"tel":6469,"tháº¿":6470,"uela":6471,"¨ng":6472,"²i":6473,"ģu":6474,"áºµn":6475,"ngh":6476,"ĠcÃµi":6477,"ĠÄĤn":6478,"ĠÄĳÃºt":6479,"ĠnÃ²ng":6480,"Ġnáº¥ng":6481,"ĠmiÃªn":6482,"ĠmÄ©":6483,"ĠmÆ°á»Ŀng":6484,"Ġbe":6485,"ĠbÃº":6486,"Ġbus":6487,"Ġki":6488,"ĠkÃ¨n":6489,"ĠtrÃºt":6490,"Ġgáº·m":6491,"Ġráº¡c":6492,"Ġpass":6493,"ĠthÃł":6494,"Ġtá»©":6495,"ĠxÃ³i":6496,"Ġgiá»ħu":6497,"Ġnháº¥m":6498,"ĠTá»ĳi":6499,"ĠTÃŃnh":6500,"aid":6501,"Ġsá»«ng":6502,"Ġbá»ĭp":6503,"Ġtop":6504,"ĠMet":6505,"ĠMass":6506,"ĠMitch":6507,"his":6508,"ĠNic":6509,"ĠBM":6510,"ĠBÃªn":6511,"ĠloÃ©":6512,"ĠHim":6513,"ĠHom":6514,"ene":6515,"ĠAsh":6516,"ĠArab":6517,"ĠSylvia":6518,"ĠcÆ¡m":6519,"Ġphthalate":6520,"áº¹o":6521,"Ġ34":6522,"ĠTranh":6523,"ori":6524,"ĠDÄ©":6525,"ĠDoh":6526,"ĠDav":6527,"Ġthuá»Ł":6528,"imee":6529,"iÃªt":6530,"ĠIP":6531,"Tháº¥y":6532,"Ġ54":6533,"ĠVer":6534,"Ġ450":6535,"ĠJerry":6536,"ita":6537,"ĠWill":6538,"ĠFGM":6539,"Ġláº¡y":6540,"ĠOreg":6541,"ĠThÆ°":6542,"ĠChad":6543,"lipp":6544,"ĠState":6545,"thew":6546,"opy":6547,"able":6548,"inea":6549,"illa":6550,"Ġfile":6551,"aza":6552,"ĠConn":6553,"iva":6554,"ĠArch":6555,"Ġtháº¡c":6556,"ĠIsland":6557,"allon":6558,"Ġ1997":6559,"ĠhÃ£nh":6560,"ĠCháº¿t":6561,"ĠGeographic":6562,"ĠMcG":6563,"ĠMcK":6564,"athon":6565,"ĠPhÆ°á»£ng":6566,"ĠbuÃ´ng":6567,"ĠBlue":6568,"ToÃł":6569,"ĠGreat":6570,"ĠBeach":6571,"ĠBenjamin":6572,"ĠSteven":6573,"ĠOkay":6574,"ĠJulian":6575,"ĠNghÄ©a":6576,"ĠToronto":6577,"ĠGrand":6578,"ĠGuinea":6579,"ĠVancouver":6580,"ĠTesla":6581,"ĠPeru":6582,"ĠShir":6583,"aghetti":6584,"Ġmarathon":6585,"Ġspaghetti":6586,"ĠEuropa":6587,"ĠthÃªu":6588,"otonin":6589,"ĠFried":6590,"ĠTaylor":6591,"Ġmá»ĭn":6592,"ĠJefferson":6593,"ĠKatrina":6594,"ĠJordan":6595,"PhÃ¡t":6596,"ĠBhutan":6597,"ĠFOXO":6598,"ĠBertie":6599,"ĠHawking":6600,"timore":6601,"ĠDiego":6602,"ĠhÆ°Æ¡u":6603,"ĠTunis":6604,"Ġpassword":6605,"ĠHimalay":6606,"ĠDoha":6607,"ĠOregon":6608,"11":6609,"75":6610,"Báº£o":6611,"Fran":6612,"Ká»":6613,"LÆ°á»£ng":6614,"LÃ²ng":6615,"Mong":6616,"Nam":6617,"Niá»ģm":6618,"SE":6619,"Sam":6620,"TÃłi":6621,"Vi":6622,"Xe":6623,"XÃ©t":6624,"bá»ĳn":6625,"cÃ¡i":6626,"eff":6627,"fred":6628,"ráº±ng":6629,"rit":6630,"tá»«":6631,"¡y":6632,"ĠÆ°á»Ľp":6633,"áº¢":6634,"Ġtem":6635,"Ġteen":6636,"ĠÄĳiá»ģm":6637,"ĠÄĳáº«m":6638,"ĠÄĳáº¥ng":6639,"ĠnÃ´i":6640,"ĠnÃ´n":6641,"Ġnáº·n":6642,"ĠvÃ³c":6643,"Ġlon":6644,"Ġláº«m":6645,"Ġlink":6646,"Ġmiá»ĩt":6647,"Ġbáº§n":6648,"ĠkiÃªm":6649,"Ġsáº£y":6650,"Ġsáº¥m":6651,"Ġtro":6652,"ĠtrÃ¢u":6653,"Ġnguyá»ģn":6654,"Ġgá»Łi":6655,"Ġhun":6656,"ĠrÃłnh":6657,"Ġráº¡ng":6658,"Ġráº¡ch":6659,"Ġprog":6660,"Ġdáº«u":6661,"ĠcÃ¡u":6662,"Ġnhá»ķ":6663,"Ġchá»ĩch":6664,"otos":6665,"anon":6666,"anic":6667,"ange":6668,"ĠTy":6669,"ĠTinh":6670,"Ġhoáº¡n":6671,"onacc":6672,"ÄĲá»Ļ":6673,"ÄĲáº¥t":6674,"ĠCP":6675,"ĠCen":6676,"ĠCur":6677,"Ġsá»¡":6678,"Nhiá»ĩm":6679,"ĠMÃ´i":6680,"ĠMÃª":6681,"ĠMoh":6682,"ĠBiá»ĥn":6683,"ĠBlo":6684,"ĠHáº¯n":6685,"ĠHall":6686,"ĠÄĲáº·c":6687,"ĠAur":6688,"ĠSÃ¡ng":6689,"Ġphu":6690,"ĠPier":6691,"ĠKib":6692,"ĠLÃ¢m":6693,"ĠLov":6694,"ĠGan":6695,"ĠGá»Ńi":6696,"ĠGeh":6697,"ĠTrÄĥng":6698,"ĠTreas":6699,"Ġxuáº©n":6700,"ĠDÃłn":6701,"TrÃ²":6702,"alore":6703,"ĠviÃª":6704,"ese":6705,"Ãµm":6706,"osh":6707,"ĠRa":6708,"ĠRod":6709,"ĠRuss":6710,"Ġthoa":6711,"eta":6712,"etown":6713,"NgÃ´i":6714,"NgÃ¢n":6715,"ĠIm":6716,"atz":6717,"Ġrá»¥ng":6718,"ĠQaeda":6719,"Ġ4000":6720,"ĠJess":6721,"app":6722,"ĠFib":6723,"ĠFBI":6724,"Ġ2020":6725,"leans":6726,"ĠNguyÃªn":6727,"act":6728,"urch":6729,"ĠChuyáº¿n":6730,"Ġ77":6731,"Ġ78":6732,"Ġ82":6733,"Ġ97":6734,"oir":6735,"rie":6736,"ĠÄĲá»Ŀi":6737,"nett":6738,"ĠStr":6739,"ĠStir":6740,"ideo":6741,"tha":6742,"rane":6743,"ĠUN":6744,"ĠUkr":6745,"agan":6746,"ager":6747,"Ġ125":6748,"abad":6749,"ĠAlb":6750,"ĠAllen":6751,"Tá»ī":6752,"oul":6753,"owitz":6754,"ChÃ¢n":6755,"ĠZambia":6756,"Ġcanxi":6757,"ĠArt":6758,"awa":6759,"Ġ1992":6760,"ĠEmily":6761,"phen":6762,"Ġ1989":6763,"ĠxÃŃt":6764,"ĠMcDonald":6765,"berry":6766,"athem":6767,"ĠBá»Ŀ":6768,"ĠRoss":6769,"ĠBangalore":6770,"Ná»Ĺi":6771,"ĠSchw":6772,"eeney":6773,"ĠOrleans":6774,"ĠRome":6775,"Ġshock":6776,"ĠGrace":6777,"ĠVenez":6778,"Dá»¯":6779,"ĠmicroRNA":6780,"ĠWarren":6781,"ĠPlato":6782,"Ġserotonin":6783,"ĠKyoto":6784,"Ġneuron":6785,"ĠBaltimore":6786,"KhÃ³":6787,"Ġcalo":6788,"Ġmetan":6789,"ĠAmerican":6790,"ĠWalker":6791,"ĠLawrence":6792,"ĠRoger":6793,"ĠLebanon":6794,"ĠOakland":6795,"onacci":6796,"ĠTreasure":6797,"ĠVenezuela":6798,"600":6799,"AG":6800,"BÃ¬nh":6801,"Buá»ķi":6802,"CE":6803,"Di":6804,"Eric":6805,"GG":6806,"Hiá»ĩu":6807,"Ju":6808,"LuáºŃt":6809,"LuÃ´n":6810,"MÃ¬nh":6811,"Matt":6812,"Táº¡o":6813,"VÃ¹ng":6814,"ire":6815,"lÃª":6816,"lav":6817,"má»":6818,"va":6819,"yo":6820,"¡i":6821,"²m":6822,"µm":6823,"µng":6824,"Ġ#":6825,"ĠtÃº":6826,"Ġcat":6827,"ĠvÃª":6828,"ĠvÄĥng":6829,"Ġláº©n":6830,"Ġmá»Ļi":6831,"ĠmÃºt":6832,"Ġbáº¡t":6833,"Ġsáº£i":6834,"ĠsÃºt":6835,"Ġsun":6836,"ĠngÃ¡ch":6837,"ĠgÃło":6838,"ĠgÃ¡y":6839,"Ġgallon":6840,"ĠrÆ°á»Łi":6841,"Ġduá»Ĺi":6842,"Ġdáº«m":6843,"Ġchen":6844,"Ġtá»ĥ":6845,"ĠquáºŃt":6846,"ĠgiÃ²n":6847,"ĠxÃ´ng":6848,"Ġbá»¥c":6849,"ĠTi":6850,"ĠTiáº¿p":6851,"ĠTenn":6852,"ĠTeh":6853,"ÄĲÃ¢u":6854,"ÄĲÆ°a":6855,"ÄĲÃ¡m":6856,"ĠMot":6857,"ĠloÃł":6858,"erb":6859,"ĠHáº§u":6860,"ĠHÃ¡t":6861,"ĠÄĲÆ°á»Ŀng":6862,"enberg":6863,"ĠAaron":6864,"ĠAimee":6865,"ĠSil":6866,"ĠSá»ĳng":6867,"ĠSMS":6868,"aren":6869,"Ġyou":6870,"Ġphai":6871,"ĠPap":6872,"ĠPink":6873,"ĠPotter":6874,"ĠKiáº¿n":6875,"ĠKle":6876,"ĠKeith":6877,"ĠLim":6878,"ĠLock":6879,"Ġngá»Ńa":6880,"ĠGl":6881,"ĠGord":6882,"ĠGaza":6883,"ĠDol":6884,"TrÃŃ":6885,"ĠRáº±ng":6886,"ĠRick":6887,"Ġthoi":6888,"NgÃłi":6889,"ĠIQ":6890,"ĠIl":6891,"Ġ53":6892,"Ġ57":6893,"ĠVinc":6894,"ition":6895,"oli":6896,"ĠFr":6897,"ĠFellow":6898,"ĠFDA":6899,"ĠEc":6900,"Thá»ĭ":6901,"usd":6902,"Ġ68":6903,"EDI":6904,"ĠnghÃªnh":6905,"obyl":6906,"obule":6907,"ĠYale":6908,"lider":6909,"rig":6910,"rich":6911,"riel":6912,"ream":6913,"Cheryl":6914,"Chá»©ng":6915,"ĠStock":6916,"ings":6917,"ington":6918,"aga":6919,"ĠXÃ£":6920,"ĠXÃ¢y":6921,"aba":6922,"Tá»©c":6923,"aks":6924,"Ġ404":6925,"ĠMario":6926,"ibo":6927,"Ġ110":6928,"mann":6929,"manuel":6930,"ife":6931,"ĠQuáº£n":6932,"ecca":6933,"uce":6934,"ĠSher":6935,"eech":6936,"over":6937,"ĠCá»ķ":6938,"Ġquá»³":6939,"ĠJoel":6940,"ĠSaudi":6941,"ĠBeat":6942,"ĠJamai":6943,"ĠWiki":6944,"ernobyl":6945,"ĠFranklin":6946,"Ġ1945":6947,"PhÃ¢n":6948,"ĠSweeney":6949,"ĠJonathan":6950,"ĠGando":6951,"ĠaxÃŃt":6952,"ĠCAD":6953,"ĠPanthe":6954,"Ġnitric":6955,"ĠMurray":6956,"Joe":6957,"echn":6958,"ĠDenis":6959,"ĠnhÃºn":6960,"Ġgluc":6961,"Ġhorm":6962,"ĠSusan":6963,"ĠDubai":6964,"ĠCopernicus":6965,"osaurus":6966,"ĠOliver":6967,"otoshop":6968,"ĠFibonacci":6969,"ĠStirling":6970,"ĠTehran":6971,"ĠPantheon":6972,".&":6973,"45":6974,"AV":6975,"Am":6976,"BÃ¡o":6977,"Cam":6978,"Daniel":6979,"Háº¡t":6980,"Jon":6981,"Jim":6982,"Jenn":6983,"Le":6984,"MÆ°á»Ŀi":6985,"Máº¥t":6986,"Mart":6987,"PH":6988,"RC":6989,"TM":6990,"XÃ¢y":6991,"báº±ng":6992,"bin":6993,"ct":6994,"cháº":6995,"let":6996,"met":6997,"mail":6998,"och":6999,"pkins":7000,"sia":7001,"tz":7002,"ww":7003,"¡n":7004,"£c":7005,"ÃĶ":7006,"Æł":7007,"Ġ00":7008,"ĠuyÃªn":7009,"Ġáº£m":7010,"ĠÃºt":7011,"áº¨n":7012,"Ġcomp":7013,"ĠÄĳÅ©a":7014,"Ġnung":7015,"Ġná»įc":7016,"ĠvÃ£n":7017,"Ġlanh":7018,"Ġmau":7019,"Ġbiáº¿ng":7020,"Ġson":7021,"ĠsÆ°ng":7022,"Ġgáº·t":7023,"ĠgÃ¢n":7024,"Ġgra":7025,"Ġthá»¥c":7026,"ĠrÃ¡n":7027,"Ġdá»ĳt":7028,"Ġdáº·n":7029,"Ġhá»Ŀi":7030,"Ġchá»Ńng":7031,"any":7032,"che":7033,"Ġnháº£m":7034,"ont":7035,"Ġcháº¯t":7036,"ĠnhÃ¬":7037,"Ġháº±n":7038,"ĠMáº¯t":7039,"ĠMed":7040,"ĠMak":7041,"ĠMeyer":7042,"emala":7043,"ĠNá»Ļi":7044,"ĠBil":7045,"ĠBah":7046,"ĠloÃ£ng":7047,"ĠHong":7048,"ĠHÆ¡n":7049,"ĠHas":7050,"ĠÄĲáº¥y":7051,"ĠÄĲáº¡t":7052,"ĠAil":7053,"ĠAli":7054,"ĠSho":7055,"ĠSáº¯p":7056,"ars":7057,"arry":7058,"ĠPu":7059,"ĠKay":7060,"ĠLáº¡i":7061,"ĠLen":7062,"ĠLab":7063,"ĠLoÃłi":7064,"ĠLike":7065,"ĠGay":7066,"ĠGáº§n":7067,"ĠGer":7068,"ĠGiÃª":7069,"ĠTrÆ°á»Łng":7070,"ĠDAR":7071,"ĠÃ¡t":7072,"esa":7073,"esk":7074,"elli":7075,"ĠIx":7076,"ĠVÅ©":7077,"ĠVik":7078,"atemala":7079,"Ġ47":7080,"ĠJud":7081,"Ġvá»¥ng":7082,"ason":7083,"its":7084,"ĠWh":7085,"ĠEng":7086,"ĠEast":7087,"ĠEss":7088,"hoa":7089,"Ġ67":7090,"oman":7091,"ĠOtt":7092,"ĠYves":7093,"ĠChÆ°Æ¡ng":7094,"ĠChernobyl":7095,"ĠkÃ©n":7096,"Ġ84":7097,"rir":7098,"rof":7099,"Ġ10000":7100,"ĠStone":7101,"aha":7102,"thony":7103,"ĠUCL":7104,"loud":7105,"ĠAll":7106,"Tá»«ng":7107,"oux":7108,"ĠNhiÃªn":7109,"tral":7110,"Ġfoot":7111,"ĠMary":7112,"extin":7113,"insky":7114,"awi":7115,"ĠVá»¥":7116,"Bá»ı":7117,"ĠCaltech":7118,"ĠHarlem":7119,"ĠSanta":7120,"ĠIrag":7121,"Ġluáº©n":7122,"ĠPalm":7123,"ĠMoMA":7124,"ĠKhoáº£ng":7125,"ĠAbu":7126,"astian":7127,"oko":7128,"ĠxÃ©n":7129,"ĠJuli":7130,"ĠFree":7131,"ĠTora":7132,"NháºŃn":7133,"ThÃ¡ch":7134,"Dá»ĭch":7135,"ĠLatinh":7136,"vá»ģ":7137,"ĠJonas":7138,"sterdam":7139,"ĠKhá»ĳi":7140,"ĠAhmed":7141,"ĠWilliams":7142,"ĠWhite":7143,"ĠTitus":7144,"colate":7145,"ĠLoan":7146,"ĠLangley":7147,"Speech":7148,"ĠMozart":7149,"Robert":7150,"Ġpheromone":7151,"ĠOprah":7152,"shire":7153,"ĠTahrir":7154,"ĠPepsi":7155,"ĠMitchell":7156,"Ġprogeria":7157,"ĠGehry":7158,"ĠTenness":7159,"ĠDolby":7160,"BÃŃ":7161,"Báº¥y":7162,"Báº£y":7163,"CP":7164,"ChÃºc":7165,"DR":7166,"Dáº§u":7167,"DÃ¹ng":7168,"EG":7169,"Hans":7170,"IPA":7171,"LÃªn":7172,"Lee":7173,"MÃ´i":7174,"Má»Ł":7175,"MED":7176,"MRI":7177,"SM":7178,"TáºŃp":7179,"Táº¡p":7180,"Tho":7181,"Tom":7182,"Talk":7183,"ZK":7184,"ban":7185,"cm":7186,"cÃ¢u":7187,"cia":7188,"jev":7189,"ject":7190,"ki":7191,"kansas":7192,"lot":7193,"mud":7194,"moud":7195,"ois":7196,"rew":7197,"sin":7198,"syl":7199,"stein":7200,"yon":7201,"¬a":7202,"Ġis":7203,"Ġaw":7204,"ım":7205,"Ġtáº¥u":7206,"ĠtÃºp":7207,"ĠtuÃ´n":7208,"Ġcá»Ļi":7209,"ĠcáºŃt":7210,"Ġcello":7211,"Ġcopy":7212,"ĠÄĳáº¥m":7213,"ĠÄĳÃ¹i":7214,"ĠnhÃºt":7215,"Ġnoi":7216,"ĠnÃ¡u":7217,"ĠvÃ¡ng":7218,"Ġláº§u":7219,"ĠmÃŃ":7220,"ĠsÃªn":7221,"Ġsáº£o":7222,"Ġtru":7223,"ĠngÃ³":7224,"ĠngÆ¡":7225,"Ġngáº¥t":7226,"Ġngáº¥m":7227,"Ġrá»Ļ":7228,"ĠrÆ¡":7229,"Ġpen":7230,"Ġnhoi":7231,"ĠchiÃªu":7232,"Ġthiá»ĥn":7233,"Ġxao":7234,"Ġchá»¯ng":7235,"ote":7236,"ano":7237,"Ġgiá»Ł":7238,"ĠTu":7239,"ĠTá»Ń":7240,"ĠTob":7241,"ĠTarah":7242,"ĠhoÃ¡n":7243,"ĠhoÃ³c":7244,"ĠcháºŃ":7245,"ĠhÃ³t":7246,"ĠCáº§n":7247,"ĠCáº£nh":7248,"ĠCoo":7249,"Ġsá»¥c":7250,"Ġsá»¥n":7251,"Ġsá»§a":7252,"Ġphá»ĵn":7253,"Ġbá»ĭa":7254,"Ġkhoáº£":7255,"Ġkhoanh":7256,"ĠkhoÃ¡t":7257,"ĠNov":7258,"ĠNBA":7259,"ĠBo":7260,"ĠBuá»ķi":7261,"Ġloang":7262,"ĠHi":7263,"ĠHáº¡":7264,"ĠHun":7265,"ĠSá»¹":7266,"ĠSis":7267,"ĠSara":7268,"Ġdoo":7269,"Ġyo":7270,"ĠPy":7271,"ĠPor":7272,"ĠPas":7273,"ĠKáº»":7274,"ĠLáºŃp":7275,"ĠLas":7276,"Ġá»ľ":7277,"ĠGol":7278,"ĠGri":7279,"ĠGary":7280,"ĠTriá»ĥn":7281,"ĠDáº¡":7282,"ĠDiana":7283,"Trá»«":7284,"ĠRyan":7285,"eline":7286,"ĠVua":7287,"ats":7288,"Ġrá»ĩ":7289,"Ġrá»¥i":7290,"Ġ41":7291,"ĠÃģn":7292,"asa":7293,"aster":7294,"ĠWoo":7295,"ĠFed":7296,"ĠEcon":7297,"ĠNgÆ°Æ¡i":7298,"Ġ6000":7299,"adi":7300,"ĠOoh":7301,"obo":7302,"ĠChÆ°a":7303,"ĠChen":7304,"ĠTEDWomen":7305,"ĠTEDMED":7306,"ĠChÃ¢n":7307,"Ġdaf":7308,"Ġwatt":7309,"ĠStein":7310,"iger":7311,"ingo":7312,"ĠAlfred":7313,"Tá»ĩ":7314,"aki":7315,"ough":7316,"ĠKá»·":7317,"ĠKá»ĥ":7318,"umara":7319,"icholas":7320,"ĠChá»Ŀ":7321,"ĠChá»ĳng":7322,"ĠThÃ¡p":7323,"epler":7324,"artz":7325,"ĠArkansas":7326,"ookie":7327,"ipp":7328,"KhÃ¡i":7329,"ĠHarry":7330,"achus":7331,"Phong":7332,"Ġblogger":7333,"ĠnhoÃ¡ng":7334,"ĠColl":7335,"ĠNhÃ³m":7336,"inder":7337,"ĠPhong":7338,"ĠPalextin":7339,"ĠRose":7340,"etts":7341,"ĠThÃŃ":7342,"Nhá»Ľ":7343,"ĠLiberia":7344,"vania":7345,"Ġ360":7346,"ĠGuatemala":7347,"ĠSamuel":7348,"dyss":7349,"Ġkáº½m":7350,"ĠNorman":7351,"untu":7352,"ĠUnivers":7353,"ĠMoses":7354,"ĠOscar":7355,"Internet":7356,"ĠMatthew":7357,"ĠIreland":7358,"ĠGilbert":7359,"ĠPennsyl":7360,"ĠESG":7361,"ĠBloom":7362,"ĠviÃªc":7363,"ĠAilen":7364,"ĠEssex":7365,"ĠToraja":7366,"ĠTennessee":7367,"ĠTarahumara":7368,"ĠCooper":7369,"ĠPennsylvania":7370,"300":7371,"98":7372,"AS":7373,"Bay":7374,"CÆ°á»Ŀi":7375,"DI":7376,"Fre":7377,"Hz":7378,"Há»Ļi":7379,"PP":7380,"Point":7381,"Robot":7382,"TD":7383,"TÃ¬m":7384,"Táº§m":7385,"Well":7386,"Yeah":7387,"box":7388,"cam":7389,"dre":7390,"ders":7391,"fli":7392,"gg":7393,"gen":7394,"gie":7395,"hr":7396,"ios":7397,"kar":7398,"leton":7399,"má»įi":7400,"pson":7401,"táº¡i":7402,"tail":7403,"uch":7404,"vi":7405,"«m":7406,"Ġar":7407,"Ġest":7408,"áº©ng":7409,"ĠÄ©":7410,"ĠÄĳáº£":7411,"ĠÄĳong":7412,"ĠÄĳáº§n":7413,"Ġnáº¡i":7414,"Ġneo":7415,"Ġnáº¡t":7416,"Ġnáº¥p":7417,"ĠnÃ¡ch":7418,"ĠnÃºm":7419,"Ġváº¥p":7420,"ĠlÃ¬nh":7421,"Ġlá»ĳc":7422,"Ġluá»ĵn":7423,"ĠlÃ³ng":7424,"Ġmem":7425,"ĠmÄĥng":7426,"Ã´c":7427,"ĠsÃłnh":7428,"ĠsÃ²":7429,"ĠngÃ²i":7430,"Ġráº§u":7431,"ĠrÃ¢m":7432,"Ġráº¯m":7433,"Ġráº«y":7434,"ĠdÃ©p":7435,"ĠÄĳá»ħ":7436,"Ġcá»ĵng":7437,"Ġcá»£t":7438,"ĠthuyÃªn":7439,"Ġhá»īnh":7440,"ĠthÃ©t":7441,"Ġchocolate":7442,"chi":7443,"ĠTÃ¡m":7444,"ĠTso":7445,"Ġhop":7446,"aire":7447,"ĠhÃ¹":7448,"Ġná»ĥ":7449,"ĠCa":7450,"ĠCom":7451,"ĠChÃºc":7452,"Ġtour":7453,"ĠMÃ£":7454,"ĠMÆ°á»Ŀi":7455,"ĠMÃłu":7456,"ĠMid":7457,"ĠMathem":7458,"ĠkhoÃ©":7459,"ĠNar":7460,"ĠNÃ£o":7461,"ĠBÃ³ng":7462,"ĠBow":7463,"erat":7464,"ĠHot":7465,"ĠHiá»ĩu":7466,"ĠHamp":7467,"ĠHind":7468,"aman":7469,"ĠÄĲÃ¢u":7470,"ĠÄĲá»Ļc":7471,"ĠAz":7472,"ĠAye":7473,"ĠSá»Ł":7474,"ĠSÃ¡ch":7475,"ĠSri":7476,"ĠSOPA":7477,"ĠPic":7478,"ĠPart":7479,"ĠPost":7480,"ĠKÃ´ng":7481,"ĠKer":7482,"ĠKiá»ĥm":7483,"ĠKab":7484,"ĠKent":7485,"ĠLev":7486,"ĠLáº¡y":7487,"Ġvá»ĭn":7488,"Ġá»Ŀ":7489,"Ġngá»Ŀi":7490,"ĠGG":7491,"ĠGit":7492,"ĠGraham":7493,"ĠDai":7494,"ĠDiá»ħn":7495,"ĠDor":7496,"ĠDun":7497,"esc":7498,"ĠRu":7499,"ĠRow":7500,"ĠRiv":7501,"elt":7502,"elle":7503,"ets":7504,"ĠIK":7505,"atica":7506,"Ġrá»£":7507,"icut":7508,"ĠJar":7509,"ilot":7510,"iley":7511,"ites":7512,"itra":7513,"ĠWin":7514,"ĠWood":7515,"ĠFound":7516,"adore":7517,"adda":7518,"Ġvá»ĩt":7519,"ĠOl":7520,"ĠOdyss":7521,"Ġ76":7522,"ĠHopkins":7523,"ĠTEDTalk":7524,"Ġ94":7525,"ebastian":7526,"Giá»¯a":7527,"Tham":7528,"Thuá»ĳc":7529,"Ġwater":7530,"Chu":7531,"Chuyáº¿n":7532,"ĠIntel":7533,"Ġ1500":7534,"ĠnghiÃ£":7535,"agu":7536,"ĠbÃŃp":7537,"eyn":7538,"ĠAlan":7539,"ĠThá»Ń":7540,"out":7541,"Ġ1800":7542,"Hoáº¡t":7543,"trol":7544,"ĠMaryl":7545,"ĠMarsh":7546,"ĠChá»©c":7547,"ĠThÃ¡ng":7548,"Pháº£n":7549,"Ġtháº§u":7550,"ĠBrand":7551,"ĠBrad":7552,"ĠBruce":7553,"ĠShah":7554,"ĠCarr":7555,"ĠCarter":7556,"ĠJohns":7557,"Ġ2013":7558,"KhÃ¡c":7559,"Ġgamma":7560,"ĠAmsterdam":7561,"eek":7562,"ĠLanka":7563,"Ġ1985":7564,"Ġ1988":7565,"ambi":7566,"ĠSci":7567,"annah":7568,"oga":7569,"ogy":7570,"itha":7571,"oyager":7572,"ĠBarb":7573,"ĠBarack":7574,"ToÃ¡n":7575,"ĠBeau":7576,"astle":7577,"oke":7578,"ĠCraig":7579,"ĠMalay":7580,"ĠJulie":7581,"ĠBrowne":7582,"ĠChristopher":7583,"ĠPalestin":7584,"ĠKarl":7585,"ĠGoering":7586,"Ġngá»«Æ¡i":7587,"ecticut":7588,"Stephen":7589,"ĠBayes":7590,"everly":7591,"ĠSioux":7592,"ĠMiller":7593,"colm":7594,"Ġmilimet":7595,"ĠIráº¯c":7596,"ĠYoung":7597,"ĠWeibo":7598,"ĠAustr":7599,"moor":7600,"ĠPowerPoint":7601,"ĠHiroshi":7602,"stone":7603,"ĠThula":7604,"holm":7605,"ĠScratch":7606,"ĠConnecticut":7607,"ĠKibera":7608,"ĠJamaica":7609,"Ġglucose":7610,"ĠUCLA":7611,"ĠFreeSpeech":7612,"jevo":7613,"lotte":7614,"ĠcháºŃu":7615,"Ġrá»ĩp":7616,"achusetts":7617,"flix":7618,"ĠMathematica":7619,"ĠMaryland":7620,"16":7621,"AT":7622,"Be":7623,"Buá»ĵn":7624,"Bob":7625,"Ca":7626,"CÆ¡n":7627,"CÃº":7628,"Diá»ħn":7629,"Google":7630,"KB":7631,"Miá»ħn":7632,"OC":7633,"OS":7634,"Qaeda":7635,"SF":7636,"Sáº£n":7637,"VÃ¢y":7638,"aa":7639,"cáº£m":7640,"dit":7641,"eus":7642,"horn":7643,"kh":7644,"lau":7645,"mÃ©t":7646,"mond":7647,"minder":7648,"oon":7649,"phÃ":7650,"ráº¥t":7651,"ress":7652,"su":7653,"sá»±":7654,"uh":7655,"uchia":7656,"vin":7657,"wa":7658,"west":7659,"wait":7660,"xter":7661,"yte":7662,"yme":7663,"©y":7664,"Ã©c":7665,"Ã§a":7666,"ĠÆ°Æ¡m":7667,"ķng":7668,"Ġcáº·n":7669,"Ġcock":7670,"ĠÄĳÆ°á»Ľc":7671,"ĠnÃ¨":7672,"Ġvon":7673,"Ġváº¡t":7674,"ĠvÆ°á»£n":7675,"ĠlÆ°":7676,"Ġlá»Ł":7677,"ĠlÃµm":7678,"Ġmeg":7679,"ĠbÃ´":7680,"Ġsuyá»ħn":7681,"ĠtrÆ¡":7682,"ĠtrÆ°á»Ľng":7683,"ĠngÃł":7684,"ĠngÃµ":7685,"ĠngÃ³c":7686,"Ġngáº©ng":7687,"Ġráº§m":7688,"Ġpar":7689,"Ġdáº¿":7690,"Ġdem":7691,"Ġdáº¡t":7692,"Ġdáº±n":7693,"Ġcá»ıi":7694,"ĠquÃ¢y":7695,"Ġquáº·ng":7696,"ĠgiÃ´ng":7697,"Ġgiá»ı":7698,"ĠmÃło":7699,"ĠTÃ¢n":7700,"ĠTáºŃp":7701,"ĠTar":7702,"ĠTáº¡m":7703,"oney":7704,"ĠkhÃ¡nh":7705,"aomi":7706,"ĠcháºŃp":7707,"ĠchÃ¨o":7708,"ĠchÃ¨n":7709,"ĠhÃª":7710,"ĠhÃ³m":7711,"ÄĲá»Ļi":7712,"Ġná»ī":7713,"ĠCá»ĳ":7714,"ĠCro":7715,"ĠCIA":7716,"Nhiáº¿p":7717,"ĠMÃły":7718,"ĠMen":7719,"ĠMir":7720,"ĠMBA":7721,"hio":7722,"ĠNI":7723,"ĠNi":7724,"ĠBá»įn":7725,"ĠBÃ¡o":7726,"ĠBach":7727,"ĠBBC":7728,"Ġloanh":7729,"ĠHá»ĵ":7730,"ĠHaz":7731,"ĠHut":7732,"ĠÄĲá»ĳc":7733,"ĠSa":7734,"ĠSai":7735,"ĠSel":7736,"iag":7737,"arin":7738,"Ġyoga":7739,"Ġphiá»ĩt":7740,"ĠPit":7741,"ĠPur":7742,"ĠPIPA":7743,"ĠKos":7744,"ĠKiva":7745,"ĠKepler":7746,"ĠLeo":7747,"ĠLá»Ŀi":7748,"ĠLimb":7749,"Ġngá»£m":7750,"ĠGul":7751,"ĠTrÃŃ":7752,"Ġxua":7753,"oro":7754,"ĠDanh":7755,"ĠDave":7756,"Truyá»ģn":7757,"alie":7758,"osev":7759,"ĠRem":7760,"ĠRho":7761,"ely":7762,"etas":7763,"Ngoáº¡i":7764,"ĠImp":7765,"Tháº§y":7766,"ĠVáº«n":7767,"ise":7768,"atÃ´ng":7769,"atma":7770,"icerat":7771,"ĠJean":7772,"ĠJustin":7773,"ape":7774,"apminder":7775,"ĠÃįt":7776,"itic":7777,"ĠWy":7778,"ĠWis":7779,"ĠWind":7780,"Ġ1991":7781,"Ġ1993":7782,"lev":7783,"ĠNguá»ĵn":7784,"ady":7785,"ĠOxy":7786,"ĠThanh":7787,"urn":7788,"Ġ7000":7789,"Ġ89":7790,"ĠTEDster":7791,"ĠchÃ¡nh":7792,"unch":7793,"roÃ§a":7794,"Vá»Ĺ":7795,"ĠÄĲá»£i":7796,"reat":7797,"ĠInst":7798,"ĠStand":7799,"ope":7800,"ĠXáº¿p":7801,"ĠAlg":7802,"ĠThá»ĭ":7803,"Äĳá»":7804,"Äĳáº¿n":7805,"hane":7806,"ĠGiao":7807,"ĠchÃ³t":7808,"owan":7809,"iflu":7810,"ĠQuáº£":7811,"Giao":7812,"ĠShar":7813,"Ġproton":7814,"ipcar":7815,"ĠHarris":7816,"phua":7817,"ovo":7818,"Ġruá»Ļng":7819,"Ġ1986":7820,"ĠChild":7821,"ĠScoop":7822,"ĠTweet":7823,"ĠBaxter":7824,"nÃ³i":7825,"asso":7826,"ĠCharlotte":7827,"ĠRobinson":7828,"ĠMonter":7829,"ĠGreg":7830,"ortis":7831,"Ġmá»ĵm":7832,"ĠLá»ħ":7833,"ĠNauy":7834,"ĠMax":7835,"organ":7836,"Ġ1940":7837,"ĠIndiana":7838,"ĠLibÄĥng":7839,"ĠDiet":7840,"uke":7841,"ĠGuard":7842,"ĠWalmart":7843,"ĠCoch":7844,"Ġká»ģnh":7845,"ĠDá»ĭch":7846,"ĠBonnet":7847,"rogen":7848,"ĠmaratÃ´ng":7849,"ĠWilson":7850,"ĠMelinda":7851,"Carol":7852,"ĠTamiflu":7853,"ĠJacqu":7854,"ĠLinux":7855,"ĠNoel":7856,"ĠPhillip":7857,"Ġeuro":7858,"ĠBroadmoor":7859,"NCRA":7860,"ĠGrant":7861,"ĠqÃºi":7862,"Ġchá»Ļp":7863,"ĠHomo":7864,"ĠTunisia":7865,"ĠCentral":7866,"ĠMoham":7867,"má»Ĺi":7868,"Ġcatadore":7869,"ĠPapua":7870,"ĠBahamas":7871,"ĠIxaren":7872,"ĠEngland":7873,"ĠSarajevo":7874,"ĠEconom":7875,"ĠIKEA":7876,"ĠFoundation":7877,"ĠMalaysia":7878,"ĠAustralia":7879,"Ġcocktail":7880,"iceratops":7881,"24":7882,"29":7883,"AA":7884,"Ah":7885,"At":7886,"Bon":7887,"BÃ¡nh":7888,"ET":7889,"Hi":7890,"Is":7891,"Jeff":7892,"Kevin":7893,"LÃŃ":7894,"Náº¡n":7895,"Prin":7896,"Quá»ĳc":7897,"TB":7898,"TH":7899,"Tinh":7900,"TÃ¢m":7901,"TiÃªu":7902,"Tá»ĳc":7903,"Ung":7904,"Viá»ĩn":7905,"VáºŃn":7906,"Wow":7907,"Yáº¿u":7908,"bes":7909,"bus":7910,"cer":7911,"eu":7912,"fer":7913,"fus":7914,"gan":7915,"gey":7916,"gram":7917,"hn":7918,"hy":7919,"ju":7920,"jan":7921,"kim":7922,"kho":7923,"lÃ´":7924,"ofi":7925,"pin":7926,"rl":7927,"rett":7928,"tes":7929,"thia":7930,"viá»ĩc":7931,"val":7932,"vet":7933,"vent":7934,"yota":7935,"zero":7936,"¢t":7937,"Ġad":7938,"Ġep":7939,"Ķn":7940,"ĠtÃºm":7941,"ĠcÃ²":7942,"Ġcoc":7943,"Ġcortis":7944,"ĠÄĳÄĥ":7945,"ĠÄĳÃ¹ng":7946,"ĠÄĳuá»":7947,"Ġni":7948,"Ġlá»Ļc":7949,"Ġbá»Ł":7950,"ĠbÃ¹a":7951,"Ġsh":7952,"Ġsáº§u":7953,"Ġsen":7954,"Ġsal":7955,"ĠtrÅ©ng":7956,"ĠtrÃ²ng":7957,"Ġgt":7958,"Ġganh":7959,"Ġgeo":7960,"ĠgÃ£i":7961,"ĠhÅ©":7962,"Ġthá»ģm":7963,"Ãªt":7964,"ĠrÃ¹ng":7965,"ĠrÄĥn":7966,"ĠrÃ³t":7967,"ĠrÃ¨m":7968,"Ġpa":7969,"ĠdÃ³":7970,"ĠdÃŃ":7971,"Ġdáº·t":7972,"ĠdiÃªm":7973,"Ġnhan":7974,"Ġnhung":7975,"Ġnhen":7976,"Ġvá»ĵng":7977,"Ġvá»Ľt":7978,"Ġchk":7979,"Ġchang":7980,"ĠchÅ©ng":7981,"ĠchÆ°ng":7982,"Ġchuá»ĵn":7983,"Ġchat":7984,"ĠchÄ©a":7985,"Ġnhá»ĳi":7986,"Ġtá»£n":7987,"ĠnÃłnh":7988,"Ġxiáº¿t":7989,"anistan":7990,"Ġrain":7991,"Ġbá»«a":7992,"ĠTÃłng":7993,"ĠTÆ°á»Łng":7994,"ĠTáº¡p":7995,"ĠTib":7996,"ĠnÄĥn":7997,"ĠnhÃŃm":7998,"ĠnhÃ³t":7999,"ĠnhÃµm":8000,"ĠCá»±u":8001,"Ġsá»ĵi":8002,"á»ĵn":8003,"Ġtoken":8004,"ĠMP":8005,"ĠMÃ´ng":8006,"ĠMao":8007,"ĠMob":8008,"ĠMell":8009,"ĠMeg":8010,"ĠMull":8011,"ĠNG":8012,"ĠNin":8013,"ĠNÄĥng":8014,"ĠNico":8015,"ĠBP":8016,"ĠBiáº¿n":8017,"ĠBÃ¡n":8018,"ĠBre":8019,"ery":8020,"ĠHit":8021,"ĠHum":8022,"ĠÄĲÃ¡ng":8023,"ĠAst":8024,"ĠSI":8025,"ĠSuy":8026,"ĠSur":8027,"ĠSolly":8028,"arak":8029,"ĠphÆ°á»Ľc":8030,"ĠPC":8031,"ĠPe":8032,"ĠPo":8033,"ĠPac":8034,"ĠPilot":8035,"ĠKáº¿":8036,"ĠKas":8037,"ĠKid":8038,"ĠKins":8039,"ĠKate":8040,"ĠLA":8041,"ĠLy":8042,"Ġá»¨ng":8043,"ĠGe":8044,"ĠGÃ¬":8045,"ĠGwen":8046,"ĠGapminder":8047,"ĠTriceratops":8048,"orth":8049,"ĠDJ":8050,"ĠDÃ¢y":8051,"ĠDem":8052,"ĠDur":8053,"ĠDean":8054,"ĠDonald":8055,"Trá»įng":8056,"imÃ©t":8057,"osphere":8058,"ĠReb":8059,"ĠRub":8060,"ĠRec":8061,"ĠReg":8062,"ĠRivers":8063,"ĠRachel":8064,"elyn":8065,"Ġ56":8066,"ĠVel":8067,"ĠViv":8068,"ĠVÆ°á»Ŀn":8069,"ĠVoyager":8070,"isco":8071,"atan":8072,"Ġrá»¯a":8073,"ĠJava":8074,"Ġdiox":8075,"ĠWang":8076,"ĠWol":8077,"ĠWide":8078,"ĠFlick":8079,"ĠEvan":8080,"ĠEEG":8081,"Ġ101":8082,"Ġ1920":8083,"Ġ1918":8084,"ader":8085,"ĠOw":8086,"ĠOhio":8087,"ĠThuyáº¿t":8088,"ĠChu":8089,"Ġ750":8090,"Ġlab":8091,"Ġgá»ī":8092,"ĠÄĲá»©a":8093,"Ġwoo":8094,"Ġwow":8095,"Christ":8096,"Chá»¥p":8097,"ĠUp":8098,"ĠUt":8099,"agas":8100,"load":8101,"Ġsul":8102,"ĠAlt":8103,"ohen":8104,"Ġnhuáº§n":8105,"Ġ187":8106,"Ġ188":8107,"umann":8108,"Ġ401":8109,"ĠoÃł":8110,"ĠMarc":8111,"ĠMars":8112,"ĠMaria":8113,"ĠMargaret":8114,"Ġ2500":8115,"ĠChá»¯":8116,"ubarak":8117,"ĠBroth":8118,"arty":8119,"ĠShaw":8120,"Ġ2015":8121,"ffiti":8122,"Ġ1983":8123,"ĠChim":8124,"anne":8125,"linois":8126,"Ġ1973":8127,"Ġ1979":8128,"ĠColor":8129,"ĠRobb":8130,"ĠBá»ı":8131,"ĠPhotoshop":8132,"ĠMichel":8133,"Ġ1965":8134,"rene":8135,"ĠTháºŃm":8136,"ĠBilly":8137,"Ġjihad":8138,"etty":8139,"ĠNá»ķ":8140,"ĠNá»Ĺi":8141,"ynthia":8142,"ĠCru":8143,"ĠCritic":8144,"ĠRezero":8145,"PhÃ³ng":8146,"PhÃ²ng":8147,"ĠNháºŃn":8148,"cÃ´la":8149,"ĠClark":8150,"tsburgh":8151,"ĠWales":8152,"thá»©":8153,"thá»Ŀi":8154,"ĠAccent":8155,"Marco":8156,"Ġ1957":8157,"ĠWater":8158,"ĠBuff":8159,"ĠMahmoud":8160,"ĠMahatma":8161,"Charlie":8162,"KhÃŃ":8163,"Arthur":8164,"ĠBiosphere":8165,"ĠLinus":8166,"Ġenzyme":8167,"ĠvÃ£nh":8168,"lashy":8169,"ĠgoÃ¡":8170,"ĠAgnes":8171,"ĠGeorgia":8172,"ĠJennifer":8173,"ĠHirsh":8174,"Ġblah":8175,"ĠCampuchia":8176,"ĠNetflix":8177,"ĠIMF":8178,"ocrates":8179,"Ġamino":8180,"ĠprÃ´tein":8181,"Ġnguá»Ŀi":8182,"ĠthÃ¢y":8183,"ĠMassachusetts":8184,"ĠArchie":8185,"ĠFriedman":8186,"Ká»³":8187,"ĠAurora":8188,"ĠRussell":8189,"ĠGordon":8190,"ĠIllinois":8191,"ĠVinci":8192,"ĠStockholm":8193,"ĠDenisov":8194,"Ġgraffiti":8195,"ĠrÆ¡m":8196,"ĠHunter":8197,"ĠSisy":8198,"Ġestrogen":8199,"ĠHampshire":8200,"ĠKabul":8201,"ĠOdysseus":8202,"ĠHiroshima":8203,"ĠPittsburgh":8204,"ĠMonterey":8205,"ĠGuardian":8206,"ĠCochrane":8207,"Prince":8208,"Ġcortisol":8209,"ĠMellon":8210,"ĠFlickr":8211,"ĠAccenture":8212,"17":8213,"400":8214,"65":8215,"66":8216,"800":8217,"95":8218,"Ad":8219,"BR":8220,"BÃłn":8221,"Brian":8222,"CT":8223,"DJ":8224,"Dáº¥u":8225,"DÃ²ng":8226,"Gáº¥p":8227,"Iá»":8228,"Jay":8229,"Lá»±c":8230,"Lá»±a":8231,"MM":8232,"Ná»Ļi":8233,"Pat":8234,"RN":8235,"Sang":8236,"TT":8237,"TÆ°":8238,"Tai":8239,"Váº»":8240,"aff":8241,"bab":8242,"cáº£":8243,"cas":8244,"corn":8245,"ds":8246,"dÃ¹":8247,"dor":8248,"eed":8249,"ior":8250,"ji":8251,"ku":8252,"lam":8253,"lic":8254,"lair":8255,"ment":8256,"nick":8257,"oac":8258,"rk":8259,"ráºŃp":8260,"rass":8261,"wick":8262,"xon":8263,"yle":8264,"zone":8265,"·ng":8266,"ĠhÃº":8267,"Ġau":8268,"ĠÃºp":8269,"Ġáº¯p":8270,"Ġusd":8271,"ĠÆł":8272,"á»¯":8273,"ĠtÃ©":8274,"Ġten":8275,"Ġcou":8276,"Ġciv":8277,"ĠÄĳÃªn":8278,"ĠvÆ¡":8279,"ĠlÃº":8280,"Ġláº¹":8281,"Ġmm":8282,"ĠmÃ³":8283,"ĠmÃ¹ng":8284,"Ġmáº¯ng":8285,"Ġbeat":8286,"ĠbiÃªt":8287,"Ġsex":8288,"ĠtrÄĥn":8289,"Ġtrans":8290,"Ġngáº§u":8291,"ĠngÆ°á»£ng":8292,"Ġngáº¡t":8293,"ĠgÃłng":8294,"Ġgoogle":8295,"Ġhuyá»ĩn":8296,"ĠrÃªn":8297,"ĠnhÃłn":8298,"quez":8299,"Ġvá»ĥ":8300,"Ġvá»¥t":8301,"Ġchao":8302,"Ġchuá»Ļc":8303,"Ġnhá»©ng":8304,"Ġhá»ĳt":8305,"Ġkhay":8306,"Ġchá»«":8307,"Ġchá»«a":8308,"ĠthÃ²i":8309,"anc":8310,"Ġrao":8311,"Ġgiá»Ŀi":8312,"chan":8313,"Ġnháº§y":8314,"Ä©u":8315,"ĠTai":8316,"ĠTuyÃªn":8317,"ĠTÃłu":8318,"ĠTod":8319,"onia":8320,"onie":8321,"ais":8322,"aiza":8323,"Ġcháº§n":8324,"ĠchÃ©m":8325,"ĠhÃ©o":8326,"ÄĲo":8327,"ÄĲáº¡o":8328,"ÄĲÃªm":8329,"ĠnghÄ©nh":8330,"ĠCod":8331,"ĠCass":8332,"ĠComp":8333,"ĠClev":8334,"ĠCohen":8335,"Ġsá»¯ng":8336,"Ġphá»ī":8337,"ĠphÃ¡ch":8338,"Nhu":8339,"Nhiá»ĩt":8340,"ĠtoÃ¡i":8341,"ĠMard":8342,"ĠMedia":8343,"ĠMBI":8344,"ĠMubarak":8345,"ema":8346,"Ġtrá»Ŀ":8347,"ĠNat":8348,"ĠNáº¥m":8349,"ĠNik":8350,"ĠNev":8351,"ĠBÃŃ":8352,"ĠBÆ°á»Ľc":8353,"ĠBit":8354,"ĠBand":8355,"ĠBÃ¡nh":8356,"ĠBart":8357,"ĠBalk":8358,"uá»ĩ":8359,"erk":8360,"ĠHon":8361,"ĠHey":8362,"ĠHud":8363,"ĠHmm":8364,"ams":8365,"amie":8366,"ĠÄĲang":8367,"ĠÄĲÃłn":8368,"ĠÄĲÆ°Æ¡ng":8369,"ĠÄĲáº£o":8370,"ĠÄĲÃªm":8371,"ĠABC":8372,"Ġkhá»©u":8373,"ĠSW":8374,"ĠSar":8375,"ĠSag":8376,"ĠSinc":8377,"ĠSáºµn":8378,"ĠSobule":8379,"Ġkháº¯t":8380,"ĠmÃ¡ch":8381,"Ġyáº¿n":8382,"Ġphoton":8383,"ĠPia":8384,"ĠPho":8385,"ĠPach":8386,"ĠPerry":8387,"Ġháº¡c":8388,"ĠKap":8389,"ĠKir":8390,"ĠLáº¥y":8391,"ĠLes":8392,"ĠLuáºŃn":8393,"ĠLiz":8394,"ĠLyn":8395,"ĠLake":8396,"Ġngá»¡":8397,"ĠGard":8398,"ĠGilli":8399,"ĠGlad":8400,"Ġ39":8401,"ĠTrá»Ł":8402,"ĠTrÃ²":8403,"ĠDD":8404,"ĠDeb":8405,"ĠDanny":8406,"esar":8407,"esome":8408,"ĠRab":8409,"ĠRich":8410,"ĠRep":8411,"ĠVÃłi":8412,"ĠVÃłng":8413,"Ġsofa":8414,"ĠViá»ħn":8415,"Ġrá»£n":8416,"icill":8417,"ĠJR":8418,"ĠJoh":8419,"ĠJihad":8420,"ĠJason":8421,"ileo":8422,"ĠFul":8423,"ĠEb":8424,"ĠEDI":8425,"tern":8426,"house":8427,"ĠNguy":8428,"ĠNgÃ´n":8429,"Ġtuá»Ļt":8430,"acre":8431,"hÃ¡n":8432,"adus":8433,"ĠPhilipp":8434,"ĠChin":8435,"ĠChurch":8436,"---":8437,"raft":8438,"ĠHouse":8439,"liot":8440,"Ġ8000":8441,"Ġlaze":8442,"ÄĲá»©c":8443,"ÄĲá»ĭnh":8444,"Ġgá»£n":8445,"Thu":8446,"ThiÃªn":8447,"unes":8448,"Vá»£":8449,"Vá»¥":8450,"ĠÄĲá»©ng":8451,"Chuyá»ĥn":8452,"ĠStudio":8453,"idro":8454,"ĠUng":8455,"ĠXe":8456,"lock":8457,"tonia":8458,"Tá»·":8459,"ĠGian":8460,"umi":8461,"Ġlá»ĵi":8462,"iki":8463,"Ġfor":8464,"ĠMarco":8465,"ords":8466,"ryn":8467,"ryst":8468,"ĠAnthony":8469,"ĠTá»«ng":8470,"uten":8471,"Giáº¥c":8472,"egal":8473,"dez":8474,"ĠAfganistan":8475,"ĠuÃ½":8476,"ucky":8477,"ĠSheph":8478,"ffe":8479,"Bá»Ĺng":8480,"Ġbá»ķn":8481,"ĠâĢĭ":8482,"ĠKend":8483,"ĠhÃ²m":8484,"ĠCanyon":8485,"ĠChia":8486,"Khoáº£nh":8487,"PhiÃªn":8488,"ĠnhÃ¡p":8489,"ĠToyota":8490,"stan":8491,"stream":8492,"eka":8493,"ThÃ´i":8494,"ĠHyder":8495,"rice":8496,"Ġ1962":8497,"ĠBlu":8498,"ĠTháº§y":8499,"ĠBaref":8500,"ĠJoey":8501,"ĠeBay":8502,"uga":8503,"ĠJamie":8504,"Ná»Ńa":8505,"ĠbÃ¹m":8506,"ĠSchool":8507,"ĠNaj":8508,"ĠHigg":8509,"cken":8510,"ĠReu":8511,"ĠHeh":8512,"Ġmicr":8513,"ĠPhÃŃa":8514,"ĠNeil":8515,"ĠElvis":8516,"ĠKhu":8517,"Ġ1949":8518,"ĠMalawi":8519,"ĠJuan":8520,"celadus":8521,"ĠTransition":8522,"ĠDiam":8523,"ĠRoman":8524,"ĠFreud":8525,"Ġ365":8526,"burn":8527,"yrne":8528,"Andr":8529,"ouri":8530,"ĠClay":8531,"ĠClonie":8532,"ĠVenter":8533,"mmm":8534,"ĠEnceladus":8535,"Dá»ħ":8536,"othy":8537,"ĠChristian":8538,"ĠCERN":8539,"ĠBurn":8540,"Steve":8541,"ĠBono":8542,"ĠOlympics":8543,"nesota":8544,"ĠCape":8545,"ĠSerra":8546,"Ġneu":8547,"ĠnitÆ¡":8548,"ĠEuro":8549,"ĠOsama":8550,"Ġbonobo":8551,"ĠLarry":8552,"ĠReddit":8553,"ĠÂ¼":8554,"ĠnhÃºm":8555,"Ġokay":8556,"ĠHamlet":8557,"Ġá»«m":8558,"ĠCasey":8559,"ĠMinnesota":8560,"ĠMozambi":8561,"ĠARN":8562,"ĠPrize":8563,"ĠDuol":8564,"ĠExxon":8565,"Ġ1858":8566,"Ġhelium":8567,"Ġoxide":8568,"ĠHelen":8569,"ĠElec":8570,"ĠSnow":8571,"ĠOnline":8572,"ĠDavis":8573,"ĠHimalayas":8574,"áº¢nh":8575,"ĠUkraine":8576,"ĠKlein":8577,"Ġhormones":8578,"Martin":8579,"Ġcomplex":8580,"ĠBilbao":8581,"ĠShow":8582,"ĠGayla":8583,"ĠViking":8584,"ĠJudy":8585,"ĠOttoman":8586,"muddin":8587,"Ġpenicill":8588,"ĠPyth":8589,"ĠPicasso":8590,"ĠMarshall":8591,"ĠBarbara":8592,"Ġdemo":8593,"ĠKosovo":8594,"osevelt":8595,"ĠAlgeria":8596,"ĠÄĳuá»£c":8597,"ĠHitler":8598,"ĠRiverside":8599,"ĠColorado":8600,"Ġcivic":8601,"ĠSinclair":8602,"ĠBarefoot":8603,"ĠMozambique":8604,"Ġpenicillin":8605,"37":8606,"48":8607,"59":8608,"AC":8609,"Amy":8610,"BÃ©":8611,"Cáº§u":8612,"Clay":8613,"DE":8614,"Danh":8615,"Dáº§n":8616,"Dar":8617,"EL":8618,"ES":8619,"El":8620,"HO":8621,"JK":8622,"Jac":8623,"KÃŃnh":8624,"LV":8625,"LÅ©":8626,"Larry":8627,"Máº«u":8628,"Mur":8629,"Máº¡ng":8630,"NÃły":8631,"Nathan":8632,"OV":8633,"PL":8634,"Rory":8635,"Sal":8636,"She":8637,"TÃ´n":8638,"Viáº¿t":8639,"Vai":8640,"VÃ²ng":8641,"YÃªu":8642,"bi":8643,"bÃª":8644,"bar":8645,"bul":8646,"chÃ":8647,"cola":8648,"castle":8649,"dad":8650,"dale":8651,"fia":8652,"fri":8653,"gill":8654,"ht":8655,"ii":8656,"ien":8657,"ira":8658,"jec":8659,"kin":8660,"ming":8661,"more":8662,"nders":8663,"oit":8664,"ps":8665,"par":8666,"point":8667,"press":8668,"ráº¯c":8669,"ret":8670,"sen":8671,"sáº½":8672,"sson":8673,"uza":8674,"xo":8675,"yson":8676,"Ġ@":8677,"ĠÆ°ng":8678,"Ġeo":8679,"Ġáº¡t":8680,"Ġuyá»ĥn":8681,"Ġas":8682,"Ġed":8683,"Ġare":8684,"á»ª":8685,"Ġtáº±m":8686,"ngay":8687,"ngÃły":8688,"Ġcl":8689,"ĠÄĳÃ¡i":8690,"ĠnÆ°Æ¡ng":8691,"Ġnáº¹p":8692,"ĠniÃªm":8693,"ĠvÃ³i":8694,"Ġlá»±":8695,"Ġláº£ng":8696,"ĠlÃ³c":8697,"Ġluyáº¿n":8698,"Ġluá»µ":8699,"Ġlá»ĳp":8700,"Ġmy":8701,"ĠmÃ²ng":8702,"Ġmod":8703,"Ġmix":8704,"Ġblu":8705,"Ġsiáº¿t":8706,"Ġsil":8707,"Ġsá»įc":8708,"Ġtrau":8709,"Ġtráº·c":8710,"Ġtrá»ĵi":8711,"Ġnga":8712,"ĠngÃ¹ng":8713,"Ġgr":8714,"ĠgÃ¹":8715,"Ġgáº«u":8716,"Ġhiá»ģu":8717,"Ġhot":8718,"Ġhiá»ģn":8719,"Ġhidro":8720,"Ġthá»Ľ":8721,"Ġthá»¥t":8722,"Ġráº§y":8723,"ĠdÆ¡":8724,"ĠÄĳá»Ŀ":8725,"Ġnhuyá»ħn":8726,"ĠkhÃ©t":8727,"Ġtháº©n":8728,"ĠcÃ¡cbon":8729,"Ġquot":8730,"ĠquÄ©":8731,"Ġquá»ĩ":8732,"Ġkhong":8733,"ĠÄĳÃ£ng":8734,"Ġchá»ĵi":8735,"otton":8736,"Ġnghiáº¿n":8737,"anor":8738,"antha":8739,"Ġrang":8740,"chester":8741,"Ġnháº£":8742,"ĠTH":8743,"ĠTáº¡":8744,"ĠTiá»ĥu":8745,"ĠTÃ¡i":8746,"ĠTide":8747,"ĠTulu":8748,"Ġlá»ıi":8749,"Ġlá»¥i":8750,"Ġhooc":8751,"oni":8752,"Ġdá»«a":8753,"ÄĲá»įc":8754,"ĠCorn":8755,"ĠCloud":8756,"Ġháº¯t":8757,"Ġsá»ī":8758,"Ġsá»ĩt":8759,"ĠMolly":8760,"ĠNÃ´ng":8761,"ĠNÃºi":8762,"ĠNicholas":8763,"ĠNaomi":8764,"ĠBK":8765,"ĠBong":8766,"ĠBiáº¿t":8767,"ĠBin":8768,"ĠBac":8769,"ĠBion":8770,"ĠBall":8771,"ĠBond":8772,"ĠBeth":8773,"ĠBagh":8774,"ĠByrne":8775,"err":8776,"ĠHiáº¿n":8777,"ĠHand":8778,"ĠHuck":8779,"ĠHuss":8780,"ĠHome":8781,"ĠÄĲo":8782,"ĠÄĲiá»ĥm":8783,"enix":8784,"ĠAI":8785,"ĠAth":8786,"ĠAut":8787,"ĠSÃ´ng":8788,"ĠSum":8789,"ĠSony":8790,"ĠSean":8791,"ĠSaf":8792,"ĠSOL":8793,"Ġhá»Ļt":8794,"ĠmÃ¡ng":8795,"aro":8796,"ĠphÃł":8797,"ĠPin":8798,"ĠPre":8799,"ĠPran":8800,"ĠPoint":8801,"ĠKI":8802,"ĠKob":8803,"ĠLá»±c":8804,"ĠLáº¡nh":8805,"ĠLHC":8806,"áº¹t":8807,"Ġngá»ı":8808,"ĠGall":8809,"ĠGood":8810,"ĠGowan":8811,"ĠTrÃ´ng":8812,"ĠTrÃ¬nh":8813,"ĠTrin":8814,"ĠTrÃ¢n":8815,"ĠTráº¡m":8816,"ĠTroy":8817,"ĠDC":8818,"ĠDay":8819,"ĠDes":8820,"ĠDep":8821,"ĠDolly":8822,"ĠDennis":8823,"Tranh":8824,"Trá»Ŀi":8825,"alth":8826,"alog":8827,"Ġphá»¥ng":8828,"ĠRNA":8829,"ĠRiley":8830,"eli":8831,"iÃªc":8832,"Ġthoáº¡t":8833,"ete":8834,"ischer":8835,"atin":8836,"ĠQuá»·":8837,"ĠJoy":8838,"ilton":8839,"ito":8840,"olph":8841,"ĠFil":8842,"ĠFood":8843,"ĠEiff":8844,"leep":8845,"ushi":8846,"uston":8847,"Ġ62":8848,"Ġ63":8849,"Ġ66":8850,"Ġ650":8851,"ĠOz":8852,"ĠThÆ°á»Ŀng":8853,"ĠThÆ°á»Łng":8854,"ĠnghÃª":8855,"uria":8856,"ĠChechn":8857,"Ġtrá»¥i":8858,"rag":8859,"ĠHoff":8860,"Ġ88":8861,"eber":8862,"rik":8863,"rove":8864,"Vá»«a":8865,"rez":8866,"Chryst":8867,"Chá»ĵng":8868,"Chá»įn":8869,"ĠStef":8870,"idi":8871,"istor":8872,"ĠUC":8873,"ĠThá»ĥ":8874,"Ġwebcam":8875,"ineering":8876,"ĠGiáº¥c":8877,"ĠGiff":8878,"trino":8879,"Ġrobots":8880,"Cháº¡y":8881,"Ġft":8882,"Ġflash":8883,"ĠChá»§ng":8884,"iba":8885,"Ġvá»£t":8886,"ChÃ¬a":8887,"ĠdÄ©a":8888,"azar":8889,"ĠAnne":8890,"ĠAndy":8891,"ĠTá»¥i":8892,"Ġnháº¹n":8893,"ĠZetas":8894,"ĠBrend":8895,"ĠIstan":8896,"Ġáº¢nh":8897,"Ġuáº¥t":8898,"ĠCarib":8899,"ĠCargill":8900,"Ġ2014":8901,"Bá»ĭ":8902,"KhÃ¡ch":8903,"Ġ05":8904,"phus":8905,"ove":8906,"Ġ1982":8907,"Ġ1987":8908,"ĠDoanh":8909,"enny":8910,"aina":8911,"annel":8912,"Cá»§a":8913,"ĠRobics":8914,"athy":8915,"shmi":8916,"ĠBá»ī":8917,"ĠBá»ĭ":8918,"ĠMichoac":8919,"ĠSpring":8920,"ĠSplashy":8921,"Ġ1968":8922,"ĠBlair":8923,"ĠBank":8924,"ĠSaunders":8925,"Ġváº¹t":8926,"urga":8927,"ĠMá»Ľi":8928,"Ná»¯":8929,"ĠLuke":8930,"ĠReagan":8931,"ĠHead":8932,"ĠHeather":8933,"Ġná»ģu":8934,"ĠPhÃ¢n":8935,"ĠNeumann":8936,"ĠKhÆ¡":8937,"ĠKhÃ¡c":8938,"KhuÃ´n":8939,"endo":8940,"Ġ1948":8941,"Ġngháº¹n":8942,"ensp":8943,"enstein":8944,"ĠNháº£y":8945,"ĠLibby":8946,"ĠRoma":8947,"ĠFred":8948,"ĠsÃ´cÃ´la":8949,"ĠGabriel":8950,"meister":8951,"ĠchÃ¹i":8952,"ĠStanley":8953,"ĠActor":8954,"Lá»Ľp":8955,"ĠKhá»§ng":8956,"ĠLady":8957,"ĠDá»ħ":8958,"ARS":8959,"ĠGene":8960,"ĠAndroid":8961,"ĠBrooks":8962,"Stef":8963,"ĠBonnie":8964,"ĠBlackberry":8965,"Ġdollars":8966,"ĠHills":8967,"ĠAviv":8968,"ĠRoosevelt":8969,"ĠKnee":8970,"ĠFerris":8971,"ĠJacob":8972,"ĠMissouri":8973,"ĠBudrus":8974,"ĠWired":8975,"ydney":8976,"ĠNoah":8977,"ĠKaluza":8978,"ittle":8979,"ĠFarmer":8980,"cá»¥":8981,"ĠTerence":8982,"Ġpheromones":8983,"ĠPauling":8984,"ĠFortune":8985,"Ġbloop":8986,"ĠBroadway":8987,"ĠWhitacre":8988,"Ġpolymer":8989,"ĠKhÃŃ":8990,"Joseph":8991,"ĠSaddam":8992,"pháº§n":8993,"Ġmeerk":8994,"ĠAchill":8995,"ĠKháº£":8996,"tháºŃm":8997,"ĠSenegal":8998,"ĠKurd":8999,"engineering":9000,"nghÄ©a":9001,"Ġbeep":9002,"ĠShirley":9003,"Frank":9004,"ĠJesse":9005,"ĠDARPA":9006,"ĠCollins":9007,"ĠUniversity":9008,"ĠhÃ¹m":9009,"ĠKentucky":9010,"ĠRufus":9011,"ĠScience":9012,"ĠNIH":9013,"ĠWindows":9014,"ĠJacques":9015,"agascar":9016,"ĠAltos":9017,"ĠSisyphus":9018,"ĠlÃºn":9019,"ĠCassini":9020,"ĠCleveland":9021,"ĠSagmeister":9022,"ĠGillian":9023,"ĠHyderabad":9024,"ĠDuolingo":9025,"ĠBaghdad":9026,"ĠHussein":9027,"ĠGowanus":9028,"ĠEiffel":9029,"ĠChechnya":9030,"ĠIstanbul":9031,"ĠRobicsek":9032,"Ġmeerkat":9033,"33":9034,"700":9035,"97":9036,"AL":9037,"AN":9038,"Af":9039,"Alex":9040,"Arist":9041,"Br":9042,"Bren":9043,"Cal":9044,"CÃ¡nh":9045,"Chia":9046,"Der":9047,"Elizabeth":9048,"GV":9049,"Gá»įi":9050,"HP":9051,"HQ":9052,"Im":9053,"JM":9054,"Ká»¹":9055,"KÃŃch":9056,"Lu":9057,"MW":9058,"Man":9059,"Mang":9060,"Má»±c":9061,"Náº¥m":9062,"OOC":9063,"Par":9064,"Rá»ĳt":9065,"Rachel":9066,"Song":9067,"Shi":9068,"Sim":9069,"SÃ¡ch":9070,"Tay":9071,"Thi":9072,"Tony":9073,"Tunes":9074,"UE":9075,"Xu":9076,"ahoo":9077,"cow":9078,"cul":9079,"cock":9080,"dt":9081,"die":9082,"fel":9083,"láº¡i":9084,"lia":9085,"máº·c":9086,"mor":9087,"mat":9088,"mit":9089,"nháº":9090,"nis":9091,"nic":9092,"ru":9093,"rat":9094,"sey":9095,"tÆ¡":9096,"tinh":9097,"tol":9098,"tra":9099,"uana":9100,"vÃŃ":9101,"vold":9102,"wl":9103,"war":9104,"·c":9105,"Ġ_":9106,"Ġes":9107,"Ġub":9108,"ĠtÃ¬":9109,"Ġteo":9110,"ĠtÃ¡ng":9111,"ĠtÃ³t":9112,"Ġtennis":9113,"ĠÄĳu":9114,"ĠÄĳÆ¡":9115,"Ġnu":9116,"Ġnáº¥y":9117,"Ġnom":9118,"Ġnick":9119,"ĠnÄ©a":9120,"há»ĭch":9121,"ĠvÃ©t":9122,"Ġlt":9123,"Ġláº£":9124,"Ġlim":9125,"Ġliáº¿c":9126,"ĠmáºŃu":9127,"Ġmoi":9128,"Ġmag":9129,"Ġbung":9130,"ĠbÃªu":9131,"ĠbÃ¡i":9132,"ĠbÃºp":9133,"Ġbáº·m":9134,"Ġbiá»ħu":9135,"ĠkÃ©t":9136,"ĠsÃłi":9137,"ĠtrÃłnh":9138,"Ġngáº¥y":9139,"ĠngÃłng":9140,"Ġngháº¿":9141,"Ġngáº¡ch":9142,"ĠngÃ¡p":9143,"Ġgu":9144,"ĠgÃłn":9145,"Ġgoi":9146,"Ġgara":9147,"Ġgáº«y":9148,"Ġhec":9149,"Ġhead":9150,"Ġthá»±":9151,"Ãªng":9152,"Ãªin":9153,"Ġráº¡n":9154,"ĠrÃ²i":9155,"Ġdá»Ļt":9156,"ĠdÃ¬m":9157,"ĠdáºŃt":9158,"ĠchÆ°á»Ŀng":9159,"ĠchiÃªc":9160,"Ġthon":9161,"ĠthÃłng":9162,"Ġhá»Ľt":9163,"Ġtá»ħ":9164,"ĠgiÄĥng":9165,"ĠgiÅ©":9166,"Ġgiáº¥m":9167,"ĠgiÃ¹m":9168,"ĠxÃª":9169,"Ġkha":9170,"Ġkhuá»·":9171,"Ġchá»Ńi":9172,"Ġpháº¿t":9173,"Ġpháº©u":9174,"ance":9175,"aya":9176,"ayan":9177,"Ġsáº·c":9178,"Ġcáº£u":9179,"Ġbá»ıi":9180,"Ġbá»«ng":9181,"Ġbá»©t":9182,"ĠTÃ¡c":9183,"ĠTiÃªu":9184,"ĠTuyáº¿t":9185,"ĠTul":9186,"ĠTuc":9187,"ĠTij":9188,"ons":9189,"Ġdá»ım":9190,"aijan":9191,"ĠchÃª":9192,"ĠnhÃ²m":9193,"ÄĲá»ĵ":9194,"Ġmá»ĭt":9195,"aux":9196,"inas":9197,"ĠCL":9198,"ĠCÃ¢y":9199,"ĠCáº£ng":9200,"ĠCáº¥p":9201,"ĠCos":9202,"ĠCháº¿":9203,"ĠCPhi":9204,"ĠCoke":9205,"ĠMÃ´":9206,"ĠMá»Ł":9207,"ĠMÃłn":9208,"ĠMáº¥y":9209,"ĠMam":9210,"ĠMá»ĳi":9211,"ĠMiá»ģn":9212,"ĠMun":9213,"ĠMitra":9214,"ĠkhoÃ©t":9215,"hieu":9216,"Ġtrá»ģ":9217,"Ġtrá»£n":9218,"Ġká»īnh":9219,"ĠNO":9220,"ĠBai":9221,"ĠBÃłn":9222,"ĠBÃ©":9223,"ĠBeverly":9224,"ĠHÆ°ng":9225,"ĠHem":9226,"ĠHÃºp":9227,"ĠHob":9228,"ĠHub":9229,"ĠHurt":9230,"ĠHannah":9231,"ĠHLV":9232,"ĠÄĲÆ¡n":9233,"ĠÄĲÃ¡nh":9234,"enos":9235,"ĠAung":9236,"ĠAss":9237,"ĠATM":9238,"Ġquark":9239,"Ġkhá»ĳ":9240,"ĠSo":9241,"ĠShan":9242,"ĠSir":9243,"ĠSach":9244,"ĠSaul":9245,"ĠSlow":9246,"ĠSleep":9247,"Ġyum":9248,"Ġphiáº¿m":9249,"iá»ħm":9250,"ĠPav":9251,"ĠPine":9252,"ĠKa":9253,"ĠKong":9254,"ĠKÃŃch":9255,"ĠKerry":9256,"ĠLÃ²ng":9257,"ĠLá»ĩ":9258,"ĠLind":9259,"ĠLagos":9260,"ĠLinda":9261,"ĠLisa":9262,"ĠLOL":9263,"ĠLHQ":9264,"Ġá»ªm":9265,"Ġngá»©a":9266,"ĠGoog":9267,"ĠGram":9268,"ĠGros":9269,"ĠGup":9270,"ĠGadda":9271,"Ġngoáº¡c":9272,"Ġxui":9273,"oren":9274,"ĠDÃ²ng":9275,"ĠDod":9276,"ĠDyson":9277,"alo":9278,"Ġthun":9279,"ĠRap":9280,"ĠRagu":9281,"els":9282,"Ġquyá»ĩn":9283,"Nghi":9284,"ĠIN":9285,"ĠINCRA":9286,"ĠViÃªn":9287,"ĠVÃ²ng":9288,"ĠVáº«y":9289,"ĠVui":9290,"ĠVila":9291,"Ġrá»§a":9292,"ashi":9293,"itan":9294,"ology":9295,"ĠWell":9296,"ĠWhoa":9297,"ĠFi":9298,"hod":9299,"hov":9300,"ĠthÆ°c":9301,"omon":9302,"ĠOla":9303,"ĠOne":9304,"liu":9305,"Ġ83":9306,"Ġ92":9307,"Giá»¯":9308,"ÄĲá»ĭa":9309,"unn":9310,"uno":9311,"ĠNewcastle":9312,"reen":9313,"Ġwhis":9314,"Chá»©":9315,"ĠSting":9316,"ides":9317,"idad":9318,"ahn":9319,"igrut":9320,"theo":9321,"thus":9322,"ophia":9323,"Ġnhá»Ŀn":9324,"agram":9325,"ague":9326,"ĠXDR":9327,"Ġ1200":9328,"abel":9329,"abian":9330,"abama":9331,"ĠAlabama":9332,"ĠThá»©c":9333,"Má»Ŀi":9334,"ould":9335,"Äĳá»ĳi":9336,"ĠGiáº£":9337,"ĠGiÃ¡c":9338,"ĠGiÃºp":9339,"Howard":9340,"Ġoan":9341,"ChÃŃn":9342,"ifi":9343,"ĠConor":9344,"acker":9345,"ĠAnton":9346,"ĠTá»Ľ":9347,"Ġmafia":9348,"egas":9349,"egrass":9350,"Ġup":9351,"ĠShack":9352,"ĠEmmanuel":9353,"ippi":9354,"yloid":9355,"ĠGiá»¯a":9356,"Ġ170":9357,"ersburg":9358,"ĠÃģnh":9359,"ocks":9360,"Ġláº»o":9361,"ĠPháº£n":9362,"ĠCháº¥t":9363,"Cá»Ńa":9364,"ĠnhoÃł":9365,"Ġ1974":9366,"Ġ1976":9367,"Ġ1977":9368,"ĠGeoff":9369,"pper":9370,"á»ĩn":9371,"ĠMcChryst":9372,"ĠCollider":9373,"ĠTháºŃp":9374,"derick":9375,"ugust":9376,"ugata":9377,"illie":9378,"ĠHá»ıi":9379,"ĠThÃªm":9380,"ĠNá»ģn":9381,"ĠDarfur":9382,"dies":9383,"ĠKhai":9384,"Khung":9385,"ĠPetersburg":9386,"Ġ1947":9387,"ĠNghÄ©":9388,"ĠNghiá»ĩp":9389,"ĠNháº¡c":9390,"ĠFreeman":9391,"issippi":9392,"ixon":9393,"....":9394,"ĠTorosaurus":9395,"ehr":9396,"ĠMadagascar":9397,"ĠMech":9398,"ĠMead":9399,"Ġcents":9400,"ĠGalileo":9401,"Ġmicrophone":9402,"Lá»£i":9403,"Ġnhá»ĭn":9404,"ĠSimpson":9405,"ĠKaren":9406,"ĠDá»¥c":9407,"ĠnhÃ£ng":9408,"ĠSuu":9409,"ĠBuenos":9410,"ĠTrá»¥c":9411,"Kháº¯p":9412,"ĠNano":9413,"ĠGenev":9414,"ĠPlay":9415,"Ġseries":9416,"Ġpounds":9417,"ĠHansen":9418,"ĠTurk":9419,"ĠPants":9420,"ĠDeep":9421,"ĠJimmy":9422,"ĠBolt":9423,"ĠRockett":9424,"ĠCDC":9425,"ĠAires":9426,"ĠAirstream":9427,"ĠKyi":9428,"ĠForbes":9429,"ĠMoscow":9430,"ĠAriely":9431,"ĠTitanic":9432,"Ġkilomet":9433,"ĠEskim":9434,"ĠEstonia":9435,"ĠKuwait":9436,"ĠLaramie":9437,"lasma":9438,"ĠSkid":9439,"ĠWii":9440,"Ġenzim":9441,"Ġenzym":9442,"ĠRandolph":9443,"ĠMaslow":9444,"ĠBotsw":9445,"ĠJordans":9446,"Ġgluten":9447,"ĠAmerica":9448,"ĠGeorgetown":9449,"Ġmuá»Ļi":9450,"Ġeureka":9451,"borough":9452,"Khá»ĳi":9453,"Khá»§ng":9454,"ĠHadron":9455,"Ġ747":9456,"ymb":9457,"mstrong":9458,"ĠArabia":9459,"ĠMcGon":9460,"ĠSchwartz":9461,"ĠvÃªnh":9462,"Ġsunphua":9463,"erbaijan":9464,"ĠPinker":9465,"ingsuit":9466,"ĠWikiLe":9467,"Jonathan":9468,"Jennifer":9469,"tzmann":9470,"ĠJuliet":9471,"Ġawesome":9472,"ĠTobago":9473,"ĠPascal":9474,"hrvold":9475,"ĠHindu":9476,"eynman":9477,"trolux":9478,"ĠEconomist":9479,"Ġsalad":9480,"ĠVivian":9481,"ĠOwens":9482,"ĠUtah":9483,"ĠHirshhorn":9484,"Ġsexy":9485,"ĠNevada":9486,"ĠBitco":9487,"ĠHudson":9488,"ĠKaplan":9489,"ĠGladwell":9490,"ĠDDT":9491,"ĠNajmuddin":9492,"mingham":9493,"ĠBKT":9494,"ĠPrego":9495,"ĠGiffords":9496,"Ġubuntu":9497,"Ġngháº¿ch":9498,"ĠTucson":9499,"ĠHurtigrut":9500,"ĠGupta":9501,"ĠGaddafi":9502,"ĠMcChrystal":9503,"ĠHurtigruten":9504,"05":9505,"38":9506,"Angel":9507,"BS":9508,"CN":9509,"CR":9510,"Cr":9511,"CÃ´n":9512,"Col":9513,"Cháº¿":9514,"Card":9515,"DU":9516,"Es":9517,"FL":9518,"Fi":9519,"GB":9520,"Ghi":9521,"Gab":9522,"HS":9523,"Háº±ng":9524,"Hiá»ĩp":9525,"IY":9526,"ICE":9527,"Jack":9528,"LM":9529,"Lau":9530,"Lá»ĳi":9531,"Lewis":9532,"Ma":9533,"Máº¯t":9534,"MÃ³n":9535,"No":9536,"NÃ´ng":9537,"Os":9538,"Quyá»ĥn":9539,"Sá»Ł":9540,"San":9541,"Sarah":9542,"Sylvia":9543,"Sphere":9544,"Sebastian":9545,"Tiá»ĩn":9546,"VÃ´":9547,"VÆ°á»£t":9548,"Xa":9549,"bá»":9550,"bal":9551,"bro":9552,"bach":9553,"beta":9554,"cuá»Ļc":9555,"ced":9556,"day":9557,"ful":9558,"ga":9559,"gy":9560,"hasa":9561,"jad":9562,"kut":9563,"lÆ¡":9564,"mÃ´":9565,"nest":9566,"nish":9567,"oxy":9568,"pen":9569,"pera":9570,"rd":9571,"rt":9572,"rot":9573,"rai":9574,"ria":9575,"ras":9576,"sain":9577,"tu":9578,"táº¡o":9579,"teo":9580,"vald":9581,"work":9582,"watt":9583,"xÆ¡":9584,"znet":9585,"zka":9586,"§u":9587,"¹t":9588,"ÃĮ":9589,"à¸":9590,"Ġáº¯t":9591,"Ġoli":9592,"Ġorgan":9593,"Ŀng":9594,"á»ªm":9595,"áº¤":9596,"áºµng":9597,"ĠtÃ£":9598,"Ġtáº¿t":9599,"Ġtuá»ĳc":9600,"Ġtuá»ĳi":9601,"Ġtera":9602,"Ġtáº¹o":9603,"Ġcau":9604,"ĠcÃºc":9605,"Ġcuá»ĳc":9606,"ĠcÃłm":9607,"Ġcass":9608,"Ġcoll":9609,"Ġcotton":9610,"Ġnáº¯n":9611,"Ġnap":9612,"hÃ¨o":9613,"ĠvÆ¡i":9614,"Ġváº£y":9615,"Ġvali":9616,"Ġlá»įi":9617,"ĠlÄĥm":9618,"ĠlÃ¹a":9619,"ĠlÃ¬a":9620,"ĠlÃ¹n":9621,"Ġlá»±u":9622,"Ġmáº«n":9623,"ĠmÃºc":9624,"Ġmáº£y":9625,"Ġmáº©n":9626,"ĠmÃ¨":9627,"Ġbáº¡":9628,"Ġbáº½":9629,"Ġbla":9630,"Ġkang":9631,"Ġsáº¥y":9632,"Ġsá»įt":9633,"ĠsÃ©c":9634,"Ġsushi":9635,"Ġngáº¥u":9636,"ĠngÃ¡y":9637,"Ġguá»ĵng":9638,"Ġguit":9639,"ĠhÆ¡":9640,"Ġhem":9641,"ĠhuyÃªn":9642,"Ġhit":9643,"Ġrem":9644,"Ġroi":9645,"ĠrÃ¡o":9646,"Ġdáº£":9647,"ĠdÃ£n":9648,"Ġnheo":9649,"quare":9650,"Ġvá»¯a":9651,"Ġvá»«ng":9652,"ĠcÃ³ng":9653,"Ġchuá»ĳt":9654,"Ġhá»§":9655,"Ã£nh":9656,"ĠnÃłi":9657,"ĠquÃ¡c":9658,"ĠquáºŃy":9659,"ĠgiÅ©a":9660,"ĠxÃ¹":9661,"Ġxiáº¿c":9662,"Ġxáº»o":9663,"ĠthÃ²":9664,"ĠpháºŃt":9665,"Ġpháº§m":9666,"Ġgiá»¡n":9667,"Ġnháº±ng":9668,"Ġbá»£":9669,"Ġbá»£m":9670,"ĠTÃ´n":9671,"ĠTut":9672,"ĠTNC":9673,"Ġlá»ķ":9674,"Ġlá»Ľi":9675,"Ġdá»ĥ":9676,"Ġcháº§m":9677,"ĠchÃ²i":9678,"ĠchÃ²m":9679,"ĠhÃ£n":9680,"aust":9681,"Ġná»Ľt":9682,"inia":9683,"iness":9684,"inawa":9685,"ĠCart":9686,"ĠCash":9687,"ĠCeline":9688,"á»ĵm":9689,"Ġ----":9690,"Ġtoan":9691,"ĠtoÃ¡t":9692,"ĠMáº¥t":9693,"ĠMai":9694,"ĠMis":9695,"ĠMik":9696,"ĠMul":9697,"ĠMore":9698,"ĠMod":9699,"ĠMá»Ŀi":9700,"ĠMorg":9701,"ĠMAS":9702,"ĠMOOC":9703,"ĠsÃ¡n":9704,"ĠNR":9705,"ĠNap":9706,"ĠNiá»ģm":9707,"ĠNSA":9708,"ĠNino":9709,"ĠNixon":9710,"ĠBB":9711,"ĠBuy":9712,"ĠBáº£ng":9713,"ĠBÃ¡ch":9714,"ĠBran":9715,"ĠBak":9716,"ĠBul":9717,"ĠBog":9718,"ĠloÃ¡t":9719,"ĠHS":9720,"ĠHor":9721,"ĠHeb":9722,"ĠHáº¡nh":9723,"ĠHart":9724,"ĠHunt":9725,"ĠHipp":9726,"ĠHAL":9727,"ĠÄĲH":9728,"ĠÄĲÃłng":9729,"ĠÄĲáº¥u":9730,"ĠAw":9731,"ĠSin":9732,"ĠSá»ĳt":9733,"ĠSue":9734,"ĠphÃłm":9735,"ĠPR":9736,"ĠPi":9737,"ĠPao":9738,"ĠPhÃºc":9739,"ĠPear":9740,"ĠKw":9741,"ĠKan":9742,"ĠKil":9743,"ĠKey":9744,"ĠKoh":9745,"ĠKris":9746,"ĠKros":9747,"ĠKant":9748,"ĠLem":9749,"ĠLÆ°á»£ng":9750,"ĠLow":9751,"ĠLight":9752,"ĠLife":9753,"áº¹n":9754,"Ġá»¥":9755,"Ġá»ī":9756,"Ġá»Ķn":9757,"Ġngá»Ĺng":9758,"ĠGut":9759,"ĠGell":9760,"ĠGould":9761,"ĠTráº¡i":9762,"ĠTrang":9763,"Ġngoáº·c":9764,"ĠDam":9765,"ĠDom":9766,"ĠDew":9767,"ĠDáº¡ng":9768,"ĠDak":9769,"ĠDow":9770,"ĠDev":9771,"ĠDown":9772,"ĠDhar":9773,"ĠDuke":9774,"ĠDIY":9775,"Tri":9776,"Trá»":9777,"Tráº£i":9778,"Trá»ĵng":9779,"ima":9780,"imp":9781,"Ãµng":9782,"ĠRas":9783,"ĠRah":9784,"ĠRá»ĵng":9785,"ĠRain":9786,"ĠRica":9787,"ĠRaj":9788,"ĠRIA":9789,"elling":9790,"Ngá»":9791,"Ngá»ĵi":9792,"Nghá»ĭch":9793,"ĠIV":9794,"ĠIce":9795,"ĠkhÃŃt":9796,"Tháº±ng":9797,"TháºŃp":9798,"Ġ59":9799,"Ġsound":9800,"Ġsocola":9801,"ĠVáº¡n":9802,"ĠVáºŃn":9803,"ĠVib":9804,"ĠVá»įng":9805,"ĠVideo":9806,"ĠViag":9807,"atra":9808,"Ġrá»ĥ":9809,"ĠQuyáº¿t":9810,"ĠJans":9811,"ĠJaw":9812,"ĠJake":9813,"ĠJobs":9814,"Ġbass":9815,"ĠÃĬ":9816,"illo":9817,"ility":9818,"ilever":9819,"ilocks":9820,"Ġding":9821,"aste":9822,"itor":9823,"ital":9824,"ited":9825,"itiba":9826,"olulu":9827,"ĠWong":9828,"ĠWatt":9829,"ĠFin":9830,"ĠFoster":9831,"ĠFez":9832,"ĠFull":9833,"ĠFaiza":9834,"ĠEr":9835,"ĠEngel":9836,"ĠEames":9837,"Ġ103":9838,"ĠNgá»įn":9839,"ĠNgoÃłi":9840,"Thá»©c":9841,"oma":9842,"adema":9843,"ĠOm":9844,"ĠOld":9845,"ĠThuá»·":9846,"ĠThatch":9847,"ĠnghÃ©n":9848,"oblog":9849,"uru":9850,"urich":9851,"ĠYellow":9852,"ĠChe":9853,"ĠChap":9854,"ĠChand":9855,"ĠChev":9856,"ĠChuck":9857,"Ġ71":9858,"Ġ73":9859,"Ġ79":9860,"lif":9861,"Giá»Ľi":9862,"ÄĲá»©ng":9863,"Ġgá»«ng":9864,"ThÆ°Æ¡ng":9865,"ThuáºŃt":9866,"rov":9867,"roject":9868,"ĠÄĲá»§":9869,"Chá»Ĺ":9870,"Chá»Ŀ":9871,"ider":9872,"idge":9873,"istry":9874,"ign":9875,"than":9876,"tham":9877,"rani":9878,"ĠUhm":9879,"ĠXc":9880,"loSphere":9881,"ĠbÃŃt":9882,"akh":9883,"avi":9884,"avel":9885,"oczka":9886,"hanol":9887,"sonian":9888,"ĠNhanh":9889,"ĠNhiá»ĩm":9890,"teau":9891,"Ġxá»Ľi":9892,"Ġxá»Ńa":9893,"Ġ186":9894,"ieg":9895,"Cháº¿t":9896,"Ġfil":9897,"Ġfáº£i":9898,"Ġform":9899,"Ġfont":9900,"ĠMarx":9901,"Ġ25000":9902,"Ġ1100":9903,"azi":9904,"azo":9905,"acking":9906,"rylic":9907,"icklider":9908,"ĠAndes":9909,"ivia":9910,"ives":9911,"heim":9912,"GiÃ³":9913,"ĠZipcar":9914,"ĠBrent":9915,"ĠArn":9916,"ĠArmstrong":9917,"ions":9918,"erto":9919,"deen":9920,"Bá»Ŀi":9921,"ody":9922,"odka":9923,"Ġ2100":9924,"achi":9925,"acht":9926,"Ġrupi":9927,"ĠHaidt":9928,"Ġ1981":9929,"ĠnÆ¡ron":9930,"ĠiTunes":9931,"aint":9932,"ĠPháº«u":9933,"ĠnhÃ¡i":9934,"ĠnhÃ¡m":9935,"annes":9936,"annica":9937,"ĠCháº¡y":9938,"Ġ1972":9939,"Ġ1978":9940,"ĠColle":9941,"ĠBá»¯a":9942,"ĠPalin":9943,"Ġ1969":9944,"ĠMount":9945,"iza":9946,"ĠNight":9947,"ĠRossy":9948,"ĠBarbie":9949,"anium":9950,"Ġje":9951,"ĠEdison":9952,"ugu":9953,"ĠChopin":9954,"Ná»ķi":9955,"ĠPhá»ķ":9956,"ĠSchul":9957,"ĠMaas":9958,"ĠCruz":9959,"ĠHarvey":9960,"ĠKhal":9961,"ĠKhÃ¡m":9962,"ucker":9963,"endor":9964,"ĠAtkins":9965,"otto":9966,"Ġngháº¹t":9967,"ĠOrkut":9968,"ĠOrnish":9969,"ĠJosh":9970,"Ġxá»īn":9971,"ethyl":9972,"ĠGreenville":9973,"ĠSamantha":9974,"Dá»«ng":9975,"Alain":9976,"ĠCous":9977,"ĠCode":9978,"ĠCoast":9979,"usty":9980,"Margaret":9981,"esha":9982,"reddies":9983,"ĠAhmad":9984,"Ġ1953":9985,"weil":9986,"ĠGogh":9987,"therland":9988,"ĠMyhrvold":9989,"ĠSutherland":9990,"consin":9991,"ĠPercy":9992,"Ġngá»«oi":9993,"Ġháº»m":9994,"efeller":9995,"monia":9996,"Ġacrylic":9997,"ĠPatel":9998,"ĠUnilever":9999}