#version: 0.2 - Trained by `huggingface/tokenizers`
Ġ t
Ġt h
Ġ a
i n
Ġ ,
Ġ w
Ġth e
r e
Ġ .
Ġ o
Ġ s
a t
n d
e r
o u
Ġ c
i s
i t
Ġ &
o s
Ġ b
in g
Ġ m
e n
Ġ h
a p
o n
Ġt o
Ġ p
Ġ f
e s
a n
Ġ d
ap os
o r
Ġo f
a l
Ġ in
Ġa nd
e d
Ġ l
a r
o t
Ġ y
Ġth at
o m
Ġ g
a s
i c
l e
Ġ I
v e
Ġy ou
l l
Ġ n
Ġw e
Ġw h
o w
Ġ e
u s
l y
Ġ is
Ġb e
u t
i on
Ġ it
e t
Ġ re
en t
q u
c t
Ġo n
l d
v er
a y
i d
T h
A nd
Ġh a
i m
Ġth is
u r
i g
Ġs t
c h
e re
qu ot
r o
k e
Ġf or
c e
i f
s e
Ġw as
i r
a m
o p
it h
Ġa n
Ġd o
s t
Ġa re
o l
al ly
Ġw ith
t h
Ġha ve
r a
Ġa b
Ġthe y
Ġ u
Ġg o
Ġs e
Ġc an
Ġ k
at ion
Ġa s
h t
ou t
- -
Ġ --
Ġl i
Ġs h
a d
Ġw or
S o
Ġh e
Ġ ?
Ġwh at
Ġm e
o d
Ġc om
ou ld
ver y
i ll
Ġn e
Ġa t
g e
Ġab out
an t
t er
Ġn ot
u l
i l
Ġs o
o re
Th e
Ġf r
us t
Ġa ll
er s
Ġ j
Ġe x
Ġc h
Ġm y
Ġ r
Ġd e
Ġ us
ig ht
Ġs om
Ġp ro
Ġp e
e ar
op le
ar t
es s
Ġo r
W e
Ġthe re
Ġc on
c k
Ġpe ople
at e
Ġli ke
u re
u m
i es
o k
i ve
Ġon e
Ġfr om
es t
is t
it y
n t
Ġl o
b le
Ġm a
Ġo ur
Ġk n
us e
Ġbe c
Ġ v
Ġb ut
in d
Ġt e
Ġ A
e ct
r ou
Ġa l
Ġo ut
al l
in k
Ġ :
u n
a use
Ġin t
Ġj ust
I t
id e
a nd
Ġkn ow
Ġs p
Ġthe m
i e
Ġth ing
Ġ S
Ġt r
B ut
Ġse e
Ġthe se
h er
Ġ if
or t
c i
Ġwh o
Ġu p
Ġ very
Ġth ink
Ġg et
e l
ic h
on e
Ġb y
a in
Ġwh en
Ġp l
Ġyou r
Ġa ct
Ġm ore
Ġ C
i v
W h
Ġsom e
Ġ 1
Ġgo ing
Ġ im
Ġy ear
Ġbec ause
Ġha d
e m
ou r
Ġs a
Ġw ould
Ġwe re
os t
Ġ M
Ġh ow
o g
am e
Ġthe ir
in e
Ġt im
as t
os e
Ġwh ich
m ent
Ġw ant
Ġwor k
Ġs u
Ġlo ok
Ġre ally
i z
u ally
a re
0 0
Ġcom p
g h
ar d
a ct
re at
ou s
Ġw ay
a ck
Ġ en
Ġt a
Ġwor ld
a b
h ing
Ġl e
Y ou
an s
a g
Ġex p
th er
Ġh ere
on g
Ġtim e
Ġh as
Th is
Ġthe n
Ġ B
p p
Ġe very
ion s
Ġp er
Ġs ay
ap p
al k
a ge
Ġd on
Ġm an
Ġact ually
Ġ qu
Ġe v
Ġint o
a ce
Ġc ould
en ce
u d
Ġw ill
re s
i ld
Ġf e
Ġ H
Ġyear s
Ġd id
Ġn ow
Ġo ther
N ow
a ch
Ġthing s
Ġa g
Ġwh ere
it t
if f
nd er
Ġ T
Ġn o
Ġ G
The y
f f
ic al
Ġsom et
ic e
Ġd iff
Ġh app
Ġma ke
Ġne ed
Ġu n
Ġan y
Ġth an
Ġ E
Ġt w
Ġc l
Ġp r
Ġbe en
Ġ P
i p
Ġ D
s o
ir st
Ġim p
om e
Ġsa id
Ġst art
Ġ N
if e
Ġ 2
i a
Ġa r
re d
re e
Ġp art
or y
r y
p t
Ġo ver
Ġc o
or m
ow n
u ch
Ġd is
Ġsomet hing
Ġtw o
Ġb u
it e
Ġr ight
as s
ou nt
an g
Ġb ack
rou nd
Ġm uch
i b
ig n
e p
Ġf irst
Ġdiff ere
ou nd
Ġne w
a c
Ġc all
se l
Ġsh e
Ġt alk
en s
u e
Ġth ose
Ġp o
Ġm o
Ġal so
ra in
ol og
at er
v es
Ġsp e
Ġg ot
c ent
g ht
Ġ L
Ġl ife
Ġ ro
l o
ul t
Ġcon t
k ing
Ġl ot
p le
itt le
Ġk ind
ve l
w ay
Ġa c
Ġl ittle
Ġh is
Ġbe t
Ġp h
Ġu nder
od y
b er
Th at
Ġm ost
Ġa m
r u
os s
Ġf o
v ing
Ġd ay
Ġre s
I n
Ġon ly
Ġ R
e ll
at ed
a ble
Ġev en
Ġh er
ation s
Wh at
i al
ic t
Ġd es
c o
Ġa d
Ġb o
Ġman y
Ġta ke
Ġ F
Ġ W
Ġdiffere nt
an k
rou gh
Ġ ;
Ġgo od
Ġs y
i re
d u
ic k
Ġsh ow
Ġre al
Ġe m
Ġh um
an ce
Ġ ide
Ġg r
as e
Ġa round
in t
Ġth rough
Ġdo es
c ess
ot her
Ġcom m
n ing
Th ere
a k
Ġp re
is h
ent s
f orm
Ġ O
Ġ J
Ġte ll
Ġd own
Ġof f
an ge
m s
Ġbe ing
at h
Ġp ut
res s
Ġus e
Ġth ou
i ble
Ġw r
ad e
f ul
Ġpro ble
w n
Ġs m
Ġhapp en
or s
ar k
l es
ar y
Ġin c
x t
et her
j ect
d ay
u al
Ġf act
Ġ U
Ġs ame
Ġc ount
le ct
or d
n e
i ver
Ġs c
We ll
Ġb r
Ġm ay
Ġcom e
ow er
c es
Ġtr y
Ġb ig
y s
i le
st em
t ing
Ġp ers
p er
Ġg en
ur n
v ed
ter n
ar s
Ġth ree
Ġdo ing
Ġf ind
Ġde c
Ġs ur
Ġg reat
on s
Ġexp er
ic ally
ch n
f ter
Ġt ra
sel f
t e
Ġqu est
Ġhum an
Ġper cent
f ore
ci al
w e
Ġch ild
nd s
ĠC h
b e
Ġwe ll
Ġb rain
i ed
Ġsy stem
Ġo wn
Ġa pp
Ġl ear
ic s
b ody
Ġst ud
Ġl et
Ġwh y
Ġcall ed
ig h
Ġin d
th ing
Ġte chn
at ing
Ġ ra
Ġw om
Ġs im
Ġin v
it ion
i an
Ġm ade
a v
re n
ill ion
Ġb l
Ġc r
Ġre m
Ġg u
Ġbu ild
r ic
Ġbe l
at es
Ġag ain
olog y
i ous
Ġsh ould
m er
Ġimp ort
l p
Ġ K
Ġc ol
Ġas k
Ġunder st
Ġc reat
I f
Ġl ong
c on
Th ank
iz e
Ġch ange
ol ut
H e
o ol
Ġpers on
Ġin s
u b
it ies
Ġto day
t y
Ġe nd
Ġs ch
Ġfe el
p e
l ic
Ġthou ght
Ġdid n
Ġa fter
Ġimport ant
e w
Ġide a
a il
Ġhe lp
Ġf l
Ġme an
am p
f t
Ġs ci
is e
h e
Ġc our
Ġ 3
Ġl ast
Ġstart ed
Ġo b
ere st
Ġunderst and
ĠI t
Ġtr ans
i ly
Ġw ent
u ll
Ġb as
es e
Ġit s
op e
Ġin st
Ġst ory
Ġbe fore
Ġre l
Ġd r
Ġ ke
Ġproble m
Ġbel ie
Ġc ar
k es
ou gh
Ġm ight
al s
a ve
Ġdes ign
o b
Ġne ver
Ġh im
Ġp ol
Ġp ower
Ġf am
g an
Ġpl ay
00 0
Ġpro du
Ġint erest
e c
Ġg ive
Ġin ter
Ġsch ool
Ġar t
Ġcour se
Ġbet ter
u nd
ul ar
Ġcon s
Ġst ill
Ġk id
Ġt urn
Ġab le
ist s
Ġf ound
o ld
ct ion
Ġ ent
il ity
Wh en
Ġim ag
Ġfe w
Ġpo int
v en
Ġb it
o c
Ġcomm un
er t
Ġlear n
i x
Ġc ame
i ence
Ġ& #
Ġ And
at her
vel op
we en
Ġne xt
Ġst r
Ġ Y
Ġto g
n g
Ġtog ether
Ġ The
at ch
ot h
n ess
ĠS t
p l
Ġan other
Ġe ach
ĠI n
Ġd at
u c
Ġlo ve
it ed
Ġbet ween
Ġquest ion
er g
Ġex am
Ġcomp le
Ġc ell
Ġs l
iz ed
re ad
en se
Ġh igh
al th
Ġde velop
Ġm od
Ġag o
Ġn um
ar ch
w ard
a z
or k
Ġs ort
Ġc re
Ġ1 0
is s
Ġwor d
Ġpl ace
Ġm in
Ġm on
Ġus ed
ure s
p h
Ġ1 9
Ġdat a
in ess
mer ic
way s
Ġgr ow
Ġp at
c y
Ġwom en
ing s
Ġg ra
Ġf our
one y
Ġex t
Ġ2 0
Ġs er
Ġto o
Ġm om
form ation
Ġpl an
Ġl ight
Ġat t
Ġ You
Ġl a
c ed
o od
Ġf in
ap h
Ġexam ple
Ġm et
ere d
Ġm ed
Ġo ld
Ġw ater
if ic
ec ause
con om
Ġre ad
Ġd one
Ġli ve
ce pt
Ġo p
Ġsm all
Ġc are
Ġ We
ĠA meric
Ġl ess
Ġdoes n
et s
Ġwant ed
Ġse co
Ġtechn ology
at ive
Ġm us
Ġal ways
a h
g er
Ġ ed
Ġbe h
Ġlook ing
Ġch ang
Ġre c
ab ly
Ġm oney
Ġbelie ve
ĠA f
Ġc ent
sel ves
al e
Ġchild ren
Ġe ver
Ġe conom
Ġe ff
and s
Ġg iv
Ġpart ic
Ġgen er
Ġwork ing
Ġcomp ut
Ġp oss
Ġexp l
Ġre as
Ġwho le
Ġre p
Ġf ar
Ġte ach
Ġin formation
Ġa way
Ġb us
Ġ 5
Ġt er
Ġbo ok
Ġpro ject
ation al
Ġh ard
Ġe ar
Ġh ome
Ġmo ve
Ġcount ry
Ġfo od
l ed
Ġde m
Ġkid s
Ġtry ing
n ce
Ġe l
Ġn at
B ecause
Ġcre ate
h ip
Ġm ind
r ies
Ġhe alth
Ġre g
Ġres p
Ġl ar
ver s
a ir
Ġ 4
Ġfr ie
Ġr un
ur al
Ġst u
ot e
Ġb i
olut ion
ir d
Ġle ad
c er
Ġm illion
Ġme ans
w h
Ġf ive
Ġus ing
Ġen g
at ter
is m
n ect
Ġp ass
ment s
Ġbec ome
p r
Ġs k
on t
Ġp ict
id ent
ra ct
Ġha nd
E D
Ġsu pp
Ġv is
Ġs ing
Ġf un
in s
g g
Ġc ou
Ġsu b
in es
g r
Ġmay be
Ġpro cess
Ġsp ace
Ġop en
Ġf ut
ru ct
t en
Ġto ok
a ut
Ġac c
Ġp ub
or ies
Ġcon f
Ġcomp an
Ġin f
Ġdo ll
Ġsh are
Ġevery thing
it s
o nd
ir on
Ġw alk
Ġseco nd
Ġthink ing
ac es
s w
Ġc or
Ġan im
Ġfut ure
r ib
Ġc ap
Ġb est
Ġfor m
Ġor gan
rou p
Ġen erg
Ġsay s
Ġqu ite
ĠU n
ent ion
Ġ !
u es
Ġso ci
Ġpro b
ie w
Ġso cial
iver s
Ġcont ro
og r
Ġhe ad
Ġnum ber
Ġs ol
Ġli ves
e k
Ġe lect
Ġan sw
Ġen ough
ver n
it ing
al f
et y
Ġle ft
lo b
a ke
Ġc le
H ow
n er
Ġ So
Wh y
Ġget ting
Ġp op
ir l
Ġcom es
Ġenerg y
ou se
Ġg roup
ert ain
Ġ V
ar r
Th ese
ĠAf ric
k ay
Ġbe g
Ġma king
Ġtim es
Ġb ody
Ġp res
e ver
i er
c us
Ġmon th
it al
y ing
Ġs et
Ġhappen ed
Ġa ut
Ġv al
Ġen v
Ġro om
t s
Ġspe c
Ġre se
Ġmom ent
ĠCh in
re en
Ġj ob
Ġcount ries
Ġs ense
Ġwith out
Ġph ot
ic es
Ġma kes
Ġprob ably
t ty
Ġs ound
Ġgo vern
Ġtalk ing
r oss
im es
Ġbus iness
Ġcon nect
ĠT ED
Ġke ep
Ġdoll ars
Ġbe aut
ur ing
Ġ What
Ġw ar
Ġp ie
Ġto p
Ġinterest ing
Ġto ld
Ġd ist
Ġrese arch
id d
i or
ang u
Ġmus ic
i o
Ġreas on
Ġde f
Ġed uc
Ġexper ience
Ġt y
Ġyou ng
Ġpre tty
Ġad d
Ġenv iron
O ne
Ġel se
ap s
lob al
Ġh ist
Ġsci ence
Ġmin ut
Ġsu ch
Ġ2 00
Ġfam ily
Ġc ur
Ġc ult
Ġst and
Ġph ys
M y
Ġo pp
Ġe y
Ġac ross
Ġw o
id ed
Ġsim ple
Ġall ow
ate ly
9 3
Ġm en
Ġd et
Ġsa w
Ġpol it
e ad
Ġm atter
i ent
Ġl angu
ĠI nd
Ġch o
Ġs ign
Ġcell s
Ġstu ff
9 1
Ġh alf
Ġask ed
Ġs ide
Ġway s
Ġv ide
b o
Ġe as
Ġc ase
em ber
Ġmod el
Ġli ving
Ġst op
d er
Ġpr ot
Ġm or
Ġins ide
Ġwe ek
Ġsci ent
Ġany thing
u ght
Ġh our
Ġh ope
ort un
Ġl ist
Ġme m
w ork
g s
ĠN ew
Ġb ad
al ity
ll ow
Ġbuild ing
Ġhapp ens
Ġbr ing
Ġl ater
m an
ogr aph
Ġgo es
in ce
re am
Ġwh ile
l f
wh ere
Ġcom ing
Ġsu c
e nd
Ġre st
ul ation
Ġch ar
Ġwr ong
Ġl ab
im e
ĠH e
Ġpartic ular
m ost
Ġm ark
Ġsing le
Ġp ain
Ġg lobal
Ġg irl
Ġre f
u ge
Ġb re
Ġenviron ment
F or
Ġy et
Ġa ir
il t
Ġw atch
Ġproble ms
Ġa ge
it er
S he
Ġe qu
Ġday s
Ġf ig
iv id
Ġwo nder
ot t
Ġpro f
Ġs it
Ġma ch
are nt
or n
Ġha ving
Ġsome one
Ġhe art
Ġcomple te
Ġmy self
Ġth ous
Ġansw er
Ġbeg in
l ess
Ġse en
Ġpub lic
Ġcontro l
A s
Ġword s
Ġof ten
ater ial
as h
Ġb illion
Ġeff ect
Ġlo c
Ġs ix
Ġam az
ap e
Ġle vel
Ġt est
Ġc ertain
iz ation
Ġpict ure
ot s
Ġsay ing
Ġc ity
en g
Ġwith in
Ġhe ar
i ke
Ġse lf
Ġk ill
Ġcommun ity
Ġlook ed
Ġide as
n o
Ġro b
Ġb oth
Ġs ure
it ive
Ġposs ible
m ed
Ġwh ether
Ġon ce
Ġf ore
ter s
Ġprodu ct
Ġdis e
l ish
Ġnot hing
Ġde v
Ġcomput er
l ing
ar th
Ġlangu age
s ide
ant s
iver se
Ġex act
Ġvide o
u p
Ġtr ue
Ġm aterial
Ġcl ass
Ġp os
ĠI s
L et
re m
Ġal most
Ġind ivid
Ġ3 0
Ġu nt
un ch
e e
Ġf il
Ġn ight
Ġent ire
Ġnew s
Ġb lo
ap er
Ġch e
Ġwork s
ĠAfric a
gr am
H ere
Ġma g
Ġco nd
Ġamaz ing
Ġs w
ur y
Ġrem ember
p ect
read y
Ġf ace
Ġis s
Ġbeaut if
er ing
ro p
und red
as es
Ġinc red
w are
en e
Ġch all
Ġp ar
Ġindivid ual
Ġhe ard
idd le
u ck
Ġdis co
Ġbas ically
ĠE arth
Ġimag ine
d e
Ġdec ided
Ġc ost
Ġex c
Ġspe nd
Ġt reat
e x
e ly
Ġg l
Ġal ready
Ġa ff
Ġf ull
Ġfrie nds
g et
Ġas s
Ġlook s
o ck
Ġto ol
ust r
ag es
ĠIn tern
Ġhist ory
Ġcont in
Ġgu y
i red
Ġh undred
Ġp ast
im ate
Ġ5 0
Ġ Well
Ġre t
iv es
Ġw a
Ġexper im
Ġsuc cess
Ġd ire
n y
Ġn et
Ġbu ilt
k en
Ġst ories
Ġad v
ĠUn ited
â Ģ
Ġ âĢ
os ed
Ġ1 5
Ġcol lect
Ġmonth s
Ġp ay
Ġwas n
Ġfo llow
Ġfig ure
v ious
ie ld
Ġeduc ation
Ġbeautif ul
Ġst ate
l and
at ic
Ġf ree
b s
t o
Ġse c
Ġor der
Ġcou ple
Ġgovern ment
Ġpie ce
Ġh uge
Ġres ult
Ġlar ge
Ġ 6
Ġc a
c ing
Ġbec ame
Ġt rain
Ġ 9
ion al
Ġminut es
Ġpro gram
Ġthou gh
Ġsoci ety
Ġde ep
Ġta king
b ers
Ġwom an
re t
iv ity
ĠH ow
Ġunt il
is ing
Ġcon st
Ġevery body
Ġ This
Ġeng ine
b r
Ġun iverse
Ġ 7
Ġv iew
Ġ They
are d
Ġ 8
in ed
us h
am es
Ġthem selves
Ġqu ick
ou th
is ion
et ic
Ġm ust
Ġlearn ed
Ġinc re
Ġplan et
i ans
om es
Ġfr ont
Ġj o
Ġm il
Ġd ra
Ġapp ro
Ġte am
ĠSt ates
Ġexact ly
ent al
Ġ1 00
ĠIntern et
a king
as ter
Ġfo cus
Ġcomple x
ĠâĢ Ķ
Ġcreat ed
Ġd i
Ġget s
l ine
Ġh ouse
Ġspe ak
Ġcomplete ly
s y
Ġin no
Ġcan cer
Ġse x
Ġf und
Ġkn ew
Ġbeh av
Ġhappen ing
Ġstud y
Ġv ir
Ġhour s
Ġst ruct
th ers
Ġsome body
Ġquest ions
at s
Ġn ame
d d
A ll
an e
c ul
Ġv o
i en
Ġpro v
ic ult
Ġpl aces
. .
Ġme et
Ġla w
e ah
Ġis n
ab ility
Ġnat ure
Ġkind s
Ġit self
Ġagain st
c le
r on
Ġb ab
Ġab s
Ġevery one
Ġc ra
Ġshow s
Ġ ve
Ġour selves
Ġdiffere nce
Ġem p
ĠChin a
g est
Ġa v
Ġg ame
i ol
Ġ That
Ġm ess
on es
Ġon es
itt ing
Ġlist en
Ġde p
Ġs ince
Th en
i qu
Ġopp ortun
og n
Ġo thers
Ġstud ents
a w
Ġ. ..
r ow
Ġm other
Ġp arent
Ġwork ed
Ġob ject
Ġcle ar
v ation
Ġexp ect
Ġr is
Ġdiff icult
Ġrel ations
Ġcompan y
Ġg ave
Ġsomet imes
Ġcl ose
as ure
Ġexpl ain
Ġh old
m ing
at t
ut e
ist ic
ol ved
er n
ĠN o
Ġinv est
Ġdise ase
Ġcould n
i ents
l ud
at or
Ġl ine
ur s
Ġr ather
act er
Ġra d
Ġth ird
Ġw on
Ġf ail
Ġd a
Ġd ru
Ġa ud
at ure
Ġne ur
h aps
Ġm ass
Ġsur pr
Ġinter act
ĠAmeric an
Ġthous ands
in ation
Ġde al
ct or
ĠA r
Ġimp ro
Ġout side
Ġsim p
Ġnet work
c c
Ġm iss
Ġhapp y
ib ly
Ġb ott
Ġn orm
ent ial
Ġchang ed
Ġam ount
Ġty p
Ġ ill
Ġw ind
Ġp ot
Ġl and
id er
Ġlear ning
om et
Ġst ep
ill ions
Ġre v
ivers ity
k s
ar ing
sy ch
Ġl iter
ĠE ng
Ġpower ful
Ġal ong
Ġar ch
Ġem ot
ĠAmeric a
o h
Ġ ident
Ġta kes
ĠInd ia
Ġc ir
Ġco ll
Ġmark et
Ġo il
Ġde l
Ġear ly
Ġ But
ĠB r
Ġsystem s
Ġpop ulation
ĠG od
n ot
um p
el t
Ġbehav ior
Ġde ath
Ġ Thank
ĠY ork
Ġspec ies
Ġ z
Ġs ens
Ġd uring
Ġle ast
Ġbl ack
E very
Ġm ic
Ġj our
Ġinst ead
Ġturn s
Ġpres ent
Ġmach ine
Ġp red
Ġf ear
Ġsh ort
Ġe le
ĠE ur
Ġgu ys
Ġcult ure
Ġf ly
Ġlot s
if t
Ġreal ized
Ġanim als
Ġf re
Ġst re
ward s
Ġf all
as ed
Ġgra nd
Ġext ra
Ġeas y
ve red
Ġdem oc
f ect
Ġm iddle
Ġd ream
Ġe at
Ġm ot
ith er
Ġo per
Ġg reen
Ġgiv en
r an
Ġp aper
Ġf ather
Ġha nds
Ġyour self
Ġprot ect
Ġ es
Ġd ig
Ġre cent
ull y
Ġim age
Ġbeh ind
ast ic
Ġneed ed
Ġv ar
on y
or th
Ġsa f
Ġar g
Ġnat ural
O r
o ve
Ġex ist
Ġneed s
pt ion
Ġmo le
j or
Ġc ut
ver age
id es
Ġrelations hip
Ġsimp ly
er y
le ep
Ġperson al
i um
Ġm ath
Ġan t
Ġle ave
Ġ Wh
Ġf ight
Ġn on
Ġse ven
Ġcompan ies
Ġcol le
o es
Ġp sych
Ġey es
Ġloc al
er a
f ace
in ary
Ġst ay
Ġfin ally
Ġl ow
Ġv iol
y ear
Ġp ract
Ġf ield
ĠS h
Ġf elt
ĠA l
ĠG o
led ge
Ġh y
Ġre d
Ġte m
ro om
Ġcent ury
od e
Ġ1 2
Ġfam il
Ġeconom ic
Ġb ro
Ġper form
Ġtra d
it ions
op h
Ġac cess
Ġcommun ic
Ġsupp ort
re w
ow s
Ġma jor
el s
iv ed
ne y
Ġser v
Ġpolit ical
ĠEur ope
v ent
is on
Ġare a
Ġturn ed
Ġmed ia
Ġter r
Ġval ue
Ġl im
Ġcan not
Ġsu per
Ġta ken
our ce
av or
Ġob vious
Ġfrie nd
Ġsp ent
ci ous
i ally
os p
ro du
olog ical
Ġem b
Ġcomm on
Ġbegin ning
e ople
i pp
Ġs un
Ġp le
Ġsee ing
Ġrec ord
Ġt re
Ġ4 0
Ġbre ak
S ome
Ġper haps
Ġpat tern
Ġle g
Ġke y
Ġs ent
Ġch em
Ġstr ong
u nt
id ence
Ġmo ving
ill s
rou ght
Ġext rem
o ok
Ġlong er
Ġlead ers
um ent
N o
Ġe ight
iv ing
Ġpart s
N A
Ġsur v
c r
f ully
Ġphot ograph
Ġwonder ful
Ġ1 8
Ġper fect
in al
Ġre ach
Ġquick ly
Ġm ult
Ġinc lud
g en
it ch
u le
Ġ Why
Ġbe gan
Ġgrow th
Ġs ize
Ġg round
Ġdra w
ĠO h
Ġc al
our ces
Ġev ent
Ġabs olut
l t
h ood
m b
Ġparent s
Ġl ost
Ġre qu
Ġco ol
Ġexperim ent
c rib
Ġspe cial
Ġter ms
o le
Ġs qu
ut h
Ġfil m
p ort
Ġ ess
Ġen c
Ġc am
Ġto t
un g
A t
Ġp ick
Ġbo x
it ect
Ġw in
Ġmor ning
Ġc y
Ġtra vel
Ġimp act
Ġwr ite
Ġimag es
Ġrep res
r om
Ġc ities
Ġse nd
Ġne ar
ust ain
Ġtr ied
Ġrob ot
b or
Ġ vers
Ġknow ledge
b y
is ed
l er
o y
Ġbu y
O n
Ġo ce
Ġo cc
Ġg e
Ġan al
il ar
Ġde ad
ou d
Ġins p
re nt
Ġc iv
Ġb ene
Ġsp read
ci ally
Ġrec ogn
Ġweek s
ive ly
rib ut
Ġappro ach
Ġsit u
Ġris k
Ġdire ct
Ġopportun ity
e ed
s h
Ġre le
ac y
Ġpo or
at ors
le t
Ġme asure
Ġcon v
Ġfe ed
Ġcons um
Ġarch itect
Ġa verage
Ġs um
Ġs itting
Ġd est
Ġwould n
ard s
z y
Ġs leep
Ġreal ity
Ġfeel ing
Ġatt ention
c l
Ġc amp
al es
ang er
ress ion
Ġmean ing
Ġob s
Ġca us
it ut
Ġb rought
Ġf lo
Ġd ie
Ġwhat ever
Ġaut h
Ġe ither
iz ing
Ġa p
er m
ĠEng lish
ore d
ate g
ag ed
ib ility
ict ion
Ġchang es
Ġb orn
en ge
Ġf ast
Ġcom b
Ġeconom y
Ġvo ice
ck s
Ġgiv ing
Ġresp ons
Ġstruct ure
dd en
c om
in y
ap t
an ces
Ġsu dden
gg est
Ġprof ess
Ġo pt
or ld
Ġst age
Ġor ig
Ġsu ggest
Ġbas ed
Ġinterest ed
Ġgrow ing
Ġphys ical
O kay
Ġy es
Ġst e
Ġ Th
ĠD NA
Ġtool s
e xt
ou ch
Ġg one
Ġknow n
Ġro ad
Ġ ice
Ġf avor
Ġab ility
Ġsee ms
Ġind ust
Ġmod ern
Ġaff ect
Ġa w
Ġh osp
Ġdevelop ed
Ġbook s
Ġanim al
Ġcir c
x y
Ġf ac
Ġ2 5
ra cy
Ġreal ize
Ġd ark
Ġst at
Ġso ft
ĠA s
Ġpr iv
Ġsm art
lo y
Ġbl ue
Ġp ress
Ġf ire
an n
T o
Ġv ac
Ġey e
Ġ /
Ġfo ot
Ġinv ent
Ġgirl s
A n
u g
Ġre du
ur b
Ġunderstand ing
Ġnum bers
Ġscient ists
P eople
e v
Ġs ustain
Ġh ar
Ġp ull
as c
Ġn ice
Ġne igh
Ġte xt
Ġcr it
Ġincred ible
Ġchall enge
r al
ain s
Ġthan k
Ġdes crib
Ġwr ote
amp les
Ġiss ue
l ict
o f
Ġp ath
Ġdevelop ing
g ed
Ġma in
a i
it es
Ġsa ve
Ġcl imate
Ġph one
Ġcreat ing
Ġrun ning
O ur
Ġstart ing
ĠCh r
ĠChin ese
Ġaud ience
Ġh or
Ġp ur
Ġpo ll
Ġhum ans
Ġbott om
Ġs olution
ch ie
Ġare n
Ġal one
Ġtrad ition
Ġciv il
o on
Ġm illions
b on
ens ive
Ġp ost
Ġf em
ver t
Ġcon vers
ist an
Ġknow s
ĠC an
Ġcol or
Ġh on
Ġh ot
Ġin tern
Ġwr iting
pe cially
Ġplay ing
Ġbene f
ĠI f
Ġsc ale
g ress
Ġw all
Ġs ong
Ġhundred s
is ter
om en
Ġte le
Ġany one
Ġblo od
Ġliter ally
Ġsee m
Ġrel ig
am ed
Ġtell ing
Ġare as
Ġr ul
Ġexper ien
Ġsl ow
Ġon line
Ġmo v
i k
p ar
Ġdevelop ment
Ġgiv es
l u
ic y
Ġas king
Ġwor th
Ġcon cept
Ġv ill
ĠS outh
Ġtr uth
Ġgu ess
Ġinno vation
Ġbab y
Ġso on
Ġr ate
Ġ There
ere nce
Ġde g
Ġpat ients
t on
Ġfor ward
Ġpe ace
Ġsol ve
Ġpred ict
Ġ Z
Ġs il
Ġb ra
Ġpro p
Ġtrans form
Ġty pe
Ġl if
Ġpr om
ĠW orld
Ġtechn olog
i et
Ġde pe
Ġv ol
Ġpl ant
Ġnorm al
p or
Ġwh ite
Ġar r
Ġpat ient
Ġdisco vered
ir th
Ġshow ed
o ll
Ġthe ory
Ġfor ce
Ġim m
Ġsu ff
iqu e
if ied
Ġtr ust
Ġfe et
ell ig
Ġav ail
Ġes pecially
Ġ er
Ġc op
Ġf a
us ion
Ġprodu ce
Ġcent er
Ġsound s
bo ok
Ġrepres ent
as ing
er v
ent ially
Ġpict ures
Ġcur rent
Ġindust ry
Ġa st
ĠA n
Ġgener ation
Ġsim ilar
Ġmove ment
Ġsub ject
Ġchall eng
Ġb ed
Ġpro per
g o
y ond
Ġm ar
Ġst ra
Ġmaterial s
Ġincred ibly
Ġfund am
Ġc ars
le y
if y
Ġtalk ed
Ġsur face
N ot
i od
Ġt ouch
Ġb ur
Ġchang ing
Ġpot ential
Ġoce an
I s
Ġch ance
Ġcomp et
Ġser ious
Ġabsolut ely
i ant
p re
Ġg ames
ch an
ĠL e
Ġteach ers
im ens
Ġres ources
Ġo kay
og le
ab or
Ġinv olved
Ġa chie
os ing
Ġse ll
Ġconf lict
Ġha ven
Ġtra ck
in a
en ces
Ġre ce
ass ion
Ġiss ues
Ġjour ney
Ġta ble
Ġper iod
ĠP h
Ġam ong
Ġdef in
is ions
Ġm arr
Ġd anger
il ities
Ġev olution
y r
Ġt iny
Ġbe yond
Ġu lt
Ġsh ape
Ġhapp iness
Ġs on
Ġb all
Ġb irth
Ġschool s
Ġdet ail
Ġmess age
oh n
Ġmic ro
l ike
Ġint ellig
Ġcar bon
Ġvis ual
Ġgroup s
b it
Ġs n
Ġs at
Ġh it
or ing
Ġst ru
iv al
Ġfun ction
Ġavail able
Ġ est
Ġf ur
ad es
Ġpr in
Ġgener al
Ġstre et
Ġsitu ation
Ġtechnolog ies
Ġl ay
Ġne cess
ĠM y
Ġfl ow
Ġpass ion
Ġcho ice
Ġdemoc racy
Ġso ld
ĠB e
Ġmo b
Ġrev olution
J ust
l ight
is hing
Ġd ou
Ġte nd
Ġbo y
Ġvis ion
Ġwalk ing
Ġrul es
o id
Ġw ish
Ġb reat
Ġproject s
Ġelect ric
Ġdev ice
Ġrecent ly
Ġc ause
Ġ1 1
ĠF r
he ad
Ġdr ive
Ġ8 0
Ġmil es
i ar
p ut
Ġre act
Ġr ich
Ġfl u
en cy
od ies
Ġbec omes
Ġmed ic
Ġviol ence
B y
ap an
ed om
Ġlike ly
Ġput ting
Ġatt ack
Ġindividual s
Ġ6 0
Ġdig ital
os ph
Ġf air
Ġne g
Ġle a
Ġmet h
Ġmem ory
Ġm ap
Ġf u
Ġd ied
ar ily
st r
Ġcr oss
Ġacc ount
D o
u it
Ġact iv
Ġtell s
Ġoff ice
ress ed
C h
Ġse a
Ġbig ger
cus s
ip s
Ġar m
n ed
u ly
Ġex cept
ĠGo ogle
f ort
et er
ay be
Ġcreat ive
Ġcle an
Ġc it
Ġd iv
Ġme chan
ci ent
Ġev idence
m a
y n
ra ge
Ġcomp assion
ĠJ apan
Ġdesign ed
Ġreas ons
g es
i res
Ġc e
Ġse arch
ous ly
Ġmed ical
Ġresult s
m ore
t ed
Ġb ird
as k
Ġact ion
Ġevery where
ĠN orth
ĠW est
Ġimpro ve
S t
o ke
Ġt ar
Ġto wards
Ġn ine
Ġcra zy
W ith
p an
Ġa ware
Ġst ore
Ġli ved
un e
Ġbl ind
Ġcr is
Ġdru g
Ġ rain
ant ly
Ġun f
Ġem erg
Ġread y
Ġteach er
Ġl ose
Ġwas te
Ġbas ic
Ġcons cious
Ġpartic ip
med i
Ġfavor ite
Ġsoft ware
I V
on se
Ġl ed
ag n
Ġpr im
Ġph il
ish ed
Ġneigh bor
om s
Ġta ught
Ġstart s
Ġbig gest
Ġinst itut
Ġextra ord
Ġcam era
v iew
Ġc art
Ġd om
om ing
ct ors
am a
Ġtr ial
olut ions
Ġcertain ly
Ġb acter
Ġd am
Ġl t
Ġg t
Ġse ver
Ġex amples
Ġint rodu
Ġmind s
es tern
Ġpro gress
Ġmo ved
ĠO kay
Ġcommun ities
Ġscient ific
Ġfur ther
Ġm is
Ġon to
um b
Ġpr int
Ġsc reen
ĠY es
Ġsaf e
Ġobvious ly
Ġenc ou
Ġcit iz
h ow
Ġth reat
Ġe p
Ġme ant
Ġr id
ĠS e
iz ations
ud e
Ġshow ing
Ġtrans l
Ġmor al
Ġap art
e ch
g round
Ġp u
Ġqu ality
Ġcont ent
Ġcont ext
Ġcomput ers
Ġparticular ly
Ġmole c
o ot
Ġ Now
Ġc ode
Ġd in
al a
Ġn ational
im s
ur ity
ru ction
Ġrep ort
Ġf aster
Ġdo or
ĠH IV
Ġcons ider
Ġcho ose
A l
A fter
n ers
Ġa f
Ġm ount
ra b
ĠT V
Ġsever al
n ces
Ġresp onse
r ast
Ġwh e
ure d
ĠE ast
ĠP r
Ġad m
Ġgr aph
ak es
Ġstud ent
Ġind eed
oth ers
Ġfore st
Ġauth or
Ġdec isions
Ġreg ion
Ġsol ar
Ġsurpr ising
Ġtot ally
c ome
g ing
n al
Ġe c
am m
ĠAf gh
Ġhosp ital
Ġvac c
w o
Ġf ix
Ġg rew
et h
Ġwor se
Ġbrain s
Ġmag ic
Ġdru gs
Ġs and
Ġf ant
Ġcl oud
ĠD e
Ġconnect ed
ught er
Ġs we
Ġm ine
Ġf ish
Ġsh own
Ġcar ry
Ġsk in
Ġsoci et
Ġpos itive
Ġvir t
ĠBr it
Ġb ar
Ġno body
Ġrem ark
Ġvir us
u ed
Ġthe r
ĠS w
Ġ1 6
Ġpr ison
ĠJ ohn
Ġstr ateg
Ġjob s
Ġwa it
Ġcoll abor
Ġl uck
Ġst ick
Ġim medi
Ġwant s
Ġpers pect
uc le
Ġ19 9
Ġass um
Ġfre edom
Ġinclud ing
l a
Ġb odies
Ġp ush
op s
pl ace
Ġwatch ing
Ġcontin ue
Ġret urn
Ġtrain ing
Ġb al
ver ty
Ġfin an
Ġallow ed
Ġchem ical
Ġsudden ly
ĠAfgh an
d om
at ory
Ġwe bs
ol es
ff ic
Ġany body
Ġad ult
ĠY eah
Ġdet ect
Ġtre es
Ġvill age
M aybe
Ġm ental
ay s
id ge
Ġnot ice
Ġsp ir
so ci
Ġdec ision
te nd
Ġexpl ore
Ġinf lu
C an
p ed
ig er
Ġdis cuss
Ġapp ear
Ġstud ies
Ġlar gest
Ġinf ect
Ġkill ed
Ġpos ition
Ġmov ie
Ġmeth od
m en
Ġw ife
Ġf ill
Ġf asc
ur t
ie f
ag ine
Ġun ivers
Ġro ck
Ġfar m
Ġchar acter
Ġobject s
E ven
i ers
Ġ ign
Ġb om
Ġf ine
Ġse par
Ġany more
Ġbuild ings
in ct
ou ght
Ġb ank
Ġact ivity
Ġcl in
Ġcl os
Ġsec ret
Ġevent ually
I m
Ġn amed
Ġtr uly
Ġtem per
Ġcris is
5 0
Ġp an
ic le
Ġst ress
Ġde b
Ġ1 4
Ġpo verty
Ġminut e
er o
Ġm ist
Ġcon c
Ġpl ants
itt en
olog ist
Ġinc ome
Ġend ed
Ġpoint s
Ġexc ited
Ġdepe nd
f or
r os
in ing
it ary
Ġn arr
Ġn ucle
Ġfor ms
ĠS he
Ġpr ote
Ġfind ing
av id
Ġart ist
Ġsupp osed
Ġspec ific
Ġcond itions
Ġprov ide
Ġfamil ies
Ġextrem ely
Ġtradition al
Ġconvers ation
a ur
r ing
r or
Ġs ource
ul ate
ist ics
Ġlo ved
el ess
oss ible
Ġke pt
Ġeff ort
Ġpolit ics
Ġsign ific
Ġextraord inary
od ay
ĠS ch
Ġspe ed
Ġsy n
lic ated
Ġ20 1
Ġear l
Ġcap t
Ġlab or
Ġproduct s
Ġ9 0
F irst
a id
Ġs olutions
er ve
en n
Ġp ack
ci p
Ġdis app
Ġsk ills
ĠAfric an
Ġexc iting
Ġcolle ge
c ise
f r
Ġc ases
ig her
ĠA t
Ġro le
an y
se ct
Ġgo al
Ġal ive
ĠC ar
Ġac cept
Ġsort s
Ġallow s
Ġmodel s
Ġthous and
Ġlisten ing
Ġserv ice
M ost
h ere
Ġh op
Ġdo ctor
Ġab ove
Ġpub lish
z z
Ġw ild
Ġo xy
Ġh igher
Ġl ate
Ġr ap
use um
ĠC al
Ġsur ger
ĠChr ist
Ġsociet ies
c ape
Ġt rou
it i
Ġl ink
Ġj ud
Ġ1 3
Ġen j
Ġco ok
ĠO K
Ġread ing
Ġdet erm
Ġsuccess ful
Ġemp loy
Ġmath em
Ġstru gg
c ies
Ġwe ight
ĠA rab
Ġimp ossible
Ġeng age
Ġfasc in
Ġdo c
ies t
Ġaff ord
Ġpur p
i ation
u be
Ġb unch
Ġsm ell
Ġcor re
Ġcal cul
Ġfundam ental
Ġl ands
Ġ1 7
Ġexp ensive
Ġpol icy
Ġcap ital
Ġmach ines
ĠIs l
e es
y l
Ġs ou
st er
Ġcon cer
Ġany where
Ġsl ight
Ġfun ny
Ġref lect
Ġrob ots
Ġneur ons
Ġcolle ag
Ġfamil iar
Ġ i
an a
iv en
ĠW estern
Ġl ad
ĠG e
Ġco ld
Ġgen etic
Ġeff ic
Ġpie ces
Ġ7 0
Ġcrit ical
osph ere
O f
Ġth r
Ġc ry
Ġl ower
ar ies
Ġdo ctors
Ġsome where
Ġdem on
Ġsw im
Ġtyp es
Ġstra ight
o int
Ġus ually
Ġbec oming
ĠA m
ĠA ll
Ġup on
Ġact ual
Ġtalk s
Ġfam ous
Ġser ies
Ġseco nds
Ġresp ect
Ġlar ger
Ġtreat ment
cul es
Ġpattern s
f er
Ġm ir
Ġpl astic
co nd
Ġra nd
Ġche ck
Ġsqu are
Ġrecogn ize
Ġmob ile
Ġphil os
Ġperspect ive
le x
ain ed
Ġgreat er
Ġra ise
Ġear th
Ġgl ass
ustr ial
is es
im b
ra el
ĠB ra
Ġman age
Ġright s
ell ow
Ġla unch
ĠAmeric ans
ĠUn iversity
Ġmag n
T oday
u f
Ġhe av
un k
Ġsome how
Ġsa ving
Ġro ll
Ġbo ard
ĠW ar
Ġsc r
Ġstr ange
Ġteach ing
Ġcitiz ens
Ġfinan cial
t ime
Ġ quot
re pre
Ġf ra
ro f
Ġk il
ĠR e
Ġshare d
Ġbeaut y
Ġeffect ive
Ġfem ale
repre ne
Ġt iss
Ġs us
Ġs ite
am ic
Ġsh ark
Ġj ump
Ġr ise
Ġv ict
Ġwill ing
ĠK en
Ġhealth y
Ġmole cules
Ġvers ion
urb an
ĠAfghan istan
Ġdemon str
Ġrand om
b ack
e gr
v ision
Ġas soci
Ġtr ib
Ġtr ick
Ġcomp licated
Ġle gs
Ġwr itten
Ġsmall er
Ġstand ing
ortun ately
Ġincre asing
Ġspir it
Ġp ort
Ġsh ap
Ġus es
um ents
Ġsy m
Ġpre p
Ġ19 8
Ġresp ond
Ġpain ting
Ġsec urity
b b
re st
er man
Ġh ous
Ġg as
ic ed
ĠH ar
ep end
ound s
ĠL et
Ġdec ades
Ġhuman ity
Ġth row
Ġc at
Ġm al
Ġp age
Ġd rop
om m
ent ly
ir ing
Ġgen es
Ġold er
Ġorgan izations
Ġconnect ion
Ġlevel s
Ġdisco ver
Ġincre ase
Ġinno v
Ġbab ies
Ġopt im
Ġachie ve
Ġbacter ia
S e
it ation
Ġst ar
Ġr an
Ġhelp ed
Ġorgan ization
Ġcost s
Ġdanger ous
Im agine
Ġ X
us s
Ġan g
ul f
il ing
ag ing
Ġexp ress
Ġspe ech
Ġdes p
Ġrem ind
Ġcor ru
Ġple ase
Ġwebs ite
b all
im p
Ġfor th
Ġbeing s
Ġpol ice
Ġfin al
Ġdist ribut
Ġengine ering
Ġess entially
Ġb read
ĠI ran
Ġpr os
ac ity
Ġpract ice
Ġfant astic
u gh
Ġh ole
le br
Ġthrough out
Ġimmedi ately
a ff
a ign
p ing
at ically
Ġc ard
Ġf it
al y
Ġe th
Ġcom fort
ab les
ther n
ĠD o
Ġhon est
Ġremark able
Ġsurger y
Ġc ust
Ġp ark
Ġd ro
Ġal g
Wh ere
ĠM an
Ġoff ic
Ġcreat ivity
Ġent reprene
ĠIs rael
Ġelectric ity
Ġearl ier
r ay
it ude
Ġp en
Ġbelie f
Ġbi ology
Ġphot o
Ġarchitect ure
Ġintern ational
n ter
Ġd ad
Ġn ation
Ġe t
Ġco ff
Ġtra de
Ġenvironment al
Ġclear ly
Ġm ention
Ġch air
Ġev olved
Ġun ique
Ġ2 1
Ġinter view
Ġstand ard
Ġfollow ing
Ġdi agn
Ġserv ices
Ġtele vision
Ġchalleng es
Ġ urban
Ġs al
it or
Ġm atch
or row
ul ner
Ġco ver
ĠO r
Ġprodu ction
Ġcare er
s on
w ord
ar ian
ot y
ig r
olog ists
Ġph en
ĠR ight
Ġwalk ed
Ġadd ress
Ġwa iting
Ġda ughter
Ġemot ional
Ġneighbor hood
A ny
a f
er al
id s
se qu
th ough
Ġsh ock
ĠC ity
Ġpr ice
Ġem ail
Ġapp ly
Ġlight s
cept ion
Ġopp os
Ġcond ition
Ġpriv ate
Ġce lebr
B e
a ul
Ġt ur
Ġm ix
us ed
im ately
Ġse qu
Ġsp aces
Ġuse ful
Ġunderst ood
Ġmil itary
Ġve h
Ġsum mer
Ġintellig ence
Ġt ask
Ġn ut
id ing
em ent
ber t
Ġra ce
Ġhim self
Ġpop ular
Ġblo ck
Ġsex ual
att le
Ġmass ive
Ġperform ance
Ġenj oy
Ġcoff ee
Ġh us
Ġl ines
Ġwe b
Ġwh ose
Ġst ars
ist ry
res h
Ġfo ld
ĠF ace
Ġpre vent
Ġsur round
Ġsk y
Ġaut om
Ġhist or
Ġdest ro
Ġ When
Ġm ale
th e
ra q
Ġsh ift
ore s
Ġex h
Ġthere fore
Ġsp ect
ud d
Ġspe aking
Ġcho ices
bo ard
ash ion
Ġclass room
Ġexperim ents
Ġphen omen
Ġ ir
re es
Th ose
Ġfor get
ra d
Wh ich
ĠM ar
ĠG erman
ip t
ord er
ren ch
Ġgra du
Ġval ues
Ġphot os
Ġmeet ing
Ġrad io
Ġmult ip
Ġmedic ine
Ġslight ly
ĠS p
ci ence
Ġwere n
Ġdec ide
Ġcreat es
Ġ $
Ġw ood
en ed
al ing
ce ed
Ġdo g
st ead
Ġwor ry
Ġv ulner
and a
ĠS te
ĠB l
ĠD avid
Ġcent ral
Ġphys ics
Ġbird s
S omet
i ate
o e
u ing
y a
Ġt rem
Ġto wn
Ġin sect
Ġy eah
Ġwe alth
Ġse lect
Ġdiffere nces
Ġhigh ly
iss ion
Ġ19 7
Ġdire ction
Ġfocus ed
Ġcomplex ity
Ġmot iv
I D
R ight
Ġ Q
Ġt ree
en ing
Ġh all
Ġd ance
ow d
Ġe ating
ĠD on
Ġbo ys
Ġinst ance
Ġdr iving
Ġnetwork s
Ġstre ets
Ġinvent ed
An other
is ms
ic ians
ĠI raq
im in
Ġan n
ĠL ond
Ġtrans port
Ġansw ers
Ġinsp ired
Ġcamp aign
Ġnucle ar
Ġpurp ose
ĠFace book
o ff
y le
Ġd ying
Ġlo g
Ġte en
app ed
Ġ2 4
ib r
Ġdr ink
Ġsl ide
Ġcult ural
Ġlaw s
Ġsurv ive
Ġocc ur
Ġtar get
ĠLond on
Ġa head
Ġs ad
Ġc and
os es
Ġin j
Ġg ent
st e
Ġsh ot
Ġwor st
ĠA ustr
Ġen orm
Ġpart y
Ġsy mb
Ġprof ound
Ġdise ases
Ġspend ing
ex ic
Ġtemper ature
Ġhus b
Ġst ates
am s
ol ve
ra id
Ġsh op
Ġint egr
Ġdec ade
Ġgreat est
Ġart ists
Ġshare s
Ġident ity
Ġtrou ble
Ġcust om
r atic
Ġo h
at ives
Ġc atch
Ġp aid
ant ic
Ġr ange
Ġor d
ĠA d
ĠC l
lic ations
Ġter m
Ġvar ious
Ġsustain able
Ġaf raid
i ot
y stem
or ge
op er
ĠC ent
ĠM us
ĠM iddle
Ġad apt
Ġbr ings
Ġelect r
Ġcommunic ate
Ġanal y
Ġcaus es
c ope
o x
w ise
ad em
il le
Ġinst r
Ġla ugh
Ġstop ped
Ġbre ast
Ġterr ible
Ġet c
r ied
u ct
Ġ ver
Ġw is
an cy
ar m
ce ll
Ġres ist
Ġhelp ing
Ġ5 00
Ġdoc ument
a x
g th
m ic
Ġb ase
Ġm ut
Ġd imens
or ith
or ry
Ġl oss
Ġwe ap
Ġst ren
Ġnot iced
il es
Ġr ule
Ġact ive
Ġtra ffic
Ġpublish ed
Ġf at
al ia
et t
ke y
Ġfr ame
Ġcon sequ
Ġknow ing
ĠC ol
ĠM exic
ĠB ecause
Ġtw ice
lo ad
Ġcap acity
Ġscient ist
Ġdirect ly
Ġflo or
n a
z e
Ġf ing
ed d
as hing
if orn
th etic
Ġv ast
ĠC ong
ĠM c
ĠP ar
Ġmost ly
Ġdr am
Ġmiss ing
Ġfly ing
Ġvar i
Ġexperien ces
Ġmathem at
Ġalg orith
Ġstren gth
Ġ ing
Ġg ala
Ġcomp on
Ġcomm er
ĠO ne
Ġbl og
Ġmem bers
Ġjour nal
Ġleaders hip
ĠCal iforn
Ġgent le
L ike
Ġa id
Ġg un
Ġat m
itt ed
Ġrel ative
Ġaut ism
ĠInd ian
Ġjo in
Ġcommunic ation
Ġvol unt
rast ruct
Ġclos er
Ġ ut
ed ia
Ġdis pl
Ġind epend
Ġbel ow
ph one
Ġposs ibly
Ġsupp ly
eng u
Ġinstitut ions
Ġcolleag ues
S h
g y
z il
Ġt ens
at r
Ġre ve
em pt
Ġta x
Ġbas is
Ġmom ents
Ġconf erence
idd en
Ġfore ign
Ġdev ices
Ġemot ion
Ġdel iver
Ġdou b
Ġi P
uf act
ĠCaliforn ia
D P
i os
n ow
Ġl ack
Ġbe at
Ġfor ces
am b
Ġnot e
Ġr ough
iz es
ric ult
Ġpass ed
Ġinf rastruct
Ġcontro ll
Ġsw itch
Ġz ero
Ġbro ad
Ġredu ce
Ġwhe el
Ġphilos oph
S A
g ain
Ġto m
an ced
ĠCh ar
Ġelect ron
Ġjo y
Ġopportun ities
Ġmolec ule
Ġluck y
Ġcorru ption
ID S
f l
it ter
Ġp ig
Ġd yn
Ġfor t
ĠS c
Ġag ree
Ġno vel
Ġun c
ĠF or
Ġprodu ced
Ġacc ur
Ġair pl
Ġav oid
Ġtiss ue
Ġh ang
Ġf ashion
Ġse ed
Ġsh aring
Wh o
Ġman ufact
ath y
Ġfeel s
Ġplay ed
Ġbring ing
Ġhear ing
Ġmiss ion
M any
i age
Ġp engu
Ġli ber
Ġpo et
Ġam b
ord ing
Ġsc an
Ġstud ying
Ġcr owd
oth es
Ġadd ition
Ġprogram s
Ġnear ly
Ġorig inal
Ġbra nd
ste in
Ġhusb and
v ant
er vation
Ġb an
Ġf ro
Ġd en
Ġre b
Ġor g
ib er
In stead
Ġatt ract
Ġrelationship s
Ġoppos ite
L ook
s c
Ġf aces
Ġre con
Ġst em
Ġfor g
ĠT w
ĠD r
Ġapp l
Ġra re
Ġimportant ly
Ġemot ions
Ġdeg rees
Ġsignific ant
ĠBra zil
Ġtrem end
os h
Ġb ought
ct ually
Ġha ir
ad a
ĠM r
ĠN ational
ĠR uss
Ġins ight
Ġvis it
Ġstruct ures
Ġtot al
Ġrelig ion
Ġconscious ness
Ġpu zz
Ġoxy gen
F rom
T wo
w ide
Ġc ru
ic king
ch es
Ġhe at
il s
ĠT r
ĠP l
Ġrest aur
Ġfore ver
Ġbro ken
Ġfu el
Ġther ap
o o
v est
Ġw ide
os qu
Ġha ck
art ment
Ġal though
Ġany way
Ġsur ve
Ġcons id
Ġpass word
Ġentire ly
Ġfull y
Ġbenef its
Ġnecess ary
Ġcorre ct
Ġsymb ol
Ġcommer cial
Ġatm osphere
D on
g n
ar ia
Ġan cient
Ġv ote
ĠA IDS
and er
ĠC on
Ġback ground
Ġdifferent ly
Ġ3 00
Ġmag az
Ġadv ant
Ġwis dom
k y
Ġb atter
Ġm outh
ve re
Ġhe ld
ear s
ud ience
Ġag ricult
ell ing
Ġind ustrial
Ġimag ination
Ġless on
Ġmatter s
Ġeas ily
Ġfail ure
Ġwind ow
Ġmajor ity
Ġrequ ire
g al
h and
l im
re et
ou n
Ġc ogn
Ġm useum
Ġh om
Ġre co
Ġme as
rou d
Ġev ents
ac ed
ĠF rench
ak er
Ġcor ner
Ġequ al
Ġche ap
Ġgrand m
Ġarg ument
Ġtur ning
Y es
b ased
os ystem
Ġb ul
Ġp et
ed ic
ic les
ir t
Ġv ot
ĠM e
ag er
ag ers
Ġcl a
ĠP ro
Ġco oper
Ġbr ill
ys is
Ġcol ors
Ġpar ad
Ġdeep ly
Ġenorm ous
Ġinfrastruct ure
h ouse
is ible
Ġto r
ic on
Th ink
ur d
if ically
if ying
ain ing
Ġun like
ĠN or
Ġoff er
ĠK ore
Ġmet aph
Ġlead ing
Ġdream s
Ġrespons ible
Ġstat istics
Ġrece ived
Ġmount ain
g ar
w in
z en
Ġs ick
Ġb urn
Ġst ream
Ġsh oot
Ġch ick
Ġtr ip
ite ly
Ġgr own
Ġcr ime
Ġ19 6
Ġdem and
How ever
Ġgovern ments
Ġnews p
Ġhy p
Ġdescrib e
Ġec osystem
Ġrap id
Ġlands cape
h y
Ġc ore
Ġb le
Ġb one
ap ers
Ġf ab
Ġd iversity
Ġre pe
ul ous
ĠM ich
Ġwork ers
Ġgot ten
Ġam p
ograph y
pect ed
Ġhy d
Ġsuff ering
Ġfascin ating
Ġdestro y
Ġvolunt e
t le
v ity
re ci
Ġm amm
Ġp roud
Ġl unch
Ġn one
ro ll
ul ations
Ġal tern
lo ck
Ġcont act
Ġcreat ures
Ġfl ight
Ġacc ident
ĠHe y
ĠWh ere
ĠBrit ish
Ġdesp ite
Y eah
h a
l i
w ater
Ġb ag
Ġb ud
Ġm osqu
Ġg ift
Ġus ers
Ġjust ice
Ġsp ot
Ġsp ort
Ġsee med
Ġexp and
ord ers
Ġeffect s
Ġrespons ibility
Ġbenef it
e qu
Ġb ound
Ġm id
Ġm ort
en cies
Ġwe ar
Ġbe es
Ġre ward
ver se
ĠS m
ĠH ere
Ġreg ular
Ġresearch ers
Ġphys ic
Ġinteract ion
Ġill ness
Ġfight ing
Ġextrem e
Ġpress ure
Ġbreat h
A re
Y our
k ed
m ark
Ġt ough
Ġd an
ur ch
Ġse ctor
Ġsh oes
ter m
Ġr out
Ġcomp ared
Ġcl imb
ip ment
Ġchild hood
Ġrem ote
Ġshould n
Ġatt empt
Ġtyp ical
Ġemb ra
Ġdom in
Ġstrateg y
Ġbal ance
k n
it able
Ġp air
es ome
Ġn or
th es
ers on
Ġqu ant
Ġapp e
Ġra ised
Ġ4 00
Ġvo ices
Ġill ustr
ipp ed
Ġleg al
ĠJapan ese
Ġadult s
m p
o ch
Ġh ate
Ġg ay
Ġg iant
ic a
Ġe gg
Ġex er
Ġtr uck
ĠM ars
Ġman aged
Ġpr ior
Ġmet ers
ĠEurope an
cr ipt
ĠAs ia
Ġdefin ition
Ġmarr ied
Ġdin ner
Ġprote in
Ġtremend ous
u ild
Ġt al
Ġw ond
Ġh ost
Ġha bit
ĠS an
el lect
ĠM in
ĠP al
Ġposs ibility
Ġpres ident
Ġcollect ive
Ġve get
Ġperfect ly
Ġdam age
Ġep ide
Ġfarm ers
f ord
Ġt um
re g
es ign
Ġgo ld
Ġthink s
ia ble
Ġcall s
Ġcont ribut
Ġbr other
Ġtrans m
Ġele ment
Ġconv in
Ġfa ith
gy pt
Ġt ast
Ġre place
Ġhe ll
Ġal t
ĠH a
ĠE very
ru pt
Ġpre vious
Ġrel ated
Ġstu ck
Ġbi ological
Ġdist ance
Ġpain t
Ġfigure d
Ġfail ed
Ġdraw ing
Ġdou ble
R e
h ab
at form
Ġd ue
ar ter
Ġy ellow
Ġg ard
ur ies
Ġas pect
Ġsh ip
Ġr iver
Ġcon cent
ck et
Ġint ellect
ĠB ill
ĠG DP
Ġexper ts
Ġlet ter
Ġsim pl
con nect
Ġhelp s
Ġlead s
Ġeas ier
Ġwatch ed
Ġequ ipment
Ġfre qu
Ġcy cle
Ġneg ative
Ġinsect s
Ġcogn itive
O ver
h old
m on
v al
Ġh omes
Ġh idden
ct ions
Ġsh ut
Ġsh el
Ġr ound
Ġpart ners
ĠJ ust
Ġgen ome
Ġexper t
Ġinv isible
Ġinst all
Ġart ific
Ġent er
ific ation
Ġcor por
Ġsuc ceed
Ġdisco very
Ġdi et
Ġlim ited
Ġvers us
ĠSw ed
Ġbom b
Ġeffic ient
Ġquot e
Ġadvant age
Ġbrill iant
l in
Ġt un
Ġt our
Ġb illions
Ġwe ird
Ġu nd
Ġnot ion
ĠA re
Ġint u
pp ed
Ġun ex
ĠE gypt
Ġdes ire
Ġlangu ages
Ġhold ing
Ġinvest ment
Ġmot or
Ġant ib
Ġess ential
Ġfair ly
r ict
Ġc red
Ġm others
Ġf ol
Ġf resh
Ġn ames
Ġst im
ate ll
ĠM o
Ġevery day
Ġdis c
ĠR o
Ġbr idge
Ġplan ning
Ġsub st
Ġda ily
Ġterr or
ipp ing
Ġfeed back
Ġcirc um
imens ional
Ġnecess arily
Se cond
Ġconcent r
I T
m y
in c
Ġs ister
Ġc ateg
as on
ul pt
Ġch ann
ok ing
app ing
ĠD an
Ġem pt
Ġfact s
Ġsc ulpt
Ġapp reci
Ġstud ied
Ġcre ation
Ġop in
Ġlead er
Ġdoll ar
Ġbusiness es
ĠChr is
Ġexperien ced
Ġinflu ence
Ġstrugg le
Ġhous es
A ctually
i us
Ġw ire
Ġin cent
ot ic
Ġg lo
Ġr at
ĠG u
Ġmo ves
Ġdesign er
Ġplan ets
Ġed ge
Ġopen ed
Ġneur os
Ġlea ving
kn own
H is
O h
c les
d imensional
Ġ iron
in ally
Ġs atell
ow ing
ro gen
th rop
ort ex
Ġcomp are
ĠE d
Ġdis p
Ġcomm it
Ġsur ge
Ġinv ited
Ġent ertain
Ġkeep ing
Ġ15 0
Ġfollow ed
Ġdep ression
Ġinvest ig
Ġsurpr ise
Ġsurpr ised
Ġarg ue
Ġincreasing ly
Ġelectr ical
c op
m e
m ber
p id
Ġ ur
Ġt ick
it ute
Ġm ill
Ġm ouse
en er
ap se
Ġg ar
Ġwe aring
ent ally
Ġme at
Ġpl atform
ĠM ay
Ġworld wide
ĠB ig
ĠG reat
Ġun iversity
Ġcl ick
ĠN e
Ġpre cise
Ġhigh est
Ġcap able
Ġbeg ins
Ġrad ical
Ġhor r
Ġassoci ated
Ġmagaz ine
a u
in stein
Ġo dd
is co
Ġm aster
Ġl osing
ar a
om y
am i
Ġli ked
ant ed
Ġma int
Ġno ise
ĠL ook
ĠF ran
oc ol
Ġfin ished
pr int
Ġacc om
Ġmark ets
Ġconst antly
Ġprin cip
Ġvacc ine
Ġunivers al
Ġsepar ate
ĠSch ool
Ġcomfort able
Somet imes
ĠAustr alia
ĠMexic o
Ġmetaph or
A gain
O nce
Ġs orry
ess ed
ĠA b
act ers
ib ilities
Ġres ource
ĠW ashing
Ġbelie ved
Ġprot oty
Ġchar ge
Ġchar acters
Ġsurv ival
Ġhar m
Ġdeg ree
Ġcompet ition
Ġnut r
e f
i j
n s
v ention
Ġb attle
ill ed
Ġr ural
Ġmo on
Ġbr ight
Ġgra d
Ġkill ing
Ġengine ers
Ġdescrib ed
Ġult imately
ĠKen ya
ĠTw itter
in ist
Ġp urs
an es
Ġd ry
Ġd ial
Ġg ap
Ġg ather
Ġwh om
id ents
ck ed
Ġsu gar
Ġper ce
fore st
Ġind ic
iss ions
Ġcou nter
Ġval u
Ġprofess ional
Ġsuggest s
Ġphenomen on
Ġdimens ions
Ġweap ons
Ġairpl ane
Ġorg ans
ĠWashing ton
2 0
l s
r um
Ġt it
Ġt on
om p
ent y
ce ler
Ġk ing
ul s
Ġint r
Ġexp ression
Ġper ception
Ġfe llow
Ġag re
ĠP aul
Ġro ot
Ġad vert
Ġlet ters
ĠEng land
Ġele ments
ĠWh o
Ġpassion ate
Ġconcer ned
Ġshap es
Ġb and
Ġh oles
od es
ess ion
ĠB ang
ĠG ra
Ġher o
ak ed
Ġbel ong
ub lic
Ġfin ish
Ġhard er
Ġcou rage
Ġca ught
Ġnorm ally
Ġident ify
Ġaw esome
Ġast ron
Ġvirt ual
a el
b ble
at ures
Ġin form
Ġst ation
ir ation
ul ated
est ic
ĠS un
ĠG reen
ĠN ot
ĠF l
Ġput s
Ġfact ory
Ġgen e
Ġtrans formation
Ġeconom ics
Ġgener ations
Ġexh ib
Ġmultip le
Ġartific ial
3 0
U n
u ous
is f
Ġd iction
us hing
ol ves
Ġar ms
Ġad op
lic ation
Ġtrans p
rib ute
Ġhead s
Ġcur ious
Ġwonder ing
Ġtrain ed
Ġconst ruction
Ġoper ating
Ġpoll ut
Ġslow ly
Ġmarr iage
Ġdetail s
Ġsold iers
Ġlea ves
Ġsym pt
Ġconsid ered
Ġunex pected
Ġvalu able
E ach
i ors
t ies
re te
Ġc ow
it ness
Ġd ots
Ġfr ustr
Ġus er
Ġhas n
Ġfe ll
Ġag ing
ĠE n
Ġco ast
Ġac adem
Ġdes ert
Ġacc ording
Ġpay ing
Ġanal ysis
Ġcaus ed
Ġfac ing
ĠCan ada
Ġcurrent ly
Ġcart oon
Ġentreprene urs
Ġord inary
G o
c ers
r is
w ood
Ġa x
Ġthe ater
it als
os is
Ġh un
Ġto w
Ġp ow
ce nd
Ġso il
Ġr om
ci pl
Ġhad n
Ġta il
Ġqu iet
ber g
Ġgr id
Ġgra de
Ġext ract
Ġorgan ic
iqu es
Ġsaf ety
Ġwall s
Ġrelig ious
Ġlif et
Ġemploy ees
Ġkil omet
Ġdistribut ion
Ġoffic ial
A udience
T ake
g ment
y e
Ġ These
Ġto ile
Ġd ate
Ġg rain
Ġwe ather
Ġfor ced
ad s
Ġex ch
ild ren
Ġother wise
Ġph ones
Ġsm ile
Ġsc ene
Ġask s
Ġinter p
Ġstu pid
ograph ic
Ġref uge
Ġtest ing
Ġlaw y
Ġstep s
Ġsent ence
Ġchem istry
Ġproper ty
Ġunf ortunately
ĠFran c
c ra
m as
o or
p rof
z ing
Ġs ight
Ġh urt
Ġp ages
Ġl at
Ġn an
Ġre form
Ġre cy
ad d
ul a
Ġcl osed
ĠN iger
Ġpart ner
Ġfeel ings
ĠSt reet
Ġmus ical
Ġcult ures
Ġequ ival
Ġtreat ed
Ġcollect ion
Ġconst ruct
ony m
Ġple asure
Ġphotograph s
Ġaw ful
Ġserious ly
Ġclin ical
Ġconsequ ences
c ut
c il
l ation
m ar
m et
r ight
u h
u its
Ġt all
Ġp al
Ġp ounds
om as
as ion
Ġli qu
Ġsh ad
Ġch art
um e
Ġv ibr
ĠM IT
Ġimp l
Ġac celer
ne ath
Ġinter face
Ġart icle
Ġplan e
Ġatt ach
Ġelect ion
Ġcut ting
Ġcivil ization
Ġfill ed
Ġvict ims
Ġgrandm other
Ġmosqu it
Ġempt y
M ore
P S
f ather
v ard
Ã ©
Ġ era
Ġc os
Ġm igr
Ġf al
Ġin ner
Ġst ood
ol f
Ġcon cl
ĠT imes
Ġun less
Ġbu bble
Ġpol ic
Ġopen ing
Ġset ting
Ġvide os
Ġlim it
Ġaffect ed
Ġarr ived
Ġswe et
Ġmal aria
Ġpengu ins
W ould
l ands
m aking
Ġp il
Ġre in
Ġre pl
Ġpe ak
est s
Ġv es
Ġwhen ever
ag r
ĠW ik
Ġhum or
ak istan
ĠJ e
Ġdr iver
Ġspec ifically
Ġsign al
Ġappro pr
Ġexpect ed
Ġrele ased
Ġprofess or
Ġhor se
Ġhon or
ĠPh il
Ġneg ot
Ġencou rage
Ġshark s
Ġveh icle
Ġtom orrow
Ġconvin ced
Y et
c are
l ife
m in
p s
Ġc rop
Ġp ure
Ġf le
Ġwe ak
ent ed
ir m
Ġch ain
Ġmy th
ie nd
ĠC am
ĠE x
Ġcall ing
ens ion
Ġres c
ĠW ill
Ġpre gn
Ġfew er
ĠIn st
Ġsol id
Ġwar m
Ġ200 8
Ġpolit icians
Ġdeep er
Ġengine er
Ġemp athy
Ġsend ing
Ġbirth day
Ġing red
Ġbatter y
& #
c ap
r s
s et
u ary
Ġt ap
Ġf ed
al t
Ġn erv
ur ally
Ġdo gs
ill ing
Ġr ide
Ġte les
Ġsp oke
Ġen s
Ġen em
ĠT ur
ĠP ark
ĠD ar
ang ers
ens ity
Ġunder neath
ĠW ith
Ġbr ief
Ġinv ention
Ġfour th
ogr ap
Ġhope fully
Ġloc ation
Ġrev iew
Ġdemoc ratic
Ġpract ical
Ġpoll en
Ġreact ion
Ġdispl ay
Ġcircum st
Ġequival ent
A r
H ave
z a
Ġ ille
Ġs an
Ġs ources
Ġc up
or ation
le ase
Ġe ld
ur ance
ir ty
Ġmy st
Ġsp l
ci ple
ĠC O
Ġsa ved
Ġun cle
ĠE l
Ġgr ass
Ġpre fer
ĠO b
Ġsc en
Ġtechn iques
Ġrem o
Ġimport ance
Ġcol on
Ġthought s
Ġsing ing
Ġorgan ized
eng th
Ġcond uct
Ġmic ros
Ġabsolut e
Ġge nder
Ġprom ise
Ġmolec ular
Ġlaunch ed
Ġalgorith ms
Ġliqu id
Ġves sel
T alk
g ra
u x
at in
Ġc ere
Ġst aff
se mb
Ġab st
Ġse vere
Ġli br
Ġj u
ate ful
Ġman ip
ĠG PS
ĠP akistan
Ġco vered
ĠL a
Ġgood s
ĠO n
ĠK ing
Ġplay ers
Ġ4 5
Ġwar ming
Ġdef ine
Ġblo cks
Ġpsych ology
Ġhosp itals
Ġprint ing
Ġdeb ate
Ġheav y
ĠHar vard
Ġgentle men
Ġrelative ly
Ġfal se
a ving
l ines
re l
Ġs oph
it arian
Ġto ward
Ġg ain
le ment
Ġwor ried
Ġr ational
Ġpro ve
ĠA pp
ĠB ro
Ġqu al
Ġcont ract
Ġph r
Ġem issions
Ġ3 5
Ġtrans ition
Ġmus h
Ġprocess es
ĠV al
Ġcir cle
Ġmarket ing
Ġrequ ires
Ġpick ed
Ġanal og
Ġprin ciple
Ġlifet ime
cra ft
Ġnerv ous
d own
h am
z ed
Ġs ides
at o
Ġl apt
Ġn ations
Ġn urs
Ġst ock
Ġgo d
The ir
Ġj ail
Ġun s
ĠE instein
Ġdis h
Ġbu ying
ac le
ĠR es
ĠR ep
Ġart s
old s
Ġmet al
ĠWe b
Ġconnect ions
Ġmem ories
Ġconsum ption
Ġsil ence
Ġemerg ing
I nd
R I
o v
t a
Ġb ath
or gan
Ġl ect
Ġis ol
Ġbe ar
am ent
Ġli e
Ġsh ame
Ġnot es
Ġv an
ĠB en
ĠB ar
Ġev il
Ġpo em
ĠR ob
ĠJ an
Ġsc ar
Ġsc ared
Ġtechn ical
Ġdesign ers
Ġorgan isms
Ġtop ic
Ġsign als
Ġris ks
Ġimpro v
Every body
Ġstrong er
Ġrele ase
Ġstat us
Ġtrial s
Ġnarr ative
Ġmanage ment
Ġvulner able
Ġindepend ent
Ġdyn amic
Ġrestaur ant
Ġepide mic
Ġfol ks
O K
T ube
Ġa th
in ations
Ġs am
Ġs outh
Ġl ic
Ġn orth
Ġis land
Ġan x
ter day
Ġr ig
um an
um ber
ich ard
Wh ile
ĠT e
Ġun us
ang ing
Ġro of
Ġcont ain
Ġac qu
Ġide al
ath ers
be ing
Ġfound ation
Ġbit s
az z
Ġeng aged
Ġfall ing
Ġrele vant
Ġconv ention
Ġprofess ion
ĠAn ge
Ġintellig ent
Ġinfect ed
Ġmist akes
for ce
Ġlad y
Ġcla im
Ġnewsp aper
Ġbud get
Ġmort ality
Ġintellect ual
S ince
S ee
a j
b ur
o ons
u gg
Ġs ke
Ġto x
Ġf iction
al ed
Ġin it
Ġre ven
ro ph
am in
Ġdo lp
Ġli es
Ġhe ight
Ġex ists
Ġex tend
are n
ĠB er
Ġgen et
Ġrem ain
Ġmin im
Ġser ve
Ġless ons
Ġposs ibilities
Ġeffect ively
Ġgrand father
Ġmot ion
Ġcop y
ĠGerman y
Ġcand id
ĠCent er
ĠCong ress
Ġdolp h
b re
h i
it z
en ced
Ġn ose
ent ure
ol ving
Ġse es
Ġr ates
ab ol
ĠP er
Ġco al
ĠL os
Ġfl at
Ġprodu cing
Ġpat ent
Ġcare fully
Ġbott le
Ġele ph
Ġdefin itely
Ġsat isf
Ġintrodu ced
Ġspect rum
ĠiP h
Ġrough ly
Ġfort un
Ġforg ot
Ġprincip les
Ġh orm
ly ing
Ġfor mer
Ġsh r
Ġv oc
ĠA c
Ġact ions
ĠT alk
ĠP e
Ġperson ally
Ġfl ower
Ġtrans pl
Ġmed ium
less ly
Ġamount s
Ġz o
Ġprotect ion
Ġmeaning ful
Ġer ror
Ġmicro b
Ġest ab
Ġlay er
Ġintrodu ce
Ġdisapp ear
Ġdram atic
Ġpoet ry
Ġaltern ative
Ġexer cise
Ġkilomet ers
Ġcircumst ances
Ġsoph istic
p oint
u el
Ġt en
Ġw itness
er ves
Ġc ave
Ġc ortex
Ġb ow
Ġb ill
al u
ic ip
ĠI I
Ġn av
Ġse at
ul ating
Ġfr ight
Ġpl ans
Ġ2 000
ac les
ĠYou Tube
wh el
Ġexplain s
Ġexist ing
Ġocc up
Ġlif est
Ġdepe nds
Ġ201 0
Ġchick en
Ġwond ered
Ġcred it
V ery
b ors
c ast
g ets
o ly
Ġt ons
Ġw ars
Ġp ip
Ġin ev
Ġgo als
em p
ĠN A
Ġover whel
Ġpo ore
Ġbo at
Ġstud io
con t
Ġdesign ing
Ġinterest s
Ġpartic les
Ġgener ate
Ġdef ined
Ġadd ed
Ġsit es
Ġant i
Ġste el
Ġintern al
por ary
Ġaware ness
Ġparticip ate
Ġprote ins
ĠIsl am
ĠGe orge
Ġmention ed
Ġframe work
Ġcompon ents
ĠChar les
Ġaccur ate
Ġinterp ret
Ġmush room
D id
c est
e y
i h
y m
Ġw ine
at ers
it ual
Ġin equ
Ġit em
st ers
Ġsh all
Ġch a
Ġch ose
Ġr ow
Ġma k
ie l
ĠC E
ĠB ank
ĠG en
Ġgr ateful
Ġrep rodu
Ġbi ke
Ġsol ving
Ġenviron ments
Ġadv ice
Ġconst ant
Ġdeal ing
Ġtyp ically
Ġsens es
Ġfield s
Ġmult i
Ġast on
Ġsubject s
Ġtrack ing
ĠFr ank
Ġcarry ing
Ġign or
Ġsou l
Ġsequ ence
Ġmathemat ics
Ġdoub t
Ġmanufact uring
Ġappl ied
Ġrapid ly
ĠHa iti
Ġopin ion
Ġunus ual
A meric
D oes
a it
r ont
Ġw ake
re ts
Ġb arr
Ġh ide
Ġe nds
ent ic
im er
Ġme l
Ġworld s
ag o
Ġun it
ĠE m
te ch
Ġpercent age
Ġpol io
Ġgra vity
Ġrep air
Ġmess ages
Every thing
Ġpriv ile
Ġconvers ations
Ġfundam entally
Ġest im
Ġcapt ure
Ġinnov ative
Ġinstr ument
Ġvari ety
hy th
Ġhyd rogen
Ġsam ple
P er
c al
u ff
nd ing
nd ed
it a
os ition
Ġm er
Ġp un
Ġl ength
Ġre verse
Ġan cest
Ġr ing
Ġr ot
ok en
ĠA nt
Ġint ense
el ine
Ġsu it
ab led
ĠG ree
Ġdis aster
Ġfact or
tern al
Ġplay er
Ġcons ist
Ġeconom ies
Ġrun s
Ġlab el
Ġref r
ret ch
Ġjo ined
ien cy
ĠAr t
Ġoper ate
Ġneigh bors
Ġcrit ic
Ġmov ies
Ġprim ary
Ġencou ra
Ġrid ic
Ġmount ains
Ġforest s
Ġauthor ity
Ġswim ming
Ġearth qu
Ġgradu ate
Ġgala xy
Ġphilosoph y
Ġgard en
Ġchann el
Ġexch ange
prof it
Ġille gal
Ġabst ract
h ol
r i
u ce
Ġo ption
Ġp ump
Ġf ake
ed y
Ġl ung
Ġst ro
Ġhe m
Ġat oms
il ed
Ġr itual
um s
Ġsp in
ĠC o
Ġsa cr
Ġhow ever
ĠT om
Ġcl ock
ĠJ ew
Ġfact ors
Ġfl ash
Ġcent uries
Ġeconom ists
Ġexpl an
Ġreg ard
Ġreg ions
Ġconf idence
Ġconf ront
Ġaut on
Ġmem ber
Ġfil ms
Ġ7 5
Ġincre ased
Ġteam s
Ġfund ing
Ġsun light
Ġcam er
Ġcomb ine
Ġsell ing
Ġcollabor ation
Ġconc rete
fr iend
Ġhop ing
Ġpassword s
Ġagricult ure
Ġtum or
ĠSwed en
Ġnav ig
a e
b el
s ource
Ġw ave
Ġs amples
it ure
Ġd ot
al d
Ġch ocol
Ġte eth
all ed
em oc
Ġcomp ar
res ident
Ġpr ay
ak ers
Ġstr ing
Ġanim ation
Ġsol ved
Ġwin ter
Ġtravel ing
Ġoce ans
Ġcomb ination
oll y
Ġchalleng ing
ĠBrit ain
Ġchemical s
Ġdiscuss ion
Ġcook ing
Ġsport s
Ġaccom pl
ograp her
g in
l om
Ġth ick
Ġa ck
Ġc ure
os a
Ġm ere
Ġh ung
Ġl ift
if ting
ol a
ol ar
Ġact ing
ĠM art
ab et
ĠG ood
Ġcont rast
ĠR ev
Ġad j
ĠJ ul
Ġwr iter
Ġsl a
Ġmove ments
wh at
Ġsk ill
Ġproduct ive
Ġass ign
Ġbehavior al
Ġoper ation
Ġinclud e
itch en
Ġobs er
Ġyes terday
Ġhar vest
Ġfa cial
Ġvacc ines
Ġtransport ation
Ġresist ance
Ġantib iot
P M
m ers
n am
Ġc ents
Ġb are
Ġb order
Ġl as
qu e
ig m
op her
ĠT o
Ġ2 2
ĠL atin
Ġres il
Ġbo ld
Ġapp lications
ĠY our
Ġcent ers
Ġgener ally
Ġcomput ing
Ġphys ically
Ġmil k
Ġbehav iors
Ġcoll apse
Ġcy ber
Ġconsum er
Ġdest ruction
Ġpull ed
Ġhor iz
Ġcloud s
Ġprep ared
ĠPar is
ĠiPh one
E x
f oot
u pp
Ġt ank
Ġo ught
Ġh unt
Ġp in
Ġf lex
Ġd ip
Ġd edic
Ġin put
Ġl oud
as ters
ll y
Ġbe e
Ġcom ment
Ġfr ank
Ġpro ced
ab ilities
ĠG ulf
Ġun com
ĠP eople
ĠP resident
Ġar rest
ĠF e
Ġoff ers
Ġinst inct
Ġdr iven
Ġ19 4
Ġbus y
Ġwalk s
Ġcle ver
arr ass
Ġ200 7
Ġsign s
Ġtest s
Ġdev ast
Ġ9 9
Ġdep artment
Ġfear s
Ġele v
Ġbro ke
Ġrepres ents
Ġinsp iration
Ġconv ince
ĠTh omas
Ġsustain ability
Ġtransform ed
Ġmechan ism
Ġbom bs
Ġmir ror
Ġentreprene ur
ĠMus lim
ĠMich ael
ĠSm ith
Ġegg s
Ġglo be
Ġlifest yle
Ġcamer as
C ould
o ver
o ice
in ate
nd a
Ġm aps
Ġh ip
Ġd ict
as tern
ic ing
im inal
im eter
Ġst ands
ch air
ol i
ad ic
Ġor ch
Ġpl us
ĠM on
are t
ĠD ay
Ġdes k
Ġdes per
chn ology
Ġown ers
Ġmet abol
Ġprocess ing
ĠTED Talk
Ġpar king
Ġcollect ed
Ġconst rain
Ġrad iation
Ġliter ature
Ġstay ed
Ġsitu ations
Ġcirc uit
Ġsn ow
Al so
Ġmist ake
Ġdeterm ine
Ġlad ies
Ġtherap y
Ġhyp othes
Ġfab ric
Ġsatell ite
Ġhorr ible
Ġsympt oms
Ġhun ger
ĠFranc isco
ĠInst itute
Ġsophistic ated
m it
v as
Ġ 0
Ġth in
Ġb es
Ġb orders
Ġh its
on ed
Ġp ian
Ġf an
Ġf if
es ity
us ive
Ġre ject
Th ree
Ġst ere
ke ep
ce l
Ġan onym
st and
Ġte a
ĠS at
Ġsome what
Ġun known
Ġthan ks
ip edia
Ġpo cket
ell y
ĠF ound
Ġpre m
ĠU S
Ġapp arent
Ġtechn ique
Ġfl ag
Ġob st
Ġstory t
Ġ200 9
Ġallow ing
Ġequ ally
Ġadv anced
Ġcollect ing
Ġpot entially
Ġident ical
Ġexist ence
Ġemb arrass
Ġbox es
Ġopt ions
Ġroad s
Ġfoot print
Ġproper ties
Ġbur ning
Ġult imate
Ġlabor atory
ĠIsl amic
Ġcontroll ed
ĠRuss ia
Ġsurve y
Ġdan cing
ĠDar win
ĠOb ama
Ġearthqu ake
B as
x ies
x ide
Ġs en
Ġs ets
Ġm ad
Ġwh ist
Ġbe ach
ere k
ro g
st ream
Ġhe l
Ġex ec
ear ch
Ġkn ock
ĠA h
Ġout c
Ġsu ic
Ġcomp l
res p
ĠG h
ĠP ole
Ġimp lement
Ġ2 3
Ġshe ll
Ġph ase
Ġbr ib
Ġgu ide
Ġinst ruct
Ġplay s
Ġform ed
Ġkeep s
bo x
Ġmem or
Ġpain ful
Ġemp ower
Ġclose ly
att an
Ġmain ly
Ġimm une
Ġflow ers
Ġactiv ities
Ġspirit ual
Ġveh icles
Ġpuzz le
Ġembra ce
connect ed
Ġton ight
Ġconcl usion
Ġestab lish
Ġchocol ate
Ġack now
i at
n ic
p et
r at
u a
Ġb icy
Ġm ales
Ġp itch
Ġf oss
Ġf urn
Ġf ert
Ġd ense
as ks
Ġwe l
ct ic
Ġwas h
Ġk itchen
Ġr u
Ġlo op
Ġact s
ĠC op
ĠM useum
pp ing
Ġimp lications
Ġover all
Ġdis s
ĠJ er
Ġbr others
ons cious
Ġrem em
Thank s
ub es
oc in
Ġelect ro
Ġdist inct
Ġpar al
Ġcontin ent
Ġwa ves
Ġjo ke
Ġexplain ed
Ġinteract ive
Ġill usion
Ġsens itive
Ġarg uments
Ġreach ed
Ġspread ing
Ġconflict s
Ġdiv ide
Ġadm it
Ġ199 0
Ġwheel chair
Ġmaint ain
Ġrom antic
ĠWik ipedia
Ġappropr iate
Ġtranspl ant
L ast
W omen
h our
h attan
s pe
t ocin
v an
v iol
Ġt ape
Ġp ill
Ġd ress
or ter
ar ant
le te
od ed
Ġcon vert
app y
ĠT al
pt ember
Ġdis cipl
Ġpo ol
Ġcont em
Ġunder water
ĠK h
Ġob esity
ob el
ĠSt ate
Ġhealth care
Ġhand le
Ġcontro vers
Ġyoung er
end ed
Ġadv ance
Ġrequ ired
Ġattack s
Ġvirus es
Ġ197 0
sc ale
Ġmeas uring
Ġvolunte ers
Ġentertain ment
ĠNiger ia
Ġpregn ant
ĠJan uary
ĠAnge les
ĠNA SA
Ġaston ishing
Per haps
ĠRev olution
P A
d r
g ent
Ġt ack
in o
er r
Ġb oring
Ġm ent
Ġl ions
Ġl ying
Ġg est
Ġg olf
us es
Ġbe et
Ġas p
od ing
ill y
ant a
Ġr ub
Ġr ush
Ġtr ig
Ġup per
em en
ĠM ark
ĠM ont
og ue
Ġper man
Ġfe ature
Ġag encies
Ġcomm and
he imer
Ġdesign s
Ġstr angers
Ġreg ener
Ġclass es
de f
Ġlarge ly
Ġprov iding
Ġrecord s
Ġsuff er
go ing
Ġbreat he
Ġapart ment
ĠChrist mas
ĠAm az
Ġdro pped
ĠMan hattan
Ġsurround ed
Ġgala xies
Ġreb uild
ĠKore a
Ġincent ives
Ġprototy pe
Ġadvert ising
Ġpollut ion
d en
i ety
n el
u per
v able
w r
is ters
Ġm im
Ġp ushing
Ġin iti
Ġst orm
ro b
ol it
Ġli ver
Ġsp here
ĠM a
ĠE ve
Ġ2 7
Ġher oes
ĠJ ames
Ġdown load
Ġrem ove
Ġins urance
Ġtrans fer
ĠSt an
Ġreg ret
Ġvis ible
Ġpres ence
Ġcontin ued
Ġinteract ions
Ġgreen house
Ġdig it
Ġcaus ing
Ġauth entic
Ġsong s
Ġrelig ions
Ġmechan ical
ĠSe ptember
Ġassum e
Ġjud ge
Ġang ry
Ġdiagn osed
Ġmathemat ical
Ġunc ertain
ĠRo bert
Ġtoile t
Ġlat est
Ġphr ase
Ġconvention al
Ġfrank ly
O s
c red
i am
z heimer
Ġc ast
Ġc ous
Ġc ord
Ġc ards
it ers
Ġp apers
Ġe ars
am ing
Ġse m
Ġse ason
Ġk ick
ter y
Ġr ating
Ġlo ad
ĠA ct
Ġout come
el a
ĠM al
ĠH er
ĠG ab
Ġcl othes
ĠD ep
ĠN obel
Ġshe ep
Ġgr ay
ak s
Ġdec l
Ġlet s
Ġbl ank
Ġpol ar
ĠSt ar
Ġgra b
Ġfin ance
Ġcare ful
Ġnat urally
Ġbi as
Ġelect ions
Ġeduc ational
Ġref er
Ġcoll aps
Ġdeath s
Ġfac ed
Ġstru ck
Ġaf tern
Ġmethod s
ĠAt l
Ġengage ment
Ġtrib e
Ġhous ing
Ġcustom ers
Ġfing ers
Ġcompon ent
ĠPal est
Ġeld er
Ġmyst ery
Ġnurs es
Ġath let
Ġantibiot ics
Bas ically
Ġoutc omes
A b
O ther
r ary
u nder
x im
Ġw ise
ing u
en ger
Ġp ed
Ġin ject
ed ing
Ġwh ales
st age
th ink
Ġli kes
Ġat tend
ĠA lex
Ġsp oken
Ġpl ate
Ġwhere ver
ĠT or
ĠE astern
Ġpr ost
ĠR ichard
ict ed
Ġad oles
ĠW all
Ġoff ered
Ġra w
pr ing
gg ed
end ing
Ġequ ation
Ġfig ures
Ġheart s
Ġtest ed
Ġclass ic
Ġsens ors
Ġviol ent
ĠAl zheimer
Ġrecord ed
Ġreach ing
Ġoxy tocin
Ġfascin ated
Ġeffic iency
Ġport ra
Ġir r
ĠSte ve
Ġteen agers
ios ity
Ġseed s
Ġtast e
Ġdiction ary
Ġacadem ic
Ġrecy c
b l
c ase
o ft
r ors
y ard
Ġt ight
is her
Ġh ur
ot a
Ġg ut
ic ian
ow ered
us ions
ly n
ion e
Ġst ack
st ruct
Ġse ction
Ġsh ake
Ġbut ton
ind er
rou s
Ġsp ring
Ġthem e
ĠS am
Ġag es
Ġwhere as
ĠG l
Ġhapp ier
Ġtw e
ĠD erek
Ġcont ribute
Ġph arm
Ġeven ing
ĠJ ack
Ġcr iminal
Ġ3 6
Ġdr ives
Ġcons erv
Ġdat ab
Ġel imin
wh ile
Ġfun ctions
Ġcor al
Ġdist urb
Ġsign ed
Ġret ire
Ġmeet ings
Ġwind ows
Ġexist ed
Ġaccess ible
Ġemb edd
Ġtravel ed
Ġobs essed
Ġconcept s
Ġrece ive
Ġdom estic
Ġfix ed
for ward
Ġscr atch
Ġhistor ical
Ġvulner ability
Ġselect ion
Ġdestroy ed
Ġshad ow
ĠRep ublic
hyth m
Ġrefr iger
Ġfurn iture
R em
c ar
f ish
k a
m ates
in ction
at a
er ge
os ter
Ġb en
Ġp our
es ter
ic ious
us ing
ig gs
op ath
Ġab and
Ġu g
Ġch ip
Ġch rom
Ġch urch
Ġkn ee
ĠC om
ĠC omm
ost on
Ġwork er
Ġle ap
Ġnow here
ĠD emoc
ep h
olog ically
ĠF in
ĠW ow
Ġbr an
Ġsur f
Ġapp lication
Ġtechn ological
Ġgu arant
Ġrel ate
Ġbeh ave
Ġexpl os
Ġroom s
Ġcur ve
Ġdep loy
Ġlim its
Ġtre nd
Ġhot el
Ġtouch ed
Ġevolution ary
Ġarm y
Ġtransl ate
iven ess
Ġtrib es
Ġdistribut ed
Ġfro zen
ĠPro ject
Ġtor t
Ġintu itive
Ġappreci ate
Ġcommit ment
Ġprecise ly
Ġingred ients
Ġlibr ary
aren cy
Ġpoore st
Ġignor ance
ĠMart in
Ġdip lom
ĠFound ation
Ġaftern oon
M e
c ity
f ortunately
n ight
p es
u ity
Ġ vert
Ġt ube
Ġa im
Ġw ings
it ors
Ġy ield
ic ago
id ay
Ġst retch
Ġne ut
Ġat e
Ġtr illion
Ġpl enty
ĠC ount
ĠM and
Ġwant ing
ĠB oston
Ġev alu
ĠG ates
Ġcl us
Ġcl ub
Ġdis order
ac ing
ĠR w
Ġher self
ĠF re
Ġpre tend
Ġcr ash
Ġinter f
Ġext inct
air s
Ġinf in
Ġpop ulations
Ġdist rict
Ġair port
Ġsure ly
Ġche aper
Ġadv oc
Ġstate ment
ane ously
Ġabs or
Ġdep th
Ġpract ices
Ġphotograph y
Ġrobot ic
Ġcomb ined
Ġvol ume
Ġachie ved
ĠFr ance
Ġcapt ured
Ġfra g
Ġdram atically
Ġjournal ist
Ġcos m
Ġspl it
Ġlic ense
Ġinequ ality
Ġhung ry
Ġexec ut
Ġfoss il
ĠAmaz on
Ġembedd ed
Ġchrom os
C om
H er
b al
i as
m ble
w ich
y an
in ated
Ġto ler
om an
Ġwh ale
ere nces
Ġdo zen
Ġpro port
Ġint ention
ĠS ome
ĠH aw
ĠH iggs
Ġneed le
Ġco ck
Ġbu ll
ath an
Ġsm oke
ne w
ĠCh icago
Ġra ising
Ġinv ite
Ġcol um
Ġinst ant
Ġimag ined
ph ere
Ġext ent
ah ar
hip s
Ġeng aging
ins on
ĠUn ion
Ġbre aking
Ġpar as
Ġass ist
Ġsuccess fully
Ġ6 00
Ġincre ases
Ġspeak er
Ġprotect ed
Ġant icip
Ġvill ages
Ġsil ent
Ġer adic
yr ight
Ġappear s
ĠArab ic
Ġoptim istic
Ġang le
Ġoccur red
ĠAd am
cript ion
Ġsurge on
Ġenem y
Ġremo ved
Ġzo om
2 00
b an
Ġ icon
os en
or king
al ian
Ġg on
le vel
ve y
Ġwe igh
ly mp
id a
Ġst ations
op ard
Ġch ap
ive red
ĠS ec
ĠB ab
ĠH is
ĠP ac
Ġimp ress
ĠN G
Ġspe ll
Ġrem ains
Ġfl ies
Ġcour t
Ġcons ervation
Ġimag ing
Ġold est
Ġbi om
Ġ200 5
Ġstand ards
Ġchar ity
ĠHe alth
Ġref erence
Ġdire ctor
Ġhouse hold
Ġexpect ations
Ġocc asion
Ġ25 0
iet nam
ĠPr ize
Ġconc lud
here nt
Ġpros per
Any way
Ġaspect s
ĠApp le
Ġlapt op
ĠAnt ar
Ġbicy cle
M T
b ed
c ence
m aker
p ro
w ell
at to
ou nce
ing ly
Ġm arch
en ess
or g
le ts
Ġre ly
Ġan ger
Ġab und
Ġk iss
Ġch est
Ġch amp
Ġpro of
Ġsp inal
Ġtr ies
og en
Ġqu arter
Ġev olve
ĠG r
ĠD id
Ġimp er
Ġ2 6
Ġph osph
ĠO lymp
Ġsc ore
Ġsc ary
Ġdec line
Ġlove ly
Ġexpl oration
gg ing
Ġsub s
ĠV ietnam
Ġprot o
Ġprof it
Ġmiss ed
Ġpresent ed
Ġfeed ing
Ġconsum e
Ġpriv acy
Ġdescrib es
Ġbank s
Ġdeb t
Ġeffort s
Ġthr own
Ġvict im
Ġdemonstr ate
Ġcelebr ate
Ġinj ury
Ġinstr uments
Ġreve al
oun ced
Ġunlike ly
Ġ196 0
osa urs
Ġuncom fort
Ġpian o
F inally
e al
e ast
l ims
o nds
o oth
w ar
Ġb ones
Ġp ace
or an
or al
Ġg all
Ġan ts
Ġab use
Ġu b
Ġch osen
Ġr ising
Ġint ent
ain t
ĠM RI
Ġcomp rom
ĠB ible
ĠH ave
ĠG and
Ġcl ip
ĠP ort
Ġpo ly
ĠR os
Ġgen ius
Ġdec re
Ġbl ow
Ġstr i
Ġacc um
Ġmor ality
Ġage nda
Ġclass ical
Ġspeak ers
Ġprov ided
Ġdel ivered
Ġpresent ation
Ġhy per
Ġperform ing
cl ass
Ġamong st
Ġbreat hing
Ġdiv ided
Ġcry ing
Ġsaving s
Ġ198 0
Ġpainting s
Ġappe ared
Ġagre ed
Un fortunately
Ġteles cope
Ġlas er
Ġfif th
Ġsuic ide
Ġuncomfort able
5 00
c alled
g ic
p arent
w orth
Ġ id
Ġs ed
Ġd ign
or us
ot ion
Ġyou th
Ġst one
Ġmy ster
Ġor bit
un ning
Ġpl aced
ĠB udd
Ġshe et
ĠL ad
ĠL ove
co hol
Ġgr anted
ĠJ oe
Ġfind s
Ġapp le
Ġfl our
Ġinst antly
Ġcar r
Ġgrow s
Ġexpl oring
Ġsupp l
Ġconnect ing
Ġinsp iring
Ġmeasure d
Ġorig ami
Ġfem ales
Ġrepresent ed
Ġproper ly
Ġflu id
Ġrain forest
Ġparticip ants
Ġcart oons
Ġadm inist
Ġsand wich
Ġreturn ed
Ġign ore
Ġconc ert
ĠCar ol
Ġbelief s
Ġfing er
Ġut ter
Ġreco very
Ġcooper ation
Ġneuros cience
Ġintr ig
Ġpil ot
Ġscen ar
ĠVal ley
Ġhem is
Ġorch est
Ġug ly
A d
G irl
T e
a ci
g a
r as
r ation
Ġc ens
Ġc ake
Ġb oss
Ġf ishing
Ġl ens
Ġn ets
Ġbe er
Ġre cip
qu are
if ts
th rough
Ġne ither
ul se
Ġex ternal
ck ets
Ġma il
Ġv ital
ĠM ad
ag ue
ĠB ur
Ġun its
Ġco ach
Ġco ord
ib an
Ġfo ol
Ġres on
Ġcomm itted
Ġlet ting
lic ate
Ġdr one
Ġdr ones
Ġimag ery
Ġgener ated
Ġcou n
Ġmusic ians
Ġcur iosity
Ġprot est
Ġrob ust
Ġcra ck
Ġfail ing
ĠBr own
Ġz one
Ġsens ory
Ġple as
Ġess ence
On ly
Ġconsum ers
Ġflo ating
Ġcomb at
Ġfunction al
Ġinstitut ion
Ġpu pp
Ġsurprising ly
Ġstick s
Ġsepar ated
Ġdepend ing
fr ont
Ġsus pe
Ġhall uc
imin als
ĠCong o
Ġbound aries
Ġnor thern
Ġtal ent
Ġcorpor ate
Ġsculpt ure
Ġtit le
Ġfle w
Ġresc ue
Ġuncle ar
Ġmicros cope
Ġanx iety
ĠPe ace
Ġexplan ation
P h
P l
S W
a gh
b ered
b its
d o
e ared
g ers
p ower
u k
w l
Ġt atto
re ct
Ġc ats
Ġh at
Ġh oney
Ġp ione
Ġd ung
Ġg re
Ġg lob
ic her
ut ch
ul um
ok ed
Ġsp ark
ĠS ing
ĠS il
ĠS cience
Ġsee k
ĠC ome
Ġqu ad
ĠP ol
ia c
ang ible
ĠL aw
Ġunder ground
ĠR ed
Ġtra um
Ġinv olves
lic it
Ġfl ip
Ġdr ill
Ġsl ides
Ġmin or
Ġmin ister
Ġ19 50
Ġrest ore
up s
Ġ9 5
Ġdep ressed
Ġrecogn ition
Ġrecogn ized
Ġcop yright
Ġmis er
Ġdin osaurs
Ġreport ed
Ġrock et
Ġstrugg ling
Ġafford able
Ġneighborhood s
Be fore
Ġmotiv ation
fl ies
Ġhack ers
Ġparad igm
Ġadop t
Ġax is
Ġpolic ies
Ġvessel s
Ġtox ic
Ġeleph ant
Ġcha os
Ġadj ust
Ġbare ly
ĠRw anda
S ahar
b les
h ear
i ated
k in
m m
w art
Ġt ent
Ġt ill
Ġt ied
Ġt ired
Ġt asks
Ġs le
Ġs ales
at ar
it ory
Ġb on
Ġf irm
Ġf athers
or ous
as y
Ġbe ars
ur ation
Ġst able
Ġst ages
if ice
Ġan throp
Ġas ide
Ġr icher
Ġlo cked
Ġal cohol
Ġyour s
Ġact or
iz oph
Ġfe atures
ĠH igh
pt ions
ĠL ib
Ġcont ains
ĠF irst
ĠO x
ĠJ on
con f
Ġperson ality
Ġcar ried
az e
ph ones
Ġfood s
Ġcor resp
ĠV an
Ġdist ant
Ġresearch er
br idge
Ġexpect ancy
Every one
Ġfall s
Ġprotect ing
Ġes cape
Ġpsych ological
Ġtre nds
Ġsleep ing
Ġfoot ball
yr us
Ġball oon
Ġcharacter istics
Ġnarr ow
Ġsyn thes
Ġprep are
Ġautom atically
Ġlog ic
Ġshop ping
Ġbase ball
Ġcru cial
Ġagricult ural
Ġrepe ated
Ġdomin ant
Ġcrop s
Ġlect ure
Ġridic ulous
Ġstro ke
bel ie
Ġapparent ly
Ab out
Sahar an
D an
c an
d ing
g l
r ome
Ġt ro
Ġt ears
Ġw ip
en ry
Ġh ook
Ġp ra
Ġd iverse
Ġd ump
Ġd ensity
ar p
ar ters
Ġg ro
ĠI ce
Ġre hab
if orm
st ate
ad ays
Ġus ual
Ġor ange
ĠA ir
Ġsp r
Ġtr ash
Ġpl ain
ĠC A
ĠM or
ag ger
ach e
Ġag ency
Ġun belie
Ġover come
Ġdis rupt
Ġbu bb
ĠO f
Ġcol ony
Ġsch izoph
lic ity
Ġafter wards
Ġprodu ces
Ġlight ing
Ġmus cles
Ġrec omm
Ġvis ited
Ġsub tle
Ġorgan ize
io xide
Ġdef ense
Ġ200 3
Ġ200 4
Ġ200 6
ĠIs land
Ġche ese
Ġpar aly
Ġcontin ues
Ġhold s
Ġinteract ing
Ġimpro ved
Ġident ified
Ġdel ight
Ġimpact s
Ġdirect ions
Ġarchitect s
Ġtext book
yr am
Ġimprove ment
Ġstrateg ies
Ġlink ed
Ġcry st
ĠMus lims
Ġhom eless
Ġrepe at
Ġtransp arency
Ġlawy ers
Ġens ure
Ġdolph ins
abet es
Ġstere oty
Ġparal le
ĠTal iban
Ġperman ent
ĠGab by
ĠDep artment
Ġgon na
U s
b ru
f ast
k ward
Ġw arr
er d
er ation
Ġm ile
Ġd er
Ġd ioxide
Ġin h
Ġl amp
om b
ic ros
Ġe ast
Ġch im
un ction
ĠS a
ĠC r
og ether
ast ics
Ġen able
Ġper m
ĠT es
ĠT as
ĠD et
Ġbu g
cent ury
ĠL ife
ĠW omen
Ġpre c
ĠJ es
Ġbr own
Ġcreat ure
Ġent ered
arch y
Ġmin ing
ird s
Ġsupp ose
Ġcor n
Ġcap ita
Ġmusic ian
Ġcur ric
Ġstop s
Ġpain ted
Ġequ ality
Ġcontrol s
Ġfil ter
Ġtreat ing
ĠIntern ational
Ġsec ure
Ġca f
Ġprov ides
Ġcra ft
Ġve ter
Ġexplain ing
att ered
ĠThank s
ĠYork er
Ġaffect s
Ġaw kward
Ġdark ness
Ġpredict ions
Ġbur st
Ġest imate
ĠBe ij
Ġsearch ing
Ġstore s
Ġemerg ency
Ġprint ed
Ġdisapp oint
Ġcalcul ate
Ġsus p
Ġtrick s
Ġshap ed
Ġchair s
Ġmix ed
ĠCent ral
Ġcontroll ing
Ġelectron ic
Ġelectron ics
Ġtruck s
Ġwire less
Ġastron om
Ġattach ed
cap es
semb ly
Ġdedic ated
Ġproto cell
A R
W ill
b age
Ġa es
Ġc ig
Ġm ice
Ġm atr
en ly
Ġto y
Ġf et
Ġd ust
Ġd irty
or a
Ġin k
Ġn a
Ġre new
Ġst yle
se y
se mble
Ġdo ors
ra de
Ġhe lic
Ġne ural
Ġj azz
ist en
Ġlo ves
Ġout put
all ow
and em
Ġpl ot
ĠM other
ĠM oon
ab in
Ġexp lo
ĠH ouse
ĠT ake
ĠT ony
ĠG al
Ġcl ar
ĠD el
Ġdis m
ĠR io
ell o
ĠJ une
Ġent h
Ġser ved
Ġla id
Ġop ens
Ġfar mer
Ġconf ident
ĠTED x
Ġdef e
Ġproduct ivity
Ġ6 5
Ġview s
Ġdi am
Ġsens or
Ġstay ing
Ġtem pt
Ġleg is
Ġleg acy
Ġorig in
Ġpur ch
Ġencou nter
Ġvirt ually
Ġassum ptions
Ġpush ed
Ġcolleag ue
Ġdemonstr ation
Ġshock ing
Ġdyn am
Ġfro g
Ġreco ver
li ament
Ġveget ables
agr am
Ġinit ial
ih ad
ĠStan ford
Ġuncertain ty
Ġelder ly
ĠPac ific
Ġdign ity
Ġglob ally
Q u
S im
i ang
i ance
l ie
l ings
p art
s es
u um
Ġth umb
Ġs its
it ous
os al
Ġb orrow
en h
Ġh ol
on ing
Ġp iz
Ġp icking
an throp
Ġd ive
om ic
om ous
Ġg am
le ar
et te
ct ica
ur se
se ction
Ġme al
Ġme lt
ge nd
Ġex cell
ĠB al
Ġun p
Ġcl osing
Ġpr ime
ĠD is
Ġ2 8
Ġpart ies
Ġbo om
ĠF ord
Ġem ph
Ġsc ream
Ġpers u
Ġtra ged
Ġdr ivers
Ġhigh light
Ġacc idents
Ġdef end
Ġmag ical
Ġass ets
Ġdra g
Ġdi abetes
Ġrecord ing
Ġstrong ly
No body
Ġrequ est
Ġsuggest ing
Ġste al
ann ed
Ġredu ced
Ġarr ive
Ġult ra
put er
Ġtransl ation
Ġther m
Ġcollabor ative
Ġdisapp eared
Ġsou p
Ġpros thetic
Ġdro ve
Somet hing
Ġdrink ing
Ġmanufact ure
Ġscan ner
Ġrare ly
Ġquant um
ĠMin ister
Ġnutr ition
ĠCam bridge
Ġinev itable
Ġresil ience
Ġinstruct ions
Ġphosph orus
Ġhemis phere
Ġschizoph ren
ĠTas man
Ġhelic op
O b
a ves
g u
i xt
t es
Ġt ong
Ġw edd
Ġs ession
is ons
it ud
os ure
en a
Ġh itting
on ia
Ġf usion
Ġf ulf
om o
Ġre def
ch e
ra ction
Ġne at
Ġch ief
Ġpe er
um in
Ġout er
ĠS und
ĠS yr
Ġsa v
ĠM ah
are s
Ġcomp elling
act ion
Ġexp osed
ĠB ush
Ġqu e
Ġun pre
Ġcl ients
Ġpr ices
Ġdis orders
Ġpo ison
Ġro ots
ell er
ĠF ellow
Ġpre f
Ġsc ores
Ġbr ut
Ġshould er
Ġend ing
Ġsch em
Ġ3 2
Ġob l
Ġent rop
ĠY emen
Ġmon itor
Ġ19 5
Ġrec ru
Ġpass ing
Ġpass enger
Ġbeg un
Ġdist ract
Ġadv enture
ĠAr ctic
Ġ12 0
Ġsent ences
Ġredu ction
Ġtele phone
Ġlif es
Ġdetail ed
Ġcross ing
Ġactiv ist
pan z
Ġcitiz en
Ġinflu enced
Ġclin ic
Ġ201 1
ĠChrist ian
Ġlink s
Ġdeterm ined
Ġeth nic
Ġlaugh ing
Ġliber al
Ġinsight s
Ġphysic ist
Ġcateg ory
Ġodd s
Ġdial ogue
Ġprofession als
Ġsen ior
ĠGh ana
Ġfert il
parent s
Ġparalle l
bru ary
N ext
P lease
a ult
h op
i very
k ins
o ber
t op
t wo
z an
Ġa in
Ġw ing
Ġw ound
Ġh ill
Ġh ier
Ġp yram
es h
ar re
Ġg ang
ĠI m
ow ers
et r
et ers
Th rough
Ġha m
ch ildren
ro l
Ġan es
ill a
il it
Ġcon ver
ĠS ir
ĠS pan
Ġsa uce
ĠM il
Ġen h
Ġle ather
Ġqu it
Ġpr ize
ĠP art
ĠL ong
Ġunder lying
ick s
Ġgr at
ĠO ct
Ġpers ist
ren cy
Ġrel ax
Ġmus cle
Ġhard ly
Ġhealth ier
Ġsk ull
Ġopen ness
Ġprob ability
ĠV en
Ġgovern ance
Ġelse where
ught ers
Ġdra wn
Ġfund ed
Ġobject ive
Ġimpro ving
Ġleg it
Ġphotograph ed
Ġspread s
Ġsuggest ed
Ġfac ility
Ġfoot age
Ġimm un
Ġrepresent ation
Ġce iling
Ġwhe at
Ġdepend ent
Ġphilos opher
Ġrestaur ants
Ġfrustr ated
Ġpow ers
min ute
Ind eed
Ġreven ue
Ġprivile ge
Ġsacr ifice
Ġanonym ous
Ġwel come
ĠAntar ctica
Ġub iqu
ĠOx ford
icros oft
Ġcurric ulum
Ġentrop y
A m
D avid
M ar
S S
c lock
f all
f ield
g reg
l ong
m akers
r id
Ġw ider
Ġs illy
Ġb at
Ġh o
on ge
Ġp ink
Ġd ies
Ġin herent
Ġl ux
ar ah
Ġg ear
Ġwe e
Ġre cept
Ġre ef
Ġon going
im ent
se e
th et
Ġj ihad
Ġch ances
Ġr ats
Ġcon ven
ck ing
Ġlo b
Ġv ent
our nal
Ġen ables
ĠG ive
ĠG old
Ġun h
ĠE ric
ĠP at
Ġback wards
ac ular
ĠW ould
ĠU g
Ġra il
ĠK oran
Ġdr um
Ġcons ult
Ġmon key
Ġreg ime
Ġsk et
ĠSo v
Ġset tle
Ġphot ographer
Ġwar ning
Ġadd ing
Ġlab s
eng ine
Ġpos ter
Ġfocus ing
Ġinno cent
Ġsimp licity
Ġeat en
Ġnon viol
Ġsupport ed
vent ions
Ġlim b
Ġsuper mark
Ġbreak through
Ġkey board
Ġfast est
Ġlay ers
Ġfu els
Ch ar
Ġtransl ated
Ġgraph ic
Ġjud gment
Ġoptim ism
Ġexpress ions
Ġir re
Ġaddition al
ĠRuss ian
Ġparad ox
cop es
Ġgather ing
Ġperce ive
ĠGra nd
Ġrefuge es
Ġlawy er
Ġmosquit o
Ġcolon ies
rel ated
Ġforgot ten
Ġmicrob es
emp loy
ĠGen eral
Ġancest ors
Ġhypothes is
Ġpiz za
1 0
P r
l ist
r ans
x ual
Ġt rop
er oid
Ġc ath
Ġb ars
Ġm ur
Ġm all
Ġto ys
Ġd ough
Ġd uck
Ġl un
Ġn urt
Ġn urse
Ġst ab
ce mber
ol ars
th al
Ġsh ine
od s
Ġcom edy
Ġfr uit
ok es
ist ot
Ġsp ots
ĠS quare
Ġup load
ĠM ed
ĠM ac
ĠM ove
ĠB o
ĠH ans
ĠP eter
ĠD en
ĠN an
ĠN ord
Ġdis ag
ass es
ĠL ED
Ġpre cious
ĠJ o
Ġoff ices
Ġsm arter
Ġsm ooth
Ġinc ident
Ġtra its
Ġrem ained
ious ly
ĠK e
Ġins ist
Ġhelp ful
Ġser ving
Ġear n
Ġpub l
Ġorgan ism
Ġansw ered
Ġeduc ated
Ġwo ke
Ġcho osing
Ġgl ad
Ġass ess
vious ly
Ġneur on
ĠAr my
Ġdel ivery
Ġpsych opath
Ġinclud es
gen cy
Ġspecial ized
Ġwin ning
Ġobs erv
Ġorig inally
Ġindust ries
Ġcirc uits
Ġstat ist
Ġhar ness
Ġpull ing
Ġtext ing
Ġpeace ful
Ġsil ver
oll ar
Ġbur den
Ġsold ier
Ġtar gets
Ġphil anthrop
ĠDe cember
Ġsyn thetic
Ġaccept ed
Ġdoc uments
Ġconcer n
Ġsus pect
Ġcat ast
Ġremind ed
Ġeth ical
Ġintegr ated
Ġalgorith m
Ġattract ive
ĠTr ans
Ġshoot ing
Ġrout ine
Ġfrequ ency
Ġcateg ories
Ġrefuge e
Ġimpl ant
Ġgenet ically
Ġitem s
ĠCE O
Ġowners hip
keep ers
Ġconclud e
Ġsuspe nded
Ġmiser able
Ġchim panz
ĠBeij ing
Ġcig aret
itud es
ĠSund ay
a uc
d ig
f ly
k et
m ony
p en
s hip
w alk
Ġ x
Ġt ear
Ġt ubes
Ġw id
Ġw aters
Ġs ink
at ural
Ġc ash
Ġb iz
Ġh ire
ap ed
Ġp ause
Ġp andem
Ġf ib
Ġf ires
Ġf ought
Ġd ressed
or ida
le ge
Ġn it
Ġn erd
ut ical
Ġan no
ol ic
Ġhe aling
Ġwhat so
Ġch ips
um es
Ġma xim
Ġbut t
ĠA ug
Ġpl astics
Wh ether
ĠM om
ĠM icrosoft
ag en
Ġexp ed
ĠH enry
ff ect
ĠP lease
ep s
Ġgot ta
ĠL ike
ire ct
Ġem erge
ish ment
ĠO ur
Ġfact ories
ord s
Ġinv olve
Ġfound ed
Ġmon it
Ġext ension
Ġatt itude
Ġed ges
Ġeng ines
Ġconf used
Ġhead lines
Ġopp osed
Ġglobal ization
Ġkill er
Ġgl aci
Ġexperim ental
Ġsec rets
Ġprogram ming
ĠHow ard
Ġview er
Ġjo int
Ġdifficult y
ming ly
Ġda ughters
Ġele g
Ġoper ations
Ġnon profit
Ġbreak fast
Ġinsp ire
itut ion
Ġfac ilities
Ġredu cing
Ġprop osed
Ġprom ote
Ġsuff ered
Ġbed room
With in
Ġprim arily
Ġthreat ened
Ġimmedi ate
Ġinfect ion
Ġunivers ities
Ġsou thern
Ġtiss ues
Ġprep aring
Ġdiagn osis
ĠBl ue
Ġanaly ze
Ġweap on
Ġpig e
Ġfort une
Ġhabit at
Ġsubst ance
Ġgar age
Ġpurs uit
Ġking dom
ĠFl orida
Ġtransp arent
Ġfed eral
Ġisol ated
Ġske pt
Ġmak ers
Ġmere ly
Ġproced ure
ĠFe bruary
Ġremem bered
Rem ember
ĠSpan ish
Ġwee ke
Ġbiz arre
Ġwhatso ever
1 8
B M
B ack
F our
G ood
N umber
O L
S pe
V oice
f ree
m ill
r ich
t ical
v is
z ens
Ġth rew
in i
Ġw ired
Ġs in
Ġs isters
Ġc ute
is y
Ġm ate
ed a
ar i
as m
ic ial
Ġn odes
Ġn aked
ow nt
Ġbe ll
Ġre think
Ġon stage
Ġdo zens
st one
Ġas h
Ġsh ifting
Ġour s
Ġte ch
Ġup set
Ġact ors
ment al
ard o
ab ul
ĠB on
ĠB ol
Ġman ager
Ġman agers
ace utical
ĠT ex
Ġun employ
ick ed
ĠJ im
Ġsm iling
Ġinc or
Ġrem aining
Ġ3 3
Ġart work
Ġpoint ing
oc a
Ġcomple ted
Ġcre w
Ġatt ribut
ced ented
Ġeconom ist
Ġgener ous
Ġfun g
ĠV ir
Ġpres erve
Ġ200 1
Ġair craft
ott ed
Ġret ina
Ġfree ly
Ġtrain s
ien ces
aw s
Ġinvest ors
Ġland ed
Ġgrand parents
Ġdraw ings
Ġarr ay
Ġmar ath
Ġprin ter
Ġmob ility
Ġfu nds
Ġminds et
ĠIsl ands
Ġmir acle
Ġmagn etic
Ġspect acular
Ġhang ing
Ġpengu in
Ġwide ly
Ġfab ulous
Ġrout e
Ġprevious ly
Ġshel ter
Ġenter pr
Ġtun nel
ĠAb ra
ĠBro ok
Americ an
olly wood
Ġpharm aceutical
Ġconserv ative
Ġretire ment
Ġproport ion
Ġprosper ity
Ġparaly zed
Ġmatr ix
Ġemph as
Ġunpre cedented
ĠOct ober
L ad
j o
p rodu
t ail
y al
Ġt ip
er on
Ġc as
Ġh iding
on ic
Ġp unch
es ters
an cing
Ġd iver
Ġl one
Ġg ig
Ġn om
Ġn ative
Ġn erve
Ġwe t
Ġwh is
Ġbe ating
Ġre cess
id ers
Ġst rain
Ġst ability
Ġst ored
ke ys
th ur
Ġsh arp
Ġme als
ul in
ust ed
Ġde ce
ĠS im
ĠM arch
ĠM iss
Ġcomp os
Ġexp ans
Ġdon or
ĠH y
ĠT an
ĠT wo
Ġcl ay
ĠD V
ĠD ad
Ġar med
Ġdes cription
Ġgr as
Ġcomm od
Ġwr iters
ars h
Ġtra gic
Ġbl ame
Ġinter rupt
Ġinter vention
Ġart icles
Ġrec all
Ġhome work
Ġbi ote
Ġval id
Ġfig uring
Ġgl imp
Ġ8 5
Ġsex y
Ġdel ay
Ġcommunic ations
vent h
Ġcal ories
Ġge ek
Ġobs erve
Ġobs ervation
Ġrespons es
asc ular
Ġimm igr
Ġfa vel
ĠFr iday
Ġlea f
Ġaccount s
Ġpan els
Ġhop es
Ġcapital ism
Ġstraight forward
Ġheav en
udd enly
ĠBl ack
ĠCol lege
ĠSc ott
Ġden ial
Ġvot ing
Ġmamm als
Ġphysic ian
Ġintu ition
ĠNe ander
Ġbrief ly
Ġfortun ate
Ġinfin ite
Ġbubb les
Ġtong ue
Ġwedd ing
Ġubiqu itous
ĠUg anda
ĠSov iet
ĠTex as
I nt
S te
c reat
d ollar
h alf
i ology
m ade
r ian
w ind
Ġa ward
in arily
nd rome
er ved
os aur
Ġm urd
Ġp ile
Ġf iring
Ġin ches
ed ay
ĠI nt
ig ation
am as
Ġch ron
Ġde lic
Ġal ien
Ġout s
Ġtr iang
Ġup d
el f
Ġpl ug
ĠC D
ĠM ount
ag on
Ġnow adays
ĠD esign
Ġar row
Ġdis abled
Ġmo od
Ġam ate
ĠW ol
ath ered
ne g
Ġtrans cend
Ġbelie ves
ob ile
Ġsl ums
Ġhard ware
Ġel ite
Ġform ula
Ġelect ed
Ġcur rency
Ġdev il
Ġexc it
Ġbott les
Ġdel iber
Ġgrand children
Ġarg uing
Ġpersonal ized
ĠWh ich
Ġtem porary
Ġperform ed
Ġsupport ing
Ġterr ifying
Ġsmart phone
Ġpredict ed
Ġmechan isms
Ġemerg ed
Ġign ored
Ġclin ics
Ġdesp air
Ġsal t
ĠSp ace
Ġwealth y
ĠQ u
ĠQ ue
Ġann ounced
Ġprofound ly
adem y
Ġgun s
Ġbroad cast
Ġunc onscious
Ġamb ig
Ġcla ims
ĠNor way
Ġnewsp apers
Ġecosystem s
roll ed
Ġbag s
Ġexpand ing
Ġillustr ate
Second ly
Ġperce ived
Ġqual ities
ĠRes earch
Ġbath room
Ġhorm one
Ġtack le
ĠPalest in
Ġdatab ase
Ġvert ical
Ġfrag ile
Ġtraged y
Ob viously
ĠAug ust
1 2
1 9
C l
C ome
D A
E C
E s
F ive
S uddenly
T urn
b ra
f our
f old
p y
Ġ Then
in ter
in ity
re y
ou g
ou nder
it age
Ġb att
en cing
Ġh ub
on a
Ġto oth
Ġd ose
Ġl in
ut her
ct u
id i
Ġha bits
ce an
Ġwas hing
am ine
ra cies
Ġsh ipping
ad ing
Ġcom ments
il ize
il ty
Ġj unk
Ġch op
Ġmy cel
Ġr ice
Ġcon ce
ate ver
nt il
Ġal ph
Ġint im
Ġint ro
and ering
ĠS l
ĠM ill
iz ers
ĠB y
Ġper cept
Ġag ent
Ġag gress
Ġun iform
ĠN ations
Ġpart ly
Ġback yard
ound ing
Ġac id
Ġad s
Ġreal izing
Ġbr ush
per cent
ĠCh urch
Ġsim ult
Ġgu ard
Ġend ang
ĠIt aly
Ġbas ket
Ġcar ing
Ġinter connected
Ġpoint ed
Ġ20 50
Ġcare g
Ġdem o
Ġbi ologists
ĠInd ones
ash ed
Ġloc ated
Ġpos itions
Ġtreat ments
Ġspeak s
Ġaud io
Ġvar iation
ĠWh ite
Ġsurv ived
Ġnear by
Ġrobot ics
by e
Ġge omet
Ġbene ath
let on
Ġcirc les
Ġexperien cing
Ġdeg rad
Ġbra ve
Ġer rors
Ġactiv ate
Ġexcept ion
Ġdam aged
Ġprison ers
yl ac
Ġglass es
Ġremind s
ĠIran ian
Ġoffic er
ĠIsrael i
Ġsurround ing
Ġgradu ated
Ġpuzz les
ĠPl ay
ĠNor thern
Ġburn ed
Ġvolunte er
Ġtransm it
Ġstim ul
Ġneuros cient
Ġgar bage
Ġgrad ually
Ġrein vent
Ġcere mony
Ġcandid ate
ĠAc ademy
Ġauton omous
Ġnavig ate
Ġcompar ison
Ġflex ible
Ġarrest ed
Ġdevast ating
Ġstoryt elling
Ġcollaps ed
Ġathlet es
Ġguarant ee
ĠMand ela
ĠJes us
Lad ies
Ġexcit ement
C omp
E n
L e
N one
S ix
a ired
d es
g rad
h h
l ves
p ace
u ilt
y o
Ġt act
Ġt une
re h
Ġo d
Ġc ree
Ġc ert
os n
Ġb ite
Ġb ump
Ġb ored
Ġf ile
Ġl it
om a
Ġg ate
im ination
th ree
Ġse lves
Ġas leep
il a
Ġj elly
ess or
ess ions
est ed
Ġlo ck
Ġbut ter
Ġte nds
ĠS en
ĠC or
ĠC ath
ĠM edic
Ġta g
ĠB ron
ĠT y
Ġtw ist
Ġcl ot
ĠP an
ĠD a
ĠN ic
Ġ2 9
Ġro pe
Ġlot tery
ĠR ay
ĠR iver
ĠF rom
ĠW alk
Ġsm oking
ren ce
Ġcr imes
Ġcr ows
Ġgu err
Ġins ulin
Ġsci ences
Ġdr own
Ġart istic
Ġkid ney
Ġstr anger
ĠSt age
ph ony
Ġdem ands
Ġcap s
Ġpres ents
Ġeduc ate
Ġmem br
Ġchar ming
rem e
Ġexc l
Ġdi agram
Ġstruct ural
Ġlisten ed
Ġrad ically
Ġfail ures
omet own
Ġdemoc racies
Ġhy br
Ġtrad itions
Ġemb od
Ġbreak s
Ġcy l
Ġauth ors
Ġsil k
Ġarr ange
Ġmar ine
ĠLe go
ĠLe ban
Ġflow ing
Ġtend ency
Ch ina
Ġdiv ision
Ġdam n
Ġthreat s
Ġsignific antly
Ġmagn ific
Ġroll ing
Ġinnov ations
orge ous
Ġver b
Ġconsequ ence
Ġreve als
Ġbul let
Ġexpert ise
Ġrat io
Ġexhib ition
ĠTur key
Ġgenet ics
Ġvoc al
Ġbarr ier
Ġritual s
ĠJew ish
Ġdesper ately
Ġbes ides
Ġobst acles
Ġscenar io
Ġgro cer
ĠDet ro
Ġschizophren ia
istot le
ĠNord en
A M
J ohn
M A
M an
b ling
c re
d is
g ments
h ist
n et
p ass
s ch
w est
Ġt one
Ġo y
at i
er ry
ou st
is c
Ġb in
Ġb ind
ing er
Ġh ors
ap or
ap ore
Ġd ent
Ġd il
Ġd umb
Ġd ownt
Ġl es
ot o
Ġg h
Ġg ases
Ġre ci
ere n
se c
se ll
Ġsh it
ad ed
Ġme g
Ġne ck
Ġde als
Ġv it
Ġv ia
ĠA p
ĠA ny
Ġsp ill
Ġsp ons
Ġsp ont
ĠS uper
Ġyour selves
ĠC amb
ĠM od
ast y
gh ai
ans as
ĠB ay
Ġman if
ĠG ore
Ġun able
Ġpr ide
Ġco vers
Ġdis cr
Ġro cks
Ġcont ag
Ġres olve
Ġbr ows
Ġown ed
Ġsch olars
Ġcour ses
Ġ3 1
Ġmon keys
cy cl
Ġmet er
Ġed itor
Ġsoci ally
ogr am
Ġset t
Ġaut istic
Ġmark er
Ġkill s
Ġnight s
Ġbeautif ully
uck s
Ġcontin uing
Ġ7 00
Ġ8 00
ats on
ĠBr ian
Ġoper a
Ġsaf er
Ġsurv iv
Ġciv ic
Ġapproach es
Ġarchitect ural
Ġaffect ing
ug al
Ġmain stream
Ġpost ed
ĠZ eal
Ġast eroid
Ġbur ied
Ġcompet e
Ġreact ions
Ġdiv or
Ġwhe els
la im
Ġpack ed
Ġmathem atic
Ġpurp oses
Ġthrow ing
ĠOr gan
Ġteen ager
Ġdimens ion
iber ia
Ġrecon struct
Ġsymbol s
Ġclimb ing
Ġcorpor ations
Ġsatell ites
Ġtick et
Ġnutr ients
Ġagre ement
Ġmosquit os
Ġnegot i
Ġimprov is
Ġshr imp
Ġbarr iers
Ġconstrain ts
Ġcous in
Ġaband oned
eph en
Ġsurf aces
Ġcolum n
ĠNG Os
Ġcomprom ise
Ġenth us
Ġendang ered
ĠIndones ia
Ġreci pe
ĠCamb od
C L
G e
G lobal
b orn
c ol
p ress
t ra
u ine
v a
v ille
w orking
Ġth ylac
Ġs ulf
Ġc ub
Ġc ows
os ity
Ġh al
Ġp ir
an ghai
Ġin n
Ġin her
ed s
ed ge
Ġl anes
ve mber
ut an
qu is
id ges
im al
Ġst atic
ro ad
if er
Ġsh o
Ġr ivers
Ġal b
Ġsp ider
ĠS ou
ĠS om
Ġtr iv
ĠC ould
ĠC our
ĠC yrus
Ġsa cred
Ġsu ck
iz z
ĠB el
ĠH ill
ach ing
ĠT it
ĠT el
ĠG et
Ġhapp ily
Ġcl ue
ĠD utch
ĠN et
ĠN ature
ep her
Ġshe ets
ĠL ab
ĠR ome
ict or
Ġoff ering
Ġwr ap
Ġgen uine
Ġtra il
Ġtra ject
Ġown er
Ġins ane
pe are
Ġinter ventions
Ġstr ip
Ġmin es
Ġ19 30
Ġpat ents
Ġla ke
Ġpartic le
Ġter rain
Ġcou p
Ġsub way
Ġform al
Ġhead ed
bo o
Ġrest rict
Ġprof ile
Ġcond oms
ane ous
ĠNo vember
Ġinvest ing
Ġaud iences
els on
Ġinclud ed
ug ment
ev in
Ġimm ense
Ġdom ain
Ġreport s
akes peare
Ġec ological
Ġswe at
ĠSw iss
Ġstrateg ic
Ġpack age
Ġcalcul ations
Ġinterview s
Ġapply ing
Ġfold ing
Ġhistor ic
Ġteen age
Ġcand y
ett i
Ġindepend ence
Ġmeas ures
ĠKore an
Ġpair s
Ġterror ism
Ġdiction aries
Ġtow er
ĠPark inson
Ar t
Ġanalog y
bur gh
Ġcandid ates
Ġhorm ones
Ġhunt ing
Ġwhist le
Ġacknow led
Ġcontem porary
Ġprost ate
Ġadoles cent
ĠCount y
Ġclus ters
Ġchap ter
ĠRos ling
ĠCarol ina
Ġunbelie vable
Ġrecomm end
dig it
Ġpandem ic
ĠVir gin
ĠDV D
ĠBron x
ĠZeal and
B A
B C
L ife
a way
a ware
g ression
i op
l aw
n ut
u ber
Ġt ale
Ġth resh
re al
Ġo ct
Ġs co
Ġs ons
Ġh ometown
Ġf ate
Ġf iber
Ġd ys
Ġd rought
Ġin hab
ar ry
ot ed
Ġg ained
Ġg athered
Th ird
Ġst amp
ch er
if ul
ir ts
Ġan at
Ġdo od
Ġse w
out s
ill ance
Ġne oc
il itation
Ġso ap
Ġor ient
Ġsp o
Ġsp ray
ĠS anta
Ġsa ke
iz er
reat ing
Ġle an
Ġper pet
Ġman ual
Ġag ents
ĠE s
Ġpr isons
ĠP rof
Ġbu cks
ep ing
ens es
Ġpo ckets
ber ry
ĠR oy
Ġdes erve
co ver
ĠF ar
ĠF our
Ġsy ndrome
ĠO cean
ĠJ ose
ĠJ ud
ĠJ uly
ĠJ osh
Ġinc l
Ġsc aff
Ġmay or
Ġgen oc
Ġtra ce
ĠCh ile
Ġob t
Ġke ys
ob s
Ġfound ations
Ġstr ict
Ġmin i
Ġgra ce
Ġread ers
Ġdem os
Ġsub t
Ġinf ant
Ġcap abilities
Ġform ing
Ġconnect s
Ġtop ics
Ġcult iv
ĠInd ustrial
Ġloc ations
Ġcollect ively
Ġparent ing
Ġda wn
Ġtyp ing
Ġfall en
ĠSh anghai
Ġdest iny
Ġrepresent ative
Ġblind ness
Ġprim itive
Ġpan el
Ġmagn et
Ġscr ipt
Ġrespond ing
Ġhonest ly
Ġshock ed
Ġclassroom s
Ġgentle man
Ġpig s
Ġcooper ate
Ġtransm ission
Ġelement ary
Ġsimpl er
Ġsimpl est
Ġinstall ed
Ġsurge ons
Ġofficial s
Ġpal m
ĠTur k
Ġju ice
Ġgod s
itz er
Ġfortun ately
Ġestim ates
ĠTEDTalk s
iat ric
Ġgest ure
Ġtrig ger
ĠAtl antic
Ġportra it
Ġdisturb ing
Ġexplos ion
Ġcorresp ond
ĠIce land
Ġexcell ent
Ġlifes pan
Ġpyram id
Ġmarath on
Ġglimp se
Ġmycel ium
Ġmagnific ent
cycl op
A f
B I
C ar
D e
N e
T ED
c ost
e ffic
g ence
n es
u ke
v ia
Ġt ies
Ġa er
Ġa ugment
Ġw ires
Ġs ib
Ġc abin
Ġf its
Ġf isher
Ġd op
or ic
Ġin du
Ġg orgeous
Ġn est
us iness
qu arters
ur ger
Ġst om
ch ing
se en
Ġab ilities
Ġsh y
Ġhe al
ust ing
Ġj ew
Ġch ess
Ġr ape
Ġde ar
Ġsom eday
Ġpro ven
Ġcon vey
Ġal le
Ġal ign
ort ed
ĠC oll
ĠC oke
Ġsa il
ĠM el
ĠM ag
Ġexp licit
ĠB ob
ĠH i
ĠH ong
ĠT ib
ĠE th
Ġcl iff
ĠP ower
Ġco inc
ang ed
Ġam bit
ĠR ock
ĠW al
ĠW ait
ĠW atson
int erest
ne ys
Ġra cing
Ġsim ulation
Ġcr iter
Ġrel iable
Ġcar c
Ġinter ven
Ġstr ike
ĠSt ud
Ġgra ve
Ġgra bb
conom ic
Ġrec laim
Ġ5 5
Ġdem ographic
Ġpass es
rib ly
ĠV ictor
Ġsign ature
ott on
Ġprof its
Ġadv ent
Ġinvest ed
Ġpsych ologist
Ġfriend ly
Ġcy cles
Ġdead ly
Ġsum m
Ġcamp s
Ġste pped
ĠAs ian
Ġworth y
Ġtransform ing
Ġchalleng ed
Ġmar ry
Ġmar vel
Ġmedic ation
Ġmechan ics
Ġparticip ation
Ġbacter ial
Ġrid ing
Ġgraph ics
Ġdeterm ines
Ġsmell s
Ġlands capes
Ġport ion
Ġachieve ment
Where as
Ġcover ing
Ġnut s
Ġsexual ity
Ġing en
Sh ould
ĠSc ot
Ġairpl anes
Ġban king
Ġexer c
Ġtal ents
Ġconcentr ation
forest ation
uls es
ĠWill iam
Ġteles copes
Ġinit ially
Ġcyber cr
Ġhoriz ont
Ġbrib e
Ġelectro des
Ġdiscipl ine
Ġoccasion ally
Ġmyster ious
Ġorchest ra
ras ound
Ġhalluc inations
Ġsupermark et
Ġlun gs
Ġexpans ion
Ġlin ear
Ġaggress ive
ĠCath olic
epher d
a eda
o ir
r it
r hythm
s pring
u an
v it
Ġa we
Ġthe ore
Ġs ir
Ġs ne
Ġs lic
os c
Ġm apping
Ġh ired
or age
us al
ut y
Ġre ass
Ġre wards
ur able
Ġst ake
Ġst ead
Ġst aring
ch anging
am med
Ġse al
Ġwor ms
il ized
Ġde af
Ġcon qu
Ġlo ving
Ġout d
Ġint ensive
ĠS and
Ġup side
el p
Ġwork force
Ġcomp reh
Ġle verage
ĠB re
ĠH ollywood
ach er
ĠG lobal
Ġcl ues
ĠD oes
Ġimp ression
Ġover l
lo oking
Ġcont rary
ĠR am
Ġbo ost
Ġbo ots
other ap
ak en
ĠJ ac
Ġwr apped
Ġfind ings
Ġtra cks
we ight
Ġra ises
Ġbuild s
Ġob ese
Ġbelie ving
Ġcar ries
pl us
Ġmod e
Ġ19 00
Ġla wn
Ġbus h
Ġbi o
Ġvis ually
Ġmoment um
Ġinteresting ly
Ġstop ping
ĠNew s
Ġbad ly
Ġbre eding
Ġche at
Ġdeep est
Ġengine ered
ush ed
omet er
Ġpsych ologists
ĠSh akespeare
Ġred esign
unt ing
Ġsuggest ion
Ġbra nds
Ġprop ag
Ġprop osal
Ġimm ort
Ġmar g
Ġstra w
Not hing
Ġcompet ing
Ġcompet itive
ĠLe on
Ġconscious ly
Ġinstitut ional
Ġep is
Ġauthor ities
Ġappear ance
Ġwild life
Ġenj o
Ġfra ction
Ġjump ed
Ġdiscover ing
Ġcorru pt
Ġinterview ed
Ġhistor ically
ĠSte wart
Ġann ual
Ġinj ured
Ġcru el
ĠCon f
Ġregular ly
thes ia
Ġtum ors
Ġcontribut ion
ĠEvery body
Re ally
Ġchann els
Ġpurs ue
Ġcourage ous
Ġexhib it
Ġmanip ulate
Ġoverwhel med
Ġoverwhel ming
Ġmushroom s
Ġbombs ight
stand ing
Ġembarrass ing
Ġmim ic
Ġrecyc led
Ġneut ral
Ġabsor b
Ġintrig uing
Ġtro ops
Ġlegis lation
ĠTasman ian
Ġhelicop ter
Ġlux ury
Ġunh appy
Ġpige on
ĠAbra ham
Ġsimult aneously
ĠDetro it
Ġdownt own
Ġambit ious
Ġcriter ia
1 00
C H
D r
F if
K e
N C
N ever
S ame
T w
U ntil
a o
c ation
k ind
m un
r ats
s ized
Ġt ie
Ġthe ories
Ġs ale
er als
Ġb ills
Ġh ated
Ġp ills
Ġf ancy
Ġd irt
Ġg aps
ic it
ic ient
ĠI BM
ut s
Ġre nder
Ġre vel
im ag
Ġst unning
th eless
Ġsh out
Ġch am
Ġr ose
Ġde cent
Ġcon gest
ĠA v
Ġsee king
ĠC ont
ĠM aybe
ag os
ĠB ell
ĠT un
Ġcl ient
Ġbu ff
ĠL ou
lo ved
ĠR em
ĠF ree
Ġsy ring
Ġreal m
Ġpre vention
Ġoff spring
Ġgen omes
Ġhuman itarian
Ġsystem atically
av a
Ġgu ilty
Ġcol ored
Ġfl ows
Ġfl avor
Ġ3 7
Ġinst ruction
Ġhigh way
Ġrep licate
Ġfar ms
Ġhard est
Ġ4 6
Ġcap ability
ier ra
Ġreason able
Ġ200 2
ĠNew ton
Ġanswer ing
Ġamaz ed
Ġself ish
Ġcontin uous
Ġfree zing
bs olut
Ġfund ra
Ġvir al
Ġmess y
cc oli
Ġdemoc rat
Ġtem por
Ġvers ions
Ġsum mar
com puter
Ġstat istic
Ġfire flies
ann a
Ġvac uum
Ġhar bor
Ġfem in
Ġtruth s
ĠZ imb
Ġprop ose
Ġplant ed
Ġimm ers
Ġrece iving
Ġdefin ing
Ġmicro phone
Al though
Ġwebs ites
Ġdetect ion
Ġconcer ns
Ġreflect ion
ĠGe ographic
ĠAm y
Ġfra gment
imp s
Ġenjoy ed
Ġcustom er
Ġresist ant
Ġsurve illance
Ġbatter ies
Ġphysic ists
uild ing
Ġshel f
Ġsucceed ed
Ġastron aut
Ġgrain s
Ġlimit ations
Ġrepl aced
ĠJe ff
Ġconduct ed
Ġextend ed
Ġminim um
Ġdolph in
Ġfright ening
Ġlabel ed
Ġencoura ging
vas ive
ĠSat urn
Ġacknow ledge
Ġcontrovers ial
Ġbeet les
ĠMont ana
Ġicon ic
Ġimpress ive
ĠLad en
Ġsuppl ies
Ġcoun sel
ĠSing apore
Ġrehab ilitation
Ġperm ission
Ġaes thetic
Ġexped ition
ĠTan zan
Ġgras p
ĠQue en
Ġhybr id
Ġcyl inder
ĠSou thern
ĠCour t
Ġtraject ory
Ġthresh old
Ġgenoc ide
B ill
B oth
G et
M S
c a
f ire
h al
i atr
l an
l ers
m ate
r ist
u ction
w orld
Ã ¡
Ġ +
Ġt urb
Ġa unt
in em
Ġw ard
Ġc ube
Ġb ure
Ġb lob
or ious
Ġin ex
Ġin mates
ar ge
Ġg el
Ġn erves
Ġbe nd
Ġbe ef
ay ing
im a
Ġst orage
ere nt
st ar
ol en
Ġsh aking
ter ing
ul es
um ble
Ġv en
Ġv enture
ĠA lp
ĠA udience
Ġout rage
ink ing
It s
ie ve
ie ce
ĠS er
ĠS pe
ĠS ee
Ġtr apped
Ġsee mingly
Ġact ively
ĠC ur
ĠM at
ĠM ary
ĠM ike
act ive
ĠB oy
ĠT ime
Ġun st
Ġtw ins
Ġpr ose
Ġover se
Ġdis g
Ġdis asters
Ġpo le
ĠL ee
Ġkind ness
Ġac ids
Ġres olution
Ġher itage
ĠW il
Ġshow er
Ġgr amm
ĠO l
ĠU SA
Ġcount ing
Ġsc ales
ons ider
Ġsystem atic
Ġtechn ically
ĠK y
ail s
Ġhelp less
Ġunderstand s
ĠIt alian
Ġrel ation
Ġcell ular
Ġmod est
Ġmin us
Ġplan ned
Ġcomput ational
Ġproject ions
vers ion
Ġbi ologist
Ġinf l
Ġinf lation
Ġhead ing
Ġval ley
Ġphys icians
Ġche ating
Ġca ves
Ġexpect ing
Ġinvest ments
ĠAr istotle
Ġill usions
Ġpred iction
Ġsaf ely
Ġterr ified
Ġcal c
Ġsqu ee
Ġcivil izations
Ġvol can
Ġperiod s
Ġmedic ines
Ġattack ed
Ġmeth ane
Ġcompassion ate
Ġextraord inarily
Ġauthor itarian
Ġassum ed
Ġassum ption
Ġtemper atures
Ġearl iest
Ġrap ed
Ġjud gments
Ġrandom ly
Any one
Ġlog ical
Ġdoub led
Ġtherap ies
Ġvot ed
li hood
Ġepide m
Ġsubst ant
Ġsculpt ures
Ġopin ions
Ġincent ive
Ġinform ed
Ġconstruct ed
Ġenem ies
Ġinev it
Ġmak er
Ġencoura ged
ĠCo ast
Ġregard less
Ġassign ment
Ġhoriz on
Ġestablish ed
dr iven
Ġtwe et
Ġben ch
Ġabund ance
Ġstri king
agh etti
Ġtatto o
ĠSil icon
Ġdynam ics
Ġhier archy
onge vity
Ġmur der
Ġmonit oring
Ġlone ly
Ġrecess ion
Ġclot hing
Ġdop amine
Ġstom ach
otherap y
B J
D uring
W K
j a
p erson
t ent
v iron
z ler
Ġa h
Ġw ins
re tty
at ics
at ts
it ative
Ġh int
Ġh ob
Ġd y
or r
Ġl ongevity
ar l
ar ians
ic an
ur day
ig ma
Ġst air
Ġst olen
Ġfor b
am il
Ġsh ips
ad ian
Ġj aw
Ġr ip
Ġlike lihood
Ġv ivid
ind a
Ġsp an
Ġsp are
Ġsp aghetti
her om
Ġcomp ound
Ġen zy
ach el
ĠP op
Ġar bit
Ġdis ability
ens us
ru ption
ell ed
Ġher d
Ġbo nd
ĠW atch
ĠW right
Ġreal istic
Ġpre v
ath em
Ġapp s
Ġinv olving
Ġcr iminals
ĠK ir
ew is
az a
Ġmed itation
Ġsmall est
Ġcare s
Ġrec re
Ġcomput ation
pr il
Ġvis cer
Ġeas iest
ograph ical
Ġnight m
Ġadv ances
Ġsec ular
Ġappro ved
Ġname ly
Ġemp owered
ĠAr gent
Ġwind s
Ġmot ors
Ġcut s
Ġcal m
Ġcool ing
Ġapproach ing
Ġcamp us
Ġfavor ites
Ġvac ation
Ġprop osition
Ġtouch ing
Ġult rasound
St ud
With out
amm ad
ĠDe velop
Ġremark ably
Ġ199 9
Ġdetect or
Ġunivers es
Ġsignific ance
enn is
Ġcalcul ated
Ġassoci ate
Ġ198 4
Ġdiscover ies
Ġdestro ying
Ġphenomen a
Ġwood en
Ġmotiv ated
Ġinj uries
Ġdocument ary
Ġfat al
ĠMexic an
Ġswitch ed
Ġaccur acy
Ġscan ning
Ġcorrect ly
Ġreplace ment
Ġfrequ ently
Ġpartners hip
Ġinstall ation
ĠEgypt ian
ĠMo ore
Ġmill enn
Ġaccom pan
Ġintr ins
Ġtoile ts
Ġresc ued
Ġingred ient
Ġscen es
Ġlect ures
bur g
Ġreprodu ce
ĠGree k
Ġsla very
Ġobser ved
oli ath
Ġreject ed
ĠSat urday
Ġbeet le
ĠFre edom
Ġtoler ance
ĠHaw ai
ĠGand hi
ĠTes zler
ĠDel hi
ĠDis ney
Ġnonviol ent
Ġcatast roph
Ġchimpanz ees
abul ary
Ġincor por
ĠBrook lyn
Ġgrocer y
Ġimprovis ation
ĠVirgin ia
ĠTun is
A cc
C A
C on
H uman
M us
M ark
P T
R ather
T S
U nder
a ire
i ologist
n ie
n ik
o en
r r
r ip
u ously
Ġt s
Ġt angible
Ġth us
in come
re ens
Ġo ven
at oes
is a
it ate
Ġb am
Ġb ang
Ġb other
Ġm ast
Ġm ask
Ġm esh
Ġto ast
Ġp herom
Ġl ists
ot ing
ot ect
Ġy east
as king
Ġn ode
Ġbe loved
ent er
op us
st orm
ol um
th als
Ġse as
Ġcan vas
Ġsh red
Ġsh ots
Ġsh ifts
Ġsh epherd
ad ium
ill as
ul ance
il ation
Ġfr ames
Ġj an
Ġus eless
Ġor ang
Ġlo ose
Ġkn ife
Ġv ary
ĠC amp
ĠM ur
og y
ast e
Ġwork place
iz a
Ġta bles
Ġexp osure
ĠB u
ĠB osn
ĠH uman
ach es
ach ine
ĠT re
ĠT im
ĠT ah
Ġover head
Ġco verage
ĠL in
ĠL ine
Ġro les
ult y
ĠR and
co nds
ĠW o
Ġreal ization
Ġide ology
Ġpre par
ĠJ ord
Ġapp les
Ġ3 50
Ġart ic
Ġent ry
Ġent ering
Ġstr ings
Ġext inction
Ġatt itudes
Ġgener osity
Ġ4 4
Ġbi od
Ġpass ive
Ġinf er
Ġform at
ogr ams
ĠV ery
Ġresearch ing
Ġpolit ician
Ġfollow s
Ġprogram mers
Ġemp ath
Ġbro ccoli
Ġfilm maker
Ġwin ner
Ġocc urs
Ġap olog
Ġprofess ors
Ġorig ins
Ġpredict able
Ġlif el
Ġcross ed
Ġfant asy
ĠSw itzer
Ġluck ily
Ġperspect ives
Ġinfect ions
Ġnarr atives
Ġ201 2
fr am
Ġcorre l
yl on
Ġtrib al
Ġhonest y
Ġpen is
Ġblock ing
ĠSp ain
Ġworry ing
Ġoccur ring
ĠCl int
Ġblog s
Ġjournal ists
Ġtens ion
ĠChar lie
Ġdomin ated
ĠMin istry
cop ic
Ġbelong s
Ġadop ted
gra du
Ġvoc abulary
Ġestim ated
Ġconfront ed
Ġauton omy
Ġaccompl ish
Ġaccompl ished
Ġelimin ate
Ġrefriger ator
Ġchromos omes
Ad am
Ġpleas ant
Ġinh ib
Ġglaci er
Ġeleg ant
ĠWol fram
Ġjelly fish
ĠProf essor
cyclop edia
bsolut ely
Ġoverse as
ĠSwitzer land
H alf
N ew
R es
T en
d a
g on
g ian
l or
m ind
p os
p age
r in
in th
Ġw rest
Ġc ope
Ġm ild
Ġm apped
Ġh ut
Ġh ipp
Ġp ad
Ġd ens
Ġd ile
Ġd ating
or ough
al i
Ġin ch
ar on
ot on
Ġy ards
ĠI re
Ġe co
Ġis lands
Ġre nt
ct ive
Ġha mb
ur ning
ch ron
ro ve
ro id
se x
Ġwas ted
am an
Ġcan cers
Ġsh ore
ul ative
il ated
Ġj e
Ġj ar
Ġj et
Ġch ains
Ġr h
Ġde forestation
um bs
Ġlo go
Ġkn ees
Ġint act
Ġint ended
ĠS ierra
ort ion
Ġpl ates
Wh atever
ĠM et
ĠM ond
iz ab
are st
act ic
ack s
Ġen vel
Ġen abled
Ġle ver
ĠB h
Ġman ner
Ġman aging
ud i
ĠH all
Ġun le
ĠD es
ĠN elson
ry pt
Ġshe er
ĠL ake
ĠL isten
Ġac cent
Ġdes cend
Ġbo ats
ĠJ ones
ful ness
ĠU s
Ġcount ed
Ġsc rew
Ġbr idges
igh th
Ġsch ed
Ġ3 8
Ġob so
Ġbas king
Ġfam ine
Ġcons p
erg y
Ġplan es
Ġcare d
Ġreg ulations
Ġpass ions
Ġvis ions
Ġconf ig
Ġcor ners
ĠAfric ans
ĠTED Global
Ġadd iction
Ġequ ations
Ġcond om
Ġamazing ly
Ġret ail
Ġdep os
Ġmass ively
ĠAr thur
Ġnorm s
Ġliter acy
Ġz ones
Ġmic r
Ġlow est
Ġpract icing
Ġcommunic ating
Some one
Ġsqu ared
ustain able
Ġmeasure ments
Ġconv icted
Ġdest ination
Ġobs c
Ġobs ession
Ġtext ure
Ġpath s
Ġfem inist
Ġtrust ed
Ġactiv ists
Ġunf air
Ġapart ments
Al most
ĠDe f
Ġpan ic
Ġpan creat
Ġ13 0
Ġreflect ed
Ġthr ive
Ġsym p
Ġrespond ed
Ġpark s
Ġdiagn ost
Be ing
Ġautom obile
Ġintegr ate
Ġlaugh ed
ĠCol umb
Ġphilosoph ical
Ġtom ato
Ġattract ed
Ġbound ary
Ġdan cers
Ġembra cing
Ġquant ities
Ġprior it
Ġtal ented
Ġalt ered
Ġund erest
Ġur ge
Ġsympt om
uh ammad
Ġweak ness
Ġsan itation
gra de
Ġlapt ops
Ġisol ation
Ġeleph ants
Ġfright ened
Ġinterpret ation
Ġprivile ged
Ġconsist ent
Ġspin ning
Ġproced ures
Ġelev ator
Ġentrepreneur ial
Ġmetabol ism
Ġment or
Ġregener ate
Ġped est
Ġbran ches
Ġchromos ome
opard y
Ġpupp et
Sim ilar
enh agen
ĠSyr ia
thet ics
Ġpubl ishing
ĠNeander thals
ĠPalestin ian
EC D
Turn s
Ġod or
ĠLeban on
Ġmanif est
ĠCambod ia
Ġoct opus
Ġsib lings
Ġjew el
ĠTib et
ĠEth iop
Ġcongest ion
