{
  "version": "1.0",
  "truncation": {
    "max_length": 128,
    "strategy": "LongestFirst",
    "stride": 0
  },
  "padding": {
    "strategy": {
      "Fixed": 128
    },
    "direction": "Right",
    "pad_to_multiple_of": null,
    "pad_id": 1,
    "pad_type_id": 0,
    "pad_token": "[PAD]"
  },
  "added_tokens": [
    {
      "id": 0,
      "special": true,
      "content": "[BOS]",
      "single_word": false,
      "lstrip": false,
      "rstrip": false,
      "normalized": false
    },
    {
      "id": 1,
      "special": true,
      "content": "[PAD]",
      "single_word": false,
      "lstrip": false,
      "rstrip": false,
      "normalized": false
    },
    {
      "id": 2,
      "special": true,
      "content": "[EOS]",
      "single_word": false,
      "lstrip": false,
      "rstrip": false,
      "normalized": false
    },
    {
      "id": 3,
      "special": true,
      "content": "[UNK]",
      "single_word": false,
      "lstrip": false,
      "rstrip": false,
      "normalized": false
    }
  ],
  "normalizer": null,
  "pre_tokenizer": {
    "type": "ByteLevel",
    "add_prefix_space": false,
    "trim_offsets": true
  },
  "post_processor": {
    "type": "TemplateProcessing",
    "single": [
      {
        "SpecialToken": {
          "id": "[BOS]",
          "type_id": 0
        }
      },
      {
        "Sequence": {
          "id": "A",
          "type_id": 0
        }
      },
      {
        "SpecialToken": {
          "id": "[EOS]",
          "type_id": 0
        }
      }
    ],
    "pair": [
      {
        "Sequence": {
          "id": "A",
          "type_id": 0
        }
      },
      {
        "Sequence": {
          "id": "B",
          "type_id": 1
        }
      }
    ],
    "special_tokens": {
      "[BOS]": {
        "id": "[BOS]",
        "ids": [
          0
        ],
        "tokens": [
          "[BOS]"
        ]
      },
      "[EOS]": {
        "id": "[EOS]",
        "ids": [
          2
        ],
        "tokens": [
          "[EOS]"
        ]
      }
    }
  },
  "decoder": {
    "type": "ByteLevel",
    "add_prefix_space": true,
    "trim_offsets": true
  },
  "model": {
    "type": "BPE",
    "dropout": null,
    "unk_token": null,
    "continuing_subword_prefix": null,
    "end_of_word_suffix": null,
    "fuse_unk": false,
    "vocab": {
      "[BOS]": 0,
      "[PAD]": 1,
      "[EOS]": 2,
      "[UNK]": 3,
      "!": 4,
      "\"": 5,
      "#": 6,
      "$": 7,
      "%": 8,
      "&": 9,
      "'": 10,
      "(": 11,
      ")": 12,
      "*": 13,
      "+": 14,
      ",": 15,
      "-": 16,
      ".": 17,
      "/": 18,
      "0": 19,
      "1": 20,
      "2": 21,
      "3": 22,
      "4": 23,
      "5": 24,
      "6": 25,
      "7": 26,
      "8": 27,
      "9": 28,
      ":": 29,
      ";": 30,
      "<": 31,
      "=": 32,
      ">": 33,
      "?": 34,
      "@": 35,
      "A": 36,
      "B": 37,
      "C": 38,
      "D": 39,
      "E": 40,
      "F": 41,
      "G": 42,
      "H": 43,
      "I": 44,
      "J": 45,
      "K": 46,
      "L": 47,
      "M": 48,
      "N": 49,
      "O": 50,
      "P": 51,
      "Q": 52,
      "R": 53,
      "S": 54,
      "T": 55,
      "U": 56,
      "V": 57,
      "W": 58,
      "X": 59,
      "Y": 60,
      "Z": 61,
      "[": 62,
      "\\": 63,
      "]": 64,
      "^": 65,
      "_": 66,
      "`": 67,
      "a": 68,
      "b": 69,
      "c": 70,
      "d": 71,
      "e": 72,
      "f": 73,
      "g": 74,
      "h": 75,
      "i": 76,
      "j": 77,
      "k": 78,
      "l": 79,
      "m": 80,
      "n": 81,
      "o": 82,
      "p": 83,
      "q": 84,
      "r": 85,
      "s": 86,
      "t": 87,
      "u": 88,
      "v": 89,
      "w": 90,
      "x": 91,
      "y": 92,
      "z": 93,
      "{": 94,
      "|": 95,
      "}": 96,
      "~": 97,
      "¡": 98,
      "¢": 99,
      "£": 100,
      "¤": 101,
      "¥": 102,
      "¦": 103,
      "§": 104,
      "¨": 105,
      "©": 106,
      "ª": 107,
      "«": 108,
      "¬": 109,
      "®": 110,
      "¯": 111,
      "°": 112,
      "±": 113,
      "²": 114,
      "³": 115,
      "´": 116,
      "µ": 117,
      "¶": 118,
      "·": 119,
      "¸": 120,
      "¹": 121,
      "º": 122,
      "»": 123,
      "¼": 124,
      "½": 125,
      "¾": 126,
      "¿": 127,
      "À": 128,
      "Á": 129,
      "Â": 130,
      "Ã": 131,
      "Ä": 132,
      "Å": 133,
      "Æ": 134,
      "Ç": 135,
      "È": 136,
      "É": 137,
      "Ê": 138,
      "Ë": 139,
      "Ì": 140,
      "Í": 141,
      "Î": 142,
      "Ï": 143,
      "Ð": 144,
      "Ñ": 145,
      "Ò": 146,
      "Ó": 147,
      "Ô": 148,
      "Õ": 149,
      "Ö": 150,
      "×": 151,
      "Ø": 152,
      "Ù": 153,
      "Ú": 154,
      "Û": 155,
      "Ü": 156,
      "Ý": 157,
      "Þ": 158,
      "ß": 159,
      "à": 160,
      "á": 161,
      "â": 162,
      "ã": 163,
      "ä": 164,
      "å": 165,
      "æ": 166,
      "ç": 167,
      "è": 168,
      "é": 169,
      "ê": 170,
      "ë": 171,
      "ì": 172,
      "í": 173,
      "î": 174,
      "ï": 175,
      "ð": 176,
      "ñ": 177,
      "ò": 178,
      "ó": 179,
      "ô": 180,
      "õ": 181,
      "ö": 182,
      "÷": 183,
      "ø": 184,
      "ù": 185,
      "ú": 186,
      "û": 187,
      "ü": 188,
      "ý": 189,
      "þ": 190,
      "ÿ": 191,
      "Ā": 192,
      "ā": 193,
      "Ă": 194,
      "ă": 195,
      "Ą": 196,
      "ą": 197,
      "Ć": 198,
      "ć": 199,
      "Ĉ": 200,
      "ĉ": 201,
      "Ċ": 202,
      "ċ": 203,
      "Č": 204,
      "č": 205,
      "Ď": 206,
      "ď": 207,
      "Đ": 208,
      "đ": 209,
      "Ē": 210,
      "ē": 211,
      "Ĕ": 212,
      "ĕ": 213,
      "Ė": 214,
      "ė": 215,
      "Ę": 216,
      "ę": 217,
      "Ě": 218,
      "ě": 219,
      "Ĝ": 220,
      "ĝ": 221,
      "Ğ": 222,
      "ğ": 223,
      "Ġ": 224,
      "ġ": 225,
      "Ģ": 226,
      "ģ": 227,
      "Ĥ": 228,
      "ĥ": 229,
      "Ħ": 230,
      "ħ": 231,
      "Ĩ": 232,
      "ĩ": 233,
      "Ī": 234,
      "ī": 235,
      "Ĭ": 236,
      "ĭ": 237,
      "Į": 238,
      "į": 239,
      "İ": 240,
      "ı": 241,
      "Ĳ": 242,
      "ĳ": 243,
      "Ĵ": 244,
      "ĵ": 245,
      "Ķ": 246,
      "ķ": 247,
      "ĸ": 248,
      "Ĺ": 249,
      "ĺ": 250,
      "Ļ": 251,
      "ļ": 252,
      "Ľ": 253,
      "ľ": 254,
      "Ŀ": 255,
      "ŀ": 256,
      "Ł": 257,
      "ł": 258,
      "Ń": 259,
      "Ġt": 260,
      "Ġth": 261,
      "Ġa": 262,
      "in": 263,
      "Ġ,": 264,
      "Ġw": 265,
      "Ġthe": 266,
      "re": 267,
      "Ġ.": 268,
      "Ġo": 269,
      "Ġs": 270,
      "at": 271,
      "nd": 272,
      "er": 273,
      "ou": 274,
      "Ġc": 275,
      "is": 276,
      "it": 277,
      "Ġ&": 278,
      "os": 279,
      "Ġb": 280,
      "ing": 281,
      "Ġm": 282,
      "en": 283,
      "Ġh": 284,
      "ap": 285,
      "on": 286,
      "Ġto": 287,
      "Ġp": 288,
      "Ġf": 289,
      "es": 290,
      "an": 291,
      "Ġd": 292,
      "apos": 293,
      "or": 294,
      "Ġof": 295,
      "al": 296,
      "Ġin": 297,
      "Ġand": 298,
      "ed": 299,
      "Ġl": 300,
      "ar": 301,
      "ot": 302,
      "Ġy": 303,
      "Ġthat": 304,
      "om": 305,
      "Ġg": 306,
      "as": 307,
      "ic": 308,
      "le": 309,
      "ĠI": 310,
      "ve": 311,
      "Ġyou": 312,
      "ll": 313,
      "Ġn": 314,
      "Ġwe": 315,
      "Ġwh": 316,
      "ow": 317,
      "Ġe": 318,
      "us": 319,
      "ly": 320,
      "Ġis": 321,
      "Ġbe": 322,
      "ut": 323,
      "ion": 324,
      "Ġit": 325,
      "et": 326,
      "Ġre": 327,
      "ent": 328,
      "qu": 329,
      "ct": 330,
      "Ġon": 331,
      "ld": 332,
      "ver": 333,
      "ay": 334,
      "id": 335,
      "Th": 336,
      "And": 337,
      "Ġha": 338,
      "im": 339,
      "Ġthis": 340,
      "ur": 341,
      "ig": 342,
      "Ġst": 343,
      "ch": 344,
      "ere": 345,
      "quot": 346,
      "ro": 347,
      "ke": 348,
      "Ġfor": 349,
      "ce": 350,
      "if": 351,
      "se": 352,
      "Ġwas": 353,
      "ir": 354,
      "am": 355,
      "op": 356,
      "ith": 357,
      "Ġan": 358,
      "Ġdo": 359,
      "st": 360,
      "Ġare": 361,
      "ol": 362,
      "ally": 363,
      "Ġwith": 364,
      "th": 365,
      "Ġhave": 366,
      "ra": 367,
      "Ġab": 368,
      "Ġthey": 369,
      "Ġu": 370,
      "Ġgo": 371,
      "Ġse": 372,
      "Ġcan": 373,
      "Ġk": 374,
      "ation": 375,
      "Ġas": 376,
      "ht": 377,
      "out": 378,
      "--": 379,
      "Ġ--": 380,
      "Ġli": 381,
      "Ġsh": 382,
      "ad": 383,
      "Ġwor": 384,
      "So": 385,
      "Ġhe": 386,
      "Ġ?": 387,
      "Ġwhat": 388,
      "Ġme": 389,
      "od": 390,
      "Ġcom": 391,
      "ould": 392,
      "very": 393,
      "ill": 394,
      "Ġne": 395,
      "Ġat": 396,
      "ge": 397,
      "Ġabout": 398,
      "ant": 399,
      "ter": 400,
      "Ġnot": 401,
      "ul": 402,
      "il": 403,
      "Ġso": 404,
      "ore": 405,
      "The": 406,
      "Ġfr": 407,
      "ust": 408,
      "Ġall": 409,
      "ers": 410,
      "Ġj": 411,
      "Ġex": 412,
      "Ġch": 413,
      "Ġmy": 414,
      "Ġr": 415,
      "Ġde": 416,
      "Ġus": 417,
      "ight": 418,
      "Ġsom": 419,
      "Ġpro": 420,
      "Ġpe": 421,
      "ear": 422,
      "ople": 423,
      "art": 424,
      "ess": 425,
      "Ġor": 426,
      "We": 427,
      "Ġthere": 428,
      "Ġcon": 429,
      "ck": 430,
      "Ġpeople": 431,
      "ate": 432,
      "Ġlike": 433,
      "ure": 434,
      "um": 435,
      "ies": 436,
      "ok": 437,
      "ive": 438,
      "Ġone": 439,
      "Ġfrom": 440,
      "est": 441,
      "ist": 442,
      "ity": 443,
      "nt": 444,
      "Ġlo": 445,
      "ble": 446,
      "Ġma": 447,
      "Ġour": 448,
      "Ġkn": 449,
      "use": 450,
      "Ġbec": 451,
      "Ġv": 452,
      "Ġbut": 453,
      "ind": 454,
      "Ġte": 455,
      "ĠA": 456,
      "ect": 457,
      "rou": 458,
      "Ġal": 459,
      "Ġout": 460,
      "all": 461,
      "ink": 462,
      "Ġ:": 463,
      "un": 464,
      "ause": 465,
      "Ġint": 466,
      "Ġjust": 467,
      "It": 468,
      "ide": 469,
      "and": 470,
      "Ġknow": 471,
      "Ġsp": 472,
      "Ġthem": 473,
      "ie": 474,
      "Ġthing": 475,
      "ĠS": 476,
      "Ġtr": 477,
      "But": 478,
      "Ġsee": 479,
      "Ġthese": 480,
      "her": 481,
      "Ġif": 482,
      "ort": 483,
      "ci": 484,
      "Ġwho": 485,
      "Ġup": 486,
      "Ġvery": 487,
      "Ġthink": 488,
      "Ġget": 489,
      "el": 490,
      "ich": 491,
      "one": 492,
      "Ġby": 493,
      "ain": 494,
      "Ġwhen": 495,
      "Ġpl": 496,
      "Ġyour": 497,
      "Ġact": 498,
      "Ġmore": 499,
      "ĠC": 500,
      "iv": 501,
      "Wh": 502,
      "Ġsome": 503,
      "Ġ1": 504,
      "Ġgoing": 505,
      "Ġim": 506,
      "Ġyear": 507,
      "Ġbecause": 508,
      "Ġhad": 509,
      "em": 510,
      "our": 511,
      "Ġsa": 512,
      "Ġwould": 513,
      "Ġwere": 514,
      "ost": 515,
      "ĠM": 516,
      "Ġhow": 517,
      "og": 518,
      "ame": 519,
      "Ġtheir": 520,
      "ine": 521,
      "Ġtim": 522,
      "ast": 523,
      "ose": 524,
      "Ġwhich": 525,
      "ment": 526,
      "Ġwant": 527,
      "Ġwork": 528,
      "Ġsu": 529,
      "Ġlook": 530,
      "Ġreally": 531,
      "iz": 532,
      "ually": 533,
      "are": 534,
      "00": 535,
      "Ġcomp": 536,
      "gh": 537,
      "ard": 538,
      "act": 539,
      "reat": 540,
      "ous": 541,
      "Ġway": 542,
      "ack": 543,
      "Ġen": 544,
      "Ġta": 545,
      "Ġworld": 546,
      "ab": 547,
      "hing": 548,
      "Ġle": 549,
      "You": 550,
      "ans": 551,
      "ag": 552,
      "Ġexp": 553,
      "ther": 554,
      "Ġhere": 555,
      "ong": 556,
      "Ġtime": 557,
      "Ġhas": 558,
      "This": 559,
      "Ġthen": 560,
      "ĠB": 561,
      "pp": 562,
      "Ġevery": 563,
      "ions": 564,
      "Ġper": 565,
      "Ġsay": 566,
      "app": 567,
      "alk": 568,
      "age": 569,
      "Ġdon": 570,
      "Ġman": 571,
      "Ġactually": 572,
      "Ġqu": 573,
      "Ġev": 574,
      "Ġinto": 575,
      "ace": 576,
      "Ġcould": 577,
      "ence": 578,
      "ud": 579,
      "Ġwill": 580,
      "res": 581,
      "ild": 582,
      "Ġfe": 583,
      "ĠH": 584,
      "Ġyears": 585,
      "Ġdid": 586,
      "Ġnow": 587,
      "Ġother": 588,
      "Now": 589,
      "ach": 590,
      "Ġthings": 591,
      "Ġag": 592,
      "Ġwhere": 593,
      "itt": 594,
      "iff": 595,
      "nder": 596,
      "ĠT": 597,
      "Ġno": 598,
      "ĠG": 599,
      "They": 600,
      "ff": 601,
      "ical": 602,
      "Ġsomet": 603,
      "ice": 604,
      "Ġdiff": 605,
      "Ġhapp": 606,
      "Ġmake": 607,
      "Ġneed": 608,
      "Ġun": 609,
      "Ġany": 610,
      "Ġthan": 611,
      "ĠE": 612,
      "Ġtw": 613,
      "Ġcl": 614,
      "Ġpr": 615,
      "Ġbeen": 616,
      "ĠP": 617,
      "ip": 618,
      "ĠD": 619,
      "so": 620,
      "irst": 621,
      "Ġimp": 622,
      "ome": 623,
      "Ġsaid": 624,
      "Ġstart": 625,
      "ĠN": 626,
      "ife": 627,
      "Ġ2": 628,
      "ia": 629,
      "Ġar": 630,
      "red": 631,
      "ree": 632,
      "Ġpart": 633,
      "ory": 634,
      "ry": 635,
      "pt": 636,
      "Ġover": 637,
      "Ġco": 638,
      "orm": 639,
      "own": 640,
      "uch": 641,
      "Ġdis": 642,
      "Ġsomething": 643,
      "Ġtwo": 644,
      "Ġbu": 645,
      "ite": 646,
      "Ġright": 647,
      "ass": 648,
      "ount": 649,
      "ang": 650,
      "Ġback": 651,
      "round": 652,
      "Ġmuch": 653,
      "ib": 654,
      "ign": 655,
      "ep": 656,
      "Ġfirst": 657,
      "Ġdiffere": 658,
      "ound": 659,
      "Ġnew": 660,
      "ac": 661,
      "Ġcall": 662,
      "sel": 663,
      "Ġshe": 664,
      "Ġtalk": 665,
      "ens": 666,
      "ue": 667,
      "Ġthose": 668,
      "Ġpo": 669,
      "Ġmo": 670,
      "Ġalso": 671,
      "rain": 672,
      "olog": 673,
      "ater": 674,
      "ves": 675,
      "Ġspe": 676,
      "Ġgot": 677,
      "cent": 678,
      "ght": 679,
      "ĠL": 680,
      "Ġlife": 681,
      "Ġro": 682,
      "lo": 683,
      "ult": 684,
      "Ġcont": 685,
      "king": 686,
      "Ġlot": 687,
      "ple": 688,
      "ittle": 689,
      "Ġkind": 690,
      "vel": 691,
      "way": 692,
      "Ġac": 693,
      "Ġlittle": 694,
      "Ġhis": 695,
      "Ġbet": 696,
      "Ġph": 697,
      "Ġunder": 698,
      "ody": 699,
      "ber": 700,
      "That": 701,
      "Ġmost": 702,
      "Ġam": 703,
      "ru": 704,
      "oss": 705,
      "Ġfo": 706,
      "ving": 707,
      "Ġday": 708,
      "Ġres": 709,
      "In": 710,
      "Ġonly": 711,
      "ĠR": 712,
      "ell": 713,
      "ated": 714,
      "able": 715,
      "Ġeven": 716,
      "Ġher": 717,
      "ations": 718,
      "What": 719,
      "ial": 720,
      "ict": 721,
      "Ġdes": 722,
      "co": 723,
      "Ġad": 724,
      "Ġbo": 725,
      "Ġmany": 726,
      "Ġtake": 727,
      "ĠF": 728,
      "ĠW": 729,
      "Ġdifferent": 730,
      "ank": 731,
      "rough": 732,
      "Ġ;": 733,
      "Ġgood": 734,
      "Ġsy": 735,
      "ire": 736,
      "du": 737,
      "ick": 738,
      "Ġshow": 739,
      "Ġreal": 740,
      "Ġem": 741,
      "Ġhum": 742,
      "ance": 743,
      "Ġide": 744,
      "Ġgr": 745,
      "ase": 746,
      "Ġaround": 747,
      "int": 748,
      "Ġthrough": 749,
      "Ġdoes": 750,
      "cess": 751,
      "other": 752,
      "Ġcomm": 753,
      "ning": 754,
      "There": 755,
      "ak": 756,
      "Ġpre": 757,
      "ish": 758,
      "ents": 759,
      "form": 760,
      "ĠO": 761,
      "ĠJ": 762,
      "Ġtell": 763,
      "Ġdown": 764,
      "Ġoff": 765,
      "ange": 766,
      "ms": 767,
      "Ġbeing": 768,
      "ath": 769,
      "Ġput": 770,
      "ress": 771,
      "Ġuse": 772,
      "Ġthou": 773,
      "ible": 774,
      "Ġwr": 775,
      "ade": 776,
      "ful": 777,
      "Ġproble": 778,
      "wn": 779,
      "Ġsm": 780,
      "Ġhappen": 781,
      "ors": 782,
      "ark": 783,
      "les": 784,
      "ary": 785,
      "Ġinc": 786,
      "xt": 787,
      "ether": 788,
      "ject": 789,
      "day": 790,
      "ual": 791,
      "Ġfact": 792,
      "ĠU": 793,
      "Ġsame": 794,
      "Ġcount": 795,
      "lect": 796,
      "ord": 797,
      "ne": 798,
      "iver": 799,
      "Ġsc": 800,
      "Well": 801,
      "Ġbr": 802,
      "Ġmay": 803,
      "Ġcome": 804,
      "ower": 805,
      "ces": 806,
      "Ġtry": 807,
      "Ġbig": 808,
      "ys": 809,
      "ile": 810,
      "stem": 811,
      "ting": 812,
      "Ġpers": 813,
      "per": 814,
      "Ġgen": 815,
      "urn": 816,
      "ved": 817,
      "tern": 818,
      "ars": 819,
      "Ġthree": 820,
      "Ġdoing": 821,
      "Ġfind": 822,
      "Ġdec": 823,
      "Ġsur": 824,
      "Ġgreat": 825,
      "ons": 826,
      "Ġexper": 827,
      "ically": 828,
      "chn": 829,
      "fter": 830,
      "Ġtra": 831,
      "self": 832,
      "te": 833,
      "Ġquest": 834,
      "Ġhuman": 835,
      "Ġpercent": 836,
      "fore": 837,
      "cial": 838,
      "we": 839,
      "Ġchild": 840,
      "nds": 841,
      "ĠCh": 842,
      "be": 843,
      "Ġwell": 844,
      "Ġbrain": 845,
      "ied": 846,
      "Ġsystem": 847,
      "Ġown": 848,
      "Ġapp": 849,
      "Ġlear": 850,
      "ics": 851,
      "body": 852,
      "Ġstud": 853,
      "Ġlet": 854,
      "Ġwhy": 855,
      "Ġcalled": 856,
      "igh": 857,
      "Ġind": 858,
      "thing": 859,
      "Ġtechn": 860,
      "ating": 861,
      "Ġra": 862,
      "Ġwom": 863,
      "Ġsim": 864,
      "Ġinv": 865,
      "ition": 866,
      "ian": 867,
      "Ġmade": 868,
      "av": 869,
      "ren": 870,
      "illion": 871,
      "Ġbl": 872,
      "Ġcr": 873,
      "Ġrem": 874,
      "Ġgu": 875,
      "Ġbuild": 876,
      "ric": 877,
      "Ġbel": 878,
      "ates": 879,
      "Ġagain": 880,
      "ology": 881,
      "ious": 882,
      "Ġshould": 883,
      "mer": 884,
      "Ġimport": 885,
      "lp": 886,
      "ĠK": 887,
      "Ġcol": 888,
      "Ġask": 889,
      "Ġunderst": 890,
      "Ġcreat": 891,
      "If": 892,
      "Ġlong": 893,
      "con": 894,
      "Thank": 895,
      "ize": 896,
      "Ġchange": 897,
      "olut": 898,
      "He": 899,
      "ool": 900,
      "Ġperson": 901,
      "Ġins": 902,
      "ub": 903,
      "ities": 904,
      "Ġtoday": 905,
      "ty": 906,
      "Ġend": 907,
      "Ġsch": 908,
      "Ġfeel": 909,
      "pe": 910,
      "lic": 911,
      "Ġthought": 912,
      "Ġdidn": 913,
      "Ġafter": 914,
      "Ġimportant": 915,
      "ew": 916,
      "Ġidea": 917,
      "ail": 918,
      "Ġhelp": 919,
      "Ġfl": 920,
      "Ġmean": 921,
      "amp": 922,
      "ft": 923,
      "Ġsci": 924,
      "ise": 925,
      "he": 926,
      "Ġcour": 927,
      "Ġ3": 928,
      "Ġlast": 929,
      "Ġstarted": 930,
      "Ġob": 931,
      "erest": 932,
      "Ġunderstand": 933,
      "ĠIt": 934,
      "Ġtrans": 935,
      "ily": 936,
      "Ġwent": 937,
      "ull": 938,
      "Ġbas": 939,
      "ese": 940,
      "Ġits": 941,
      "ope": 942,
      "Ġinst": 943,
      "Ġstory": 944,
      "Ġbefore": 945,
      "Ġrel": 946,
      "Ġdr": 947,
      "Ġke": 948,
      "Ġproblem": 949,
      "Ġbelie": 950,
      "Ġcar": 951,
      "kes": 952,
      "ough": 953,
      "Ġmight": 954,
      "als": 955,
      "ave": 956,
      "Ġdesign": 957,
      "ob": 958,
      "Ġnever": 959,
      "Ġhim": 960,
      "Ġpol": 961,
      "Ġpower": 962,
      "Ġfam": 963,
      "gan": 964,
      "Ġplay": 965,
      "000": 966,
      "Ġprodu": 967,
      "Ġinterest": 968,
      "ec": 969,
      "Ġgive": 970,
      "Ġinter": 971,
      "Ġschool": 972,
      "Ġart": 973,
      "Ġcourse": 974,
      "Ġbetter": 975,
      "und": 976,
      "ular": 977,
      "Ġcons": 978,
      "Ġstill": 979,
      "Ġkid": 980,
      "Ġturn": 981,
      "Ġable": 982,
      "ists": 983,
      "Ġfound": 984,
      "old": 985,
      "ction": 986,
      "Ġent": 987,
      "ility": 988,
      "When": 989,
      "Ġimag": 990,
      "Ġfew": 991,
      "Ġpoint": 992,
      "ven": 993,
      "Ġbit": 994,
      "oc": 995,
      "Ġcommun": 996,
      "ert": 997,
      "Ġlearn": 998,
      "ix": 999,
      "Ġcame": 1000,
      "ience": 1001,
      "Ġ&#": 1002,
      "ĠAnd": 1003,
      "ather": 1004,
      "velop": 1005,
      "ween": 1006,
      "Ġnext": 1007,
      "Ġstr": 1008,
      "ĠY": 1009,
      "Ġtog": 1010,
      "ng": 1011,
      "Ġtogether": 1012,
      "ĠThe": 1013,
      "atch": 1014,
      "oth": 1015,
      "ness": 1016,
      "ĠSt": 1017,
      "pl": 1018,
      "Ġanother": 1019,
      "Ġeach": 1020,
      "ĠIn": 1021,
      "Ġdat": 1022,
      "uc": 1023,
      "Ġlove": 1024,
      "ited": 1025,
      "Ġbetween": 1026,
      "Ġquestion": 1027,
      "erg": 1028,
      "Ġexam": 1029,
      "Ġcomple": 1030,
      "Ġcell": 1031,
      "Ġsl": 1032,
      "ized": 1033,
      "read": 1034,
      "ense": 1035,
      "Ġhigh": 1036,
      "alth": 1037,
      "Ġdevelop": 1038,
      "Ġmod": 1039,
      "Ġago": 1040,
      "Ġnum": 1041,
      "arch": 1042,
      "ward": 1043,
      "az": 1044,
      "ork": 1045,
      "Ġsort": 1046,
      "Ġcre": 1047,
      "Ġ10": 1048,
      "iss": 1049,
      "Ġword": 1050,
      "Ġplace": 1051,
      "Ġmin": 1052,
      "Ġmon": 1053,
      "Ġused": 1054,
      "ures": 1055,
      "ph": 1056,
      "Ġ19": 1057,
      "Ġdata": 1058,
      "iness": 1059,
      "meric": 1060,
      "ways": 1061,
      "Ġgrow": 1062,
      "Ġpat": 1063,
      "cy": 1064,
      "Ġwomen": 1065,
      "ings": 1066,
      "Ġgra": 1067,
      "Ġfour": 1068,
      "oney": 1069,
      "Ġext": 1070,
      "Ġ20": 1071,
      "Ġser": 1072,
      "Ġtoo": 1073,
      "Ġmom": 1074,
      "formation": 1075,
      "Ġplan": 1076,
      "Ġlight": 1077,
      "Ġatt": 1078,
      "ĠYou": 1079,
      "Ġla": 1080,
      "ced": 1081,
      "ood": 1082,
      "Ġfin": 1083,
      "aph": 1084,
      "Ġexample": 1085,
      "Ġmet": 1086,
      "ered": 1087,
      "Ġmed": 1088,
      "Ġold": 1089,
      "Ġwater": 1090,
      "ific": 1091,
      "ecause": 1092,
      "conom": 1093,
      "Ġread": 1094,
      "Ġdone": 1095,
      "Ġlive": 1096,
      "cept": 1097,
      "Ġop": 1098,
      "Ġsmall": 1099,
      "Ġcare": 1100,
      "ĠWe": 1101,
      "ĠAmeric": 1102,
      "Ġless": 1103,
      "Ġdoesn": 1104,
      "ets": 1105,
      "Ġwanted": 1106,
      "Ġseco": 1107,
      "Ġtechnology": 1108,
      "ative": 1109,
      "Ġmus": 1110,
      "Ġalways": 1111,
      "ah": 1112,
      "ger": 1113,
      "Ġed": 1114,
      "Ġbeh": 1115,
      "Ġlooking": 1116,
      "Ġchang": 1117,
      "Ġrec": 1118,
      "ably": 1119,
      "Ġmoney": 1120,
      "Ġbelieve": 1121,
      "ĠAf": 1122,
      "Ġcent": 1123,
      "selves": 1124,
      "ale": 1125,
      "Ġchildren": 1126,
      "Ġever": 1127,
      "Ġeconom": 1128,
      "Ġeff": 1129,
      "ands": 1130,
      "Ġgiv": 1131,
      "Ġpartic": 1132,
      "Ġgener": 1133,
      "Ġworking": 1134,
      "Ġcomput": 1135,
      "Ġposs": 1136,
      "Ġexpl": 1137,
      "Ġreas": 1138,
      "Ġwhole": 1139,
      "Ġrep": 1140,
      "Ġfar": 1141,
      "Ġteach": 1142,
      "Ġinformation": 1143,
      "Ġaway": 1144,
      "Ġbus": 1145,
      "Ġ5": 1146,
      "Ġter": 1147,
      "Ġbook": 1148,
      "Ġproject": 1149,
      "ational": 1150,
      "Ġhard": 1151,
      "Ġear": 1152,
      "Ġhome": 1153,
      "Ġmove": 1154,
      "Ġcountry": 1155,
      "Ġfood": 1156,
      "led": 1157,
      "Ġdem": 1158,
      "Ġkids": 1159,
      "Ġtrying": 1160,
      "nce": 1161,
      "Ġel": 1162,
      "Ġnat": 1163,
      "Because": 1164,
      "Ġcreate": 1165,
      "hip": 1166,
      "Ġmind": 1167,
      "ries": 1168,
      "Ġhealth": 1169,
      "Ġreg": 1170,
      "Ġresp": 1171,
      "Ġlar": 1172,
      "vers": 1173,
      "air": 1174,
      "Ġ4": 1175,
      "Ġfrie": 1176,
      "Ġrun": 1177,
      "ural": 1178,
      "Ġstu": 1179,
      "ote": 1180,
      "Ġbi": 1181,
      "olution": 1182,
      "ird": 1183,
      "Ġlead": 1184,
      "cer": 1185,
      "Ġmillion": 1186,
      "Ġmeans": 1187,
      "wh": 1188,
      "Ġfive": 1189,
      "Ġusing": 1190,
      "Ġeng": 1191,
      "atter": 1192,
      "ism": 1193,
      "nect": 1194,
      "Ġpass": 1195,
      "ments": 1196,
      "Ġbecome": 1197,
      "pr": 1198,
      "Ġsk": 1199,
      "ont": 1200,
      "Ġpict": 1201,
      "ident": 1202,
      "ract": 1203,
      "Ġhand": 1204,
      "ED": 1205,
      "Ġsupp": 1206,
      "Ġvis": 1207,
      "Ġsing": 1208,
      "Ġfun": 1209,
      "ins": 1210,
      "gg": 1211,
      "Ġcou": 1212,
      "Ġsub": 1213,
      "ines": 1214,
      "gr": 1215,
      "Ġmaybe": 1216,
      "Ġprocess": 1217,
      "Ġspace": 1218,
      "Ġopen": 1219,
      "Ġfut": 1220,
      "ruct": 1221,
      "ten": 1222,
      "Ġtook": 1223,
      "aut": 1224,
      "Ġacc": 1225,
      "Ġpub": 1226,
      "ories": 1227,
      "Ġconf": 1228,
      "Ġcompan": 1229,
      "Ġinf": 1230,
      "Ġdoll": 1231,
      "Ġshare": 1232,
      "Ġeverything": 1233,
      "its": 1234,
      "ond": 1235,
      "iron": 1236,
      "Ġwalk": 1237,
      "Ġsecond": 1238,
      "Ġthinking": 1239,
      "aces": 1240,
      "sw": 1241,
      "Ġcor": 1242,
      "Ġanim": 1243,
      "Ġfuture": 1244,
      "rib": 1245,
      "Ġcap": 1246,
      "Ġbest": 1247,
      "Ġform": 1248,
      "Ġorgan": 1249,
      "roup": 1250,
      "Ġenerg": 1251,
      "Ġsays": 1252,
      "Ġquite": 1253,
      "ĠUn": 1254,
      "ention": 1255,
      "Ġ!": 1256,
      "ues": 1257,
      "Ġsoci": 1258,
      "Ġprob": 1259,
      "iew": 1260,
      "Ġsocial": 1261,
      "ivers": 1262,
      "Ġcontro": 1263,
      "ogr": 1264,
      "Ġhead": 1265,
      "Ġnumber": 1266,
      "Ġsol": 1267,
      "Ġlives": 1268,
      "ek": 1269,
      "Ġelect": 1270,
      "Ġansw": 1271,
      "Ġenough": 1272,
      "vern": 1273,
      "iting": 1274,
      "alf": 1275,
      "ety": 1276,
      "Ġleft": 1277,
      "lob": 1278,
      "ake": 1279,
      "Ġcle": 1280,
      "How": 1281,
      "ner": 1282,
      "ĠSo": 1283,
      "Why": 1284,
      "Ġgetting": 1285,
      "Ġpop": 1286,
      "irl": 1287,
      "Ġcomes": 1288,
      "Ġenergy": 1289,
      "ouse": 1290,
      "Ġgroup": 1291,
      "ertain": 1292,
      "ĠV": 1293,
      "arr": 1294,
      "These": 1295,
      "ĠAfric": 1296,
      "kay": 1297,
      "Ġbeg": 1298,
      "Ġmaking": 1299,
      "Ġtimes": 1300,
      "Ġbody": 1301,
      "Ġpres": 1302,
      "ever": 1303,
      "ier": 1304,
      "cus": 1305,
      "Ġmonth": 1306,
      "ital": 1307,
      "ying": 1308,
      "Ġset": 1309,
      "Ġhappened": 1310,
      "Ġaut": 1311,
      "Ġval": 1312,
      "Ġenv": 1313,
      "Ġroom": 1314,
      "ts": 1315,
      "Ġspec": 1316,
      "Ġrese": 1317,
      "Ġmoment": 1318,
      "ĠChin": 1319,
      "reen": 1320,
      "Ġjob": 1321,
      "Ġcountries": 1322,
      "Ġsense": 1323,
      "Ġwithout": 1324,
      "Ġphot": 1325,
      "ices": 1326,
      "Ġmakes": 1327,
      "Ġprobably": 1328,
      "tty": 1329,
      "Ġsound": 1330,
      "Ġgovern": 1331,
      "Ġtalking": 1332,
      "ross": 1333,
      "imes": 1334,
      "Ġbusiness": 1335,
      "Ġconnect": 1336,
      "ĠTED": 1337,
      "Ġkeep": 1338,
      "Ġdollars": 1339,
      "Ġbeaut": 1340,
      "uring": 1341,
      "ĠWhat": 1342,
      "Ġwar": 1343,
      "Ġpie": 1344,
      "Ġtop": 1345,
      "Ġinteresting": 1346,
      "Ġtold": 1347,
      "Ġdist": 1348,
      "Ġresearch": 1349,
      "idd": 1350,
      "ior": 1351,
      "angu": 1352,
      "Ġmusic": 1353,
      "io": 1354,
      "Ġreason": 1355,
      "Ġdef": 1356,
      "Ġeduc": 1357,
      "Ġexperience": 1358,
      "Ġty": 1359,
      "Ġyoung": 1360,
      "Ġpretty": 1361,
      "Ġadd": 1362,
      "Ġenviron": 1363,
      "One": 1364,
      "Ġelse": 1365,
      "aps": 1366,
      "lobal": 1367,
      "Ġhist": 1368,
      "Ġscience": 1369,
      "Ġminut": 1370,
      "Ġsuch": 1371,
      "Ġ200": 1372,
      "Ġfamily": 1373,
      "Ġcur": 1374,
      "Ġcult": 1375,
      "Ġstand": 1376,
      "Ġphys": 1377,
      "My": 1378,
      "Ġopp": 1379,
      "Ġey": 1380,
      "Ġacross": 1381,
      "Ġwo": 1382,
      "ided": 1383,
      "Ġsimple": 1384,
      "Ġallow": 1385,
      "ately": 1386,
      "93": 1387,
      "Ġmen": 1388,
      "Ġdet": 1389,
      "Ġsaw": 1390,
      "Ġpolit": 1391,
      "ead": 1392,
      "Ġmatter": 1393,
      "ient": 1394,
      "Ġlangu": 1395,
      "ĠInd": 1396,
      "Ġcho": 1397,
      "Ġsign": 1398,
      "Ġcells": 1399,
      "Ġstuff": 1400,
      "91": 1401,
      "Ġhalf": 1402,
      "Ġasked": 1403,
      "Ġside": 1404,
      "Ġways": 1405,
      "Ġvide": 1406,
      "bo": 1407,
      "Ġeas": 1408,
      "Ġcase": 1409,
      "ember": 1410,
      "Ġmodel": 1411,
      "Ġliving": 1412,
      "Ġstop": 1413,
      "der": 1414,
      "Ġprot": 1415,
      "Ġmor": 1416,
      "Ġinside": 1417,
      "Ġweek": 1418,
      "Ġscient": 1419,
      "Ġanything": 1420,
      "ught": 1421,
      "Ġhour": 1422,
      "Ġhope": 1423,
      "ortun": 1424,
      "Ġlist": 1425,
      "Ġmem": 1426,
      "work": 1427,
      "gs": 1428,
      "ĠNew": 1429,
      "Ġbad": 1430,
      "ality": 1431,
      "llow": 1432,
      "Ġbuilding": 1433,
      "Ġhappens": 1434,
      "Ġbring": 1435,
      "Ġlater": 1436,
      "man": 1437,
      "ograph": 1438,
      "Ġgoes": 1439,
      "ince": 1440,
      "ream": 1441,
      "Ġwhile": 1442,
      "lf": 1443,
      "where": 1444,
      "Ġcoming": 1445,
      "Ġsuc": 1446,
      "end": 1447,
      "Ġrest": 1448,
      "ulation": 1449,
      "Ġchar": 1450,
      "Ġwrong": 1451,
      "Ġlab": 1452,
      "ime": 1453,
      "ĠHe": 1454,
      "Ġparticular": 1455,
      "most": 1456,
      "Ġmark": 1457,
      "Ġsingle": 1458,
      "Ġpain": 1459,
      "Ġglobal": 1460,
      "Ġgirl": 1461,
      "Ġref": 1462,
      "uge": 1463,
      "Ġbre": 1464,
      "Ġenvironment": 1465,
      "For": 1466,
      "Ġyet": 1467,
      "Ġair": 1468,
      "ilt": 1469,
      "Ġwatch": 1470,
      "Ġproblems": 1471,
      "Ġage": 1472,
      "iter": 1473,
      "She": 1474,
      "Ġequ": 1475,
      "Ġdays": 1476,
      "Ġfig": 1477,
      "ivid": 1478,
      "Ġwonder": 1479,
      "ott": 1480,
      "Ġprof": 1481,
      "Ġsit": 1482,
      "Ġmach": 1483,
      "arent": 1484,
      "orn": 1485,
      "Ġhaving": 1486,
      "Ġsomeone": 1487,
      "Ġheart": 1488,
      "Ġcomplete": 1489,
      "Ġmyself": 1490,
      "Ġthous": 1491,
      "Ġanswer": 1492,
      "Ġbegin": 1493,
      "less": 1494,
      "Ġseen": 1495,
      "Ġpublic": 1496,
      "Ġcontrol": 1497,
      "As": 1498,
      "Ġwords": 1499,
      "Ġoften": 1500,
      "aterial": 1501,
      "ash": 1502,
      "Ġbillion": 1503,
      "Ġeffect": 1504,
      "Ġloc": 1505,
      "Ġsix": 1506,
      "Ġamaz": 1507,
      "ape": 1508,
      "Ġlevel": 1509,
      "Ġtest": 1510,
      "Ġcertain": 1511,
      "ization": 1512,
      "Ġpicture": 1513,
      "ots": 1514,
      "Ġsaying": 1515,
      "Ġcity": 1516,
      "eng": 1517,
      "Ġwithin": 1518,
      "Ġhear": 1519,
      "ike": 1520,
      "Ġself": 1521,
      "Ġkill": 1522,
      "Ġcommunity": 1523,
      "Ġlooked": 1524,
      "Ġideas": 1525,
      "no": 1526,
      "Ġrob": 1527,
      "Ġboth": 1528,
      "Ġsure": 1529,
      "itive": 1530,
      "Ġpossible": 1531,
      "med": 1532,
      "Ġwhether": 1533,
      "Ġonce": 1534,
      "Ġfore": 1535,
      "ters": 1536,
      "Ġproduct": 1537,
      "Ġdise": 1538,
      "lish": 1539,
      "Ġnothing": 1540,
      "Ġdev": 1541,
      "Ġcomputer": 1542,
      "ling": 1543,
      "arth": 1544,
      "Ġlanguage": 1545,
      "side": 1546,
      "ants": 1547,
      "iverse": 1548,
      "Ġexact": 1549,
      "Ġvideo": 1550,
      "up": 1551,
      "Ġtrue": 1552,
      "Ġmaterial": 1553,
      "Ġclass": 1554,
      "Ġpos": 1555,
      "ĠIs": 1556,
      "Let": 1557,
      "rem": 1558,
      "Ġalmost": 1559,
      "Ġindivid": 1560,
      "Ġ30": 1561,
      "Ġunt": 1562,
      "unch": 1563,
      "ee": 1564,
      "Ġfil": 1565,
      "Ġnight": 1566,
      "Ġentire": 1567,
      "Ġnews": 1568,
      "Ġblo": 1569,
      "aper": 1570,
      "Ġche": 1571,
      "Ġworks": 1572,
      "ĠAfrica": 1573,
      "gram": 1574,
      "Here": 1575,
      "Ġmag": 1576,
      "Ġcond": 1577,
      "Ġamazing": 1578,
      "Ġsw": 1579,
      "ury": 1580,
      "Ġremember": 1581,
      "pect": 1582,
      "ready": 1583,
      "Ġface": 1584,
      "Ġiss": 1585,
      "Ġbeautif": 1586,
      "ering": 1587,
      "rop": 1588,
      "undred": 1589,
      "ases": 1590,
      "Ġincred": 1591,
      "ware": 1592,
      "ene": 1593,
      "Ġchall": 1594,
      "Ġpar": 1595,
      "Ġindividual": 1596,
      "Ġheard": 1597,
      "iddle": 1598,
      "uck": 1599,
      "Ġdisco": 1600,
      "Ġbasically": 1601,
      "ĠEarth": 1602,
      "Ġimagine": 1603,
      "de": 1604,
      "Ġdecided": 1605,
      "Ġcost": 1606,
      "Ġexc": 1607,
      "Ġspend": 1608,
      "Ġtreat": 1609,
      "ex": 1610,
      "ely": 1611,
      "Ġgl": 1612,
      "Ġalready": 1613,
      "Ġaff": 1614,
      "Ġfull": 1615,
      "Ġfriends": 1616,
      "get": 1617,
      "Ġass": 1618,
      "Ġlooks": 1619,
      "ock": 1620,
      "Ġtool": 1621,
      "ustr": 1622,
      "ages": 1623,
      "ĠIntern": 1624,
      "Ġhistory": 1625,
      "Ġcontin": 1626,
      "Ġguy": 1627,
      "ired": 1628,
      "Ġhundred": 1629,
      "Ġpast": 1630,
      "imate": 1631,
      "Ġ50": 1632,
      "ĠWell": 1633,
      "Ġret": 1634,
      "ives": 1635,
      "Ġwa": 1636,
      "Ġexperim": 1637,
      "Ġsuccess": 1638,
      "Ġdire": 1639,
      "ny": 1640,
      "Ġnet": 1641,
      "Ġbuilt": 1642,
      "ken": 1643,
      "Ġstories": 1644,
      "Ġadv": 1645,
      "ĠUnited": 1646,
      "âĢ": 1647,
      "ĠâĢ": 1648,
      "osed": 1649,
      "Ġ15": 1650,
      "Ġcollect": 1651,
      "Ġmonths": 1652,
      "Ġpay": 1653,
      "Ġwasn": 1654,
      "Ġfollow": 1655,
      "Ġfigure": 1656,
      "vious": 1657,
      "ield": 1658,
      "Ġeducation": 1659,
      "Ġbeautiful": 1660,
      "Ġstate": 1661,
      "land": 1662,
      "atic": 1663,
      "Ġfree": 1664,
      "bs": 1665,
      "to": 1666,
      "Ġsec": 1667,
      "Ġorder": 1668,
      "Ġcouple": 1669,
      "Ġgovernment": 1670,
      "Ġpiece": 1671,
      "Ġhuge": 1672,
      "Ġresult": 1673,
      "Ġlarge": 1674,
      "Ġ6": 1675,
      "Ġca": 1676,
      "cing": 1677,
      "Ġbecame": 1678,
      "Ġtrain": 1679,
      "Ġ9": 1680,
      "ional": 1681,
      "Ġminutes": 1682,
      "Ġprogram": 1683,
      "Ġthough": 1684,
      "Ġsociety": 1685,
      "Ġdeep": 1686,
      "Ġtaking": 1687,
      "bers": 1688,
      "Ġwoman": 1689,
      "ret": 1690,
      "ivity": 1691,
      "ĠHow": 1692,
      "Ġuntil": 1693,
      "ising": 1694,
      "Ġconst": 1695,
      "Ġeverybody": 1696,
      "ĠThis": 1697,
      "Ġengine": 1698,
      "br": 1699,
      "Ġuniverse": 1700,
      "Ġ7": 1701,
      "Ġview": 1702,
      "ĠThey": 1703,
      "ared": 1704,
      "Ġ8": 1705,
      "ined": 1706,
      "ush": 1707,
      "ames": 1708,
      "Ġthemselves": 1709,
      "Ġquick": 1710,
      "outh": 1711,
      "ision": 1712,
      "etic": 1713,
      "Ġmust": 1714,
      "Ġlearned": 1715,
      "Ġincre": 1716,
      "Ġplanet": 1717,
      "ians": 1718,
      "omes": 1719,
      "Ġfront": 1720,
      "Ġjo": 1721,
      "Ġmil": 1722,
      "Ġdra": 1723,
      "Ġappro": 1724,
      "Ġteam": 1725,
      "ĠStates": 1726,
      "Ġexactly": 1727,
      "ental": 1728,
      "Ġ100": 1729,
      "ĠInternet": 1730,
      "aking": 1731,
      "aster": 1732,
      "Ġfocus": 1733,
      "Ġcomplex": 1734,
      "ĠâĢĶ": 1735,
      "Ġcreated": 1736,
      "Ġdi": 1737,
      "Ġgets": 1738,
      "line": 1739,
      "Ġhouse": 1740,
      "Ġspeak": 1741,
      "Ġcompletely": 1742,
      "sy": 1743,
      "Ġinno": 1744,
      "Ġcancer": 1745,
      "Ġsex": 1746,
      "Ġfund": 1747,
      "Ġknew": 1748,
      "Ġbehav": 1749,
      "Ġhappening": 1750,
      "Ġstudy": 1751,
      "Ġvir": 1752,
      "Ġhours": 1753,
      "Ġstruct": 1754,
      "thers": 1755,
      "Ġsomebody": 1756,
      "Ġquestions": 1757,
      "ats": 1758,
      "Ġname": 1759,
      "dd": 1760,
      "All": 1761,
      "ane": 1762,
      "cul": 1763,
      "Ġvo": 1764,
      "ien": 1765,
      "Ġprov": 1766,
      "icult": 1767,
      "Ġplaces": 1768,
      "..": 1769,
      "Ġmeet": 1770,
      "Ġlaw": 1771,
      "eah": 1772,
      "Ġisn": 1773,
      "ability": 1774,
      "Ġnature": 1775,
      "Ġkinds": 1776,
      "Ġitself": 1777,
      "Ġagainst": 1778,
      "cle": 1779,
      "ron": 1780,
      "Ġbab": 1781,
      "Ġabs": 1782,
      "Ġeveryone": 1783,
      "Ġcra": 1784,
      "Ġshows": 1785,
      "Ġve": 1786,
      "Ġourselves": 1787,
      "Ġdifference": 1788,
      "Ġemp": 1789,
      "ĠChina": 1790,
      "gest": 1791,
      "Ġav": 1792,
      "Ġgame": 1793,
      "iol": 1794,
      "ĠThat": 1795,
      "Ġmess": 1796,
      "ones": 1797,
      "Ġones": 1798,
      "itting": 1799,
      "Ġlisten": 1800,
      "Ġdep": 1801,
      "Ġsince": 1802,
      "Then": 1803,
      "iqu": 1804,
      "Ġopportun": 1805,
      "ogn": 1806,
      "Ġothers": 1807,
      "Ġstudents": 1808,
      "aw": 1809,
      "Ġ...": 1810,
      "row": 1811,
      "Ġmother": 1812,
      "Ġparent": 1813,
      "Ġworked": 1814,
      "Ġobject": 1815,
      "Ġclear": 1816,
      "vation": 1817,
      "Ġexpect": 1818,
      "Ġris": 1819,
      "Ġdifficult": 1820,
      "Ġrelations": 1821,
      "Ġcompany": 1822,
      "Ġgave": 1823,
      "Ġsometimes": 1824,
      "Ġclose": 1825,
      "asure": 1826,
      "Ġexplain": 1827,
      "Ġhold": 1828,
      "ming": 1829,
      "att": 1830,
      "ute": 1831,
      "istic": 1832,
      "olved": 1833,
      "ern": 1834,
      "ĠNo": 1835,
      "Ġinvest": 1836,
      "Ġdisease": 1837,
      "Ġcouldn": 1838,
      "ients": 1839,
      "lud": 1840,
      "ator": 1841,
      "Ġline": 1842,
      "urs": 1843,
      "Ġrather": 1844,
      "acter": 1845,
      "Ġrad": 1846,
      "Ġthird": 1847,
      "Ġwon": 1848,
      "Ġfail": 1849,
      "Ġda": 1850,
      "Ġdru": 1851,
      "Ġaud": 1852,
      "ature": 1853,
      "Ġneur": 1854,
      "haps": 1855,
      "Ġmass": 1856,
      "Ġsurpr": 1857,
      "Ġinteract": 1858,
      "ĠAmerican": 1859,
      "Ġthousands": 1860,
      "ination": 1861,
      "Ġdeal": 1862,
      "ctor": 1863,
      "ĠAr": 1864,
      "Ġimpro": 1865,
      "Ġoutside": 1866,
      "Ġsimp": 1867,
      "Ġnetwork": 1868,
      "cc": 1869,
      "Ġmiss": 1870,
      "Ġhappy": 1871,
      "ibly": 1872,
      "Ġbott": 1873,
      "Ġnorm": 1874,
      "ential": 1875,
      "Ġchanged": 1876,
      "Ġamount": 1877,
      "Ġtyp": 1878,
      "Ġill": 1879,
      "Ġwind": 1880,
      "Ġpot": 1881,
      "Ġland": 1882,
      "ider": 1883,
      "Ġlearning": 1884,
      "omet": 1885,
      "Ġstep": 1886,
      "illions": 1887,
      "Ġrev": 1888,
      "iversity": 1889,
      "ks": 1890,
      "aring": 1891,
      "sych": 1892,
      "Ġliter": 1893,
      "ĠEng": 1894,
      "Ġpowerful": 1895,
      "Ġalong": 1896,
      "Ġarch": 1897,
      "Ġemot": 1898,
      "ĠAmerica": 1899,
      "oh": 1900,
      "Ġident": 1901,
      "Ġtakes": 1902,
      "ĠIndia": 1903,
      "Ġcir": 1904,
      "Ġcoll": 1905,
      "Ġmarket": 1906,
      "Ġoil": 1907,
      "Ġdel": 1908,
      "Ġearly": 1909,
      "ĠBut": 1910,
      "ĠBr": 1911,
      "Ġsystems": 1912,
      "Ġpopulation": 1913,
      "ĠGod": 1914,
      "not": 1915,
      "ump": 1916,
      "elt": 1917,
      "Ġbehavior": 1918,
      "Ġdeath": 1919,
      "ĠThank": 1920,
      "ĠYork": 1921,
      "Ġspecies": 1922,
      "Ġz": 1923,
      "Ġsens": 1924,
      "Ġduring": 1925,
      "Ġleast": 1926,
      "Ġblack": 1927,
      "Every": 1928,
      "Ġmic": 1929,
      "Ġjour": 1930,
      "Ġinstead": 1931,
      "Ġturns": 1932,
      "Ġpresent": 1933,
      "Ġmachine": 1934,
      "Ġpred": 1935,
      "Ġfear": 1936,
      "Ġshort": 1937,
      "Ġele": 1938,
      "ĠEur": 1939,
      "Ġguys": 1940,
      "Ġculture": 1941,
      "Ġfly": 1942,
      "Ġlots": 1943,
      "ift": 1944,
      "Ġrealized": 1945,
      "Ġanimals": 1946,
      "Ġfre": 1947,
      "Ġstre": 1948,
      "wards": 1949,
      "Ġfall": 1950,
      "ased": 1951,
      "Ġgrand": 1952,
      "Ġextra": 1953,
      "Ġeasy": 1954,
      "vered": 1955,
      "Ġdemoc": 1956,
      "fect": 1957,
      "Ġmiddle": 1958,
      "Ġdream": 1959,
      "Ġeat": 1960,
      "Ġmot": 1961,
      "ither": 1962,
      "Ġoper": 1963,
      "Ġgreen": 1964,
      "Ġgiven": 1965,
      "ran": 1966,
      "Ġpaper": 1967,
      "Ġfather": 1968,
      "Ġhands": 1969,
      "Ġyourself": 1970,
      "Ġprotect": 1971,
      "Ġes": 1972,
      "Ġdig": 1973,
      "Ġrecent": 1974,
      "ully": 1975,
      "Ġimage": 1976,
      "Ġbehind": 1977,
      "astic": 1978,
      "Ġneeded": 1979,
      "Ġvar": 1980,
      "ony": 1981,
      "orth": 1982,
      "Ġsaf": 1983,
      "Ġarg": 1984,
      "Ġnatural": 1985,
      "Or": 1986,
      "ove": 1987,
      "Ġexist": 1988,
      "Ġneeds": 1989,
      "ption": 1990,
      "Ġmole": 1991,
      "jor": 1992,
      "Ġcut": 1993,
      "verage": 1994,
      "ides": 1995,
      "Ġrelationship": 1996,
      "Ġsimply": 1997,
      "ery": 1998,
      "leep": 1999,
      "Ġpersonal": 2000,
      "ium": 2001,
      "Ġmath": 2002,
      "Ġant": 2003,
      "Ġleave": 2004,
      "ĠWh": 2005,
      "Ġfight": 2006,
      "Ġnon": 2007,
      "Ġseven": 2008,
      "Ġcompanies": 2009,
      "Ġcolle": 2010,
      "oes": 2011,
      "Ġpsych": 2012,
      "Ġeyes": 2013,
      "Ġlocal": 2014,
      "era": 2015,
      "face": 2016,
      "inary": 2017,
      "Ġstay": 2018,
      "Ġfinally": 2019,
      "Ġlow": 2020,
      "Ġviol": 2021,
      "year": 2022,
      "Ġpract": 2023,
      "Ġfield": 2024,
      "ĠSh": 2025,
      "Ġfelt": 2026,
      "ĠAl": 2027,
      "ĠGo": 2028,
      "ledge": 2029,
      "Ġhy": 2030,
      "Ġred": 2031,
      "Ġtem": 2032,
      "room": 2033,
      "Ġcentury": 2034,
      "ode": 2035,
      "Ġ12": 2036,
      "Ġfamil": 2037,
      "Ġeconomic": 2038,
      "Ġbro": 2039,
      "Ġperform": 2040,
      "Ġtrad": 2041,
      "itions": 2042,
      "oph": 2043,
      "Ġaccess": 2044,
      "Ġcommunic": 2045,
      "Ġsupport": 2046,
      "rew": 2047,
      "ows": 2048,
      "Ġmajor": 2049,
      "els": 2050,
      "ived": 2051,
      "ney": 2052,
      "Ġserv": 2053,
      "Ġpolitical": 2054,
      "ĠEurope": 2055,
      "vent": 2056,
      "ison": 2057,
      "Ġarea": 2058,
      "Ġturned": 2059,
      "Ġmedia": 2060,
      "Ġterr": 2061,
      "Ġvalue": 2062,
      "Ġlim": 2063,
      "Ġcannot": 2064,
      "Ġsuper": 2065,
      "Ġtaken": 2066,
      "ource": 2067,
      "avor": 2068,
      "Ġobvious": 2069,
      "Ġfriend": 2070,
      "Ġspent": 2071,
      "cious": 2072,
      "ially": 2073,
      "osp": 2074,
      "rodu": 2075,
      "ological": 2076,
      "Ġemb": 2077,
      "Ġcommon": 2078,
      "Ġbeginning": 2079,
      "eople": 2080,
      "ipp": 2081,
      "Ġsun": 2082,
      "Ġple": 2083,
      "Ġseeing": 2084,
      "Ġrecord": 2085,
      "Ġtre": 2086,
      "Ġ40": 2087,
      "Ġbreak": 2088,
      "Some": 2089,
      "Ġperhaps": 2090,
      "Ġpattern": 2091,
      "Ġleg": 2092,
      "Ġkey": 2093,
      "Ġsent": 2094,
      "Ġchem": 2095,
      "Ġstrong": 2096,
      "unt": 2097,
      "idence": 2098,
      "Ġmoving": 2099,
      "ills": 2100,
      "rought": 2101,
      "Ġextrem": 2102,
      "ook": 2103,
      "Ġlonger": 2104,
      "Ġleaders": 2105,
      "ument": 2106,
      "No": 2107,
      "Ġeight": 2108,
      "iving": 2109,
      "Ġparts": 2110,
      "NA": 2111,
      "Ġsurv": 2112,
      "cr": 2113,
      "fully": 2114,
      "Ġphotograph": 2115,
      "Ġwonderful": 2116,
      "Ġ18": 2117,
      "Ġperfect": 2118,
      "inal": 2119,
      "Ġreach": 2120,
      "Ġquickly": 2121,
      "Ġmult": 2122,
      "Ġinclud": 2123,
      "gen": 2124,
      "itch": 2125,
      "ule": 2126,
      "ĠWhy": 2127,
      "Ġbegan": 2128,
      "Ġgrowth": 2129,
      "Ġsize": 2130,
      "Ġground": 2131,
      "Ġdraw": 2132,
      "ĠOh": 2133,
      "Ġcal": 2134,
      "ources": 2135,
      "Ġevent": 2136,
      "Ġabsolut": 2137,
      "lt": 2138,
      "hood": 2139,
      "mb": 2140,
      "Ġparents": 2141,
      "Ġlost": 2142,
      "Ġrequ": 2143,
      "Ġcool": 2144,
      "Ġexperiment": 2145,
      "crib": 2146,
      "Ġspecial": 2147,
      "Ġterms": 2148,
      "ole": 2149,
      "Ġsqu": 2150,
      "uth": 2151,
      "Ġfilm": 2152,
      "port": 2153,
      "Ġess": 2154,
      "Ġenc": 2155,
      "Ġcam": 2156,
      "Ġtot": 2157,
      "ung": 2158,
      "At": 2159,
      "Ġpick": 2160,
      "Ġbox": 2161,
      "itect": 2162,
      "Ġwin": 2163,
      "Ġmorning": 2164,
      "Ġcy": 2165,
      "Ġtravel": 2166,
      "Ġimpact": 2167,
      "Ġwrite": 2168,
      "Ġimages": 2169,
      "Ġrepres": 2170,
      "rom": 2171,
      "Ġcities": 2172,
      "Ġsend": 2173,
      "Ġnear": 2174,
      "ustain": 2175,
      "Ġtried": 2176,
      "Ġrobot": 2177,
      "bor": 2178,
      "Ġvers": 2179,
      "Ġknowledge": 2180,
      "by": 2181,
      "ised": 2182,
      "ler": 2183,
      "oy": 2184,
      "Ġbuy": 2185,
      "On": 2186,
      "Ġoce": 2187,
      "Ġocc": 2188,
      "Ġge": 2189,
      "Ġanal": 2190,
      "ilar": 2191,
      "Ġdead": 2192,
      "oud": 2193,
      "Ġinsp": 2194,
      "rent": 2195,
      "Ġciv": 2196,
      "Ġbene": 2197,
      "Ġspread": 2198,
      "cially": 2199,
      "Ġrecogn": 2200,
      "Ġweeks": 2201,
      "ively": 2202,
      "ribut": 2203,
      "Ġapproach": 2204,
      "Ġsitu": 2205,
      "Ġrisk": 2206,
      "Ġdirect": 2207,
      "Ġopportunity": 2208,
      "eed": 2209,
      "sh": 2210,
      "Ġrele": 2211,
      "acy": 2212,
      "Ġpoor": 2213,
      "ators": 2214,
      "let": 2215,
      "Ġmeasure": 2216,
      "Ġconv": 2217,
      "Ġfeed": 2218,
      "Ġconsum": 2219,
      "Ġarchitect": 2220,
      "Ġaverage": 2221,
      "Ġsum": 2222,
      "Ġsitting": 2223,
      "Ġdest": 2224,
      "Ġwouldn": 2225,
      "ards": 2226,
      "zy": 2227,
      "Ġsleep": 2228,
      "Ġreality": 2229,
      "Ġfeeling": 2230,
      "Ġattention": 2231,
      "cl": 2232,
      "Ġcamp": 2233,
      "ales": 2234,
      "anger": 2235,
      "ression": 2236,
      "Ġmeaning": 2237,
      "Ġobs": 2238,
      "Ġcaus": 2239,
      "itut": 2240,
      "Ġbrought": 2241,
      "Ġflo": 2242,
      "Ġdie": 2243,
      "Ġwhatever": 2244,
      "Ġauth": 2245,
      "Ġeither": 2246,
      "izing": 2247,
      "Ġap": 2248,
      "erm": 2249,
      "ĠEnglish": 2250,
      "ored": 2251,
      "ateg": 2252,
      "aged": 2253,
      "ibility": 2254,
      "iction": 2255,
      "Ġchanges": 2256,
      "Ġborn": 2257,
      "enge": 2258,
      "Ġfast": 2259,
      "Ġcomb": 2260,
      "Ġeconomy": 2261,
      "Ġvoice": 2262,
      "cks": 2263,
      "Ġgiving": 2264,
      "Ġrespons": 2265,
      "Ġstructure": 2266,
      "dden": 2267,
      "com": 2268,
      "iny": 2269,
      "apt": 2270,
      "ances": 2271,
      "Ġsudden": 2272,
      "ggest": 2273,
      "Ġprofess": 2274,
      "Ġopt": 2275,
      "orld": 2276,
      "Ġstage": 2277,
      "Ġorig": 2278,
      "Ġsuggest": 2279,
      "Ġbased": 2280,
      "Ġinterested": 2281,
      "Ġgrowing": 2282,
      "Ġphysical": 2283,
      "Okay": 2284,
      "Ġyes": 2285,
      "Ġste": 2286,
      "ĠTh": 2287,
      "ĠDNA": 2288,
      "Ġtools": 2289,
      "ext": 2290,
      "ouch": 2291,
      "Ġgone": 2292,
      "Ġknown": 2293,
      "Ġroad": 2294,
      "Ġice": 2295,
      "Ġfavor": 2296,
      "Ġability": 2297,
      "Ġseems": 2298,
      "Ġindust": 2299,
      "Ġmodern": 2300,
      "Ġaffect": 2301,
      "Ġaw": 2302,
      "Ġhosp": 2303,
      "Ġdeveloped": 2304,
      "Ġbooks": 2305,
      "Ġanimal": 2306,
      "Ġcirc": 2307,
      "xy": 2308,
      "Ġfac": 2309,
      "Ġ25": 2310,
      "racy": 2311,
      "Ġrealize": 2312,
      "Ġdark": 2313,
      "Ġstat": 2314,
      "Ġsoft": 2315,
      "ĠAs": 2316,
      "Ġpriv": 2317,
      "Ġsmart": 2318,
      "loy": 2319,
      "Ġblue": 2320,
      "Ġpress": 2321,
      "Ġfire": 2322,
      "ann": 2323,
      "To": 2324,
      "Ġvac": 2325,
      "Ġeye": 2326,
      "Ġ/": 2327,
      "Ġfoot": 2328,
      "Ġinvent": 2329,
      "Ġgirls": 2330,
      "An": 2331,
      "ug": 2332,
      "Ġredu": 2333,
      "urb": 2334,
      "Ġunderstanding": 2335,
      "Ġnumbers": 2336,
      "Ġscientists": 2337,
      "People": 2338,
      "ev": 2339,
      "Ġsustain": 2340,
      "Ġhar": 2341,
      "Ġpull": 2342,
      "asc": 2343,
      "Ġnice": 2344,
      "Ġneigh": 2345,
      "Ġtext": 2346,
      "Ġcrit": 2347,
      "Ġincredible": 2348,
      "Ġchallenge": 2349,
      "ral": 2350,
      "ains": 2351,
      "Ġthank": 2352,
      "Ġdescrib": 2353,
      "Ġwrote": 2354,
      "amples": 2355,
      "Ġissue": 2356,
      "lict": 2357,
      "of": 2358,
      "Ġpath": 2359,
      "Ġdeveloping": 2360,
      "ged": 2361,
      "Ġmain": 2362,
      "ai": 2363,
      "ites": 2364,
      "Ġsave": 2365,
      "Ġclimate": 2366,
      "Ġphone": 2367,
      "Ġcreating": 2368,
      "Ġrunning": 2369,
      "Our": 2370,
      "Ġstarting": 2371,
      "ĠChr": 2372,
      "ĠChinese": 2373,
      "Ġaudience": 2374,
      "Ġhor": 2375,
      "Ġpur": 2376,
      "Ġpoll": 2377,
      "Ġhumans": 2378,
      "Ġbottom": 2379,
      "Ġsolution": 2380,
      "chie": 2381,
      "Ġaren": 2382,
      "Ġalone": 2383,
      "Ġtradition": 2384,
      "Ġcivil": 2385,
      "oon": 2386,
      "Ġmillions": 2387,
      "bon": 2388,
      "ensive": 2389,
      "Ġpost": 2390,
      "Ġfem": 2391,
      "vert": 2392,
      "Ġconvers": 2393,
      "istan": 2394,
      "Ġknows": 2395,
      "ĠCan": 2396,
      "Ġcolor": 2397,
      "Ġhon": 2398,
      "Ġhot": 2399,
      "Ġintern": 2400,
      "Ġwriting": 2401,
      "pecially": 2402,
      "Ġplaying": 2403,
      "Ġbenef": 2404,
      "ĠIf": 2405,
      "Ġscale": 2406,
      "gress": 2407,
      "Ġwall": 2408,
      "Ġsong": 2409,
      "Ġhundreds": 2410,
      "ister": 2411,
      "omen": 2412,
      "Ġtele": 2413,
      "Ġanyone": 2414,
      "Ġblood": 2415,
      "Ġliterally": 2416,
      "Ġseem": 2417,
      "Ġrelig": 2418,
      "amed": 2419,
      "Ġtelling": 2420,
      "Ġareas": 2421,
      "Ġrul": 2422,
      "Ġexperien": 2423,
      "Ġslow": 2424,
      "Ġonline": 2425,
      "Ġmov": 2426,
      "ik": 2427,
      "par": 2428,
      "Ġdevelopment": 2429,
      "Ġgives": 2430,
      "lu": 2431,
      "icy": 2432,
      "Ġasking": 2433,
      "Ġworth": 2434,
      "Ġconcept": 2435,
      "Ġvill": 2436,
      "ĠSouth": 2437,
      "Ġtruth": 2438,
      "Ġguess": 2439,
      "Ġinnovation": 2440,
      "Ġbaby": 2441,
      "Ġsoon": 2442,
      "Ġrate": 2443,
      "ĠThere": 2444,
      "erence": 2445,
      "Ġdeg": 2446,
      "Ġpatients": 2447,
      "ton": 2448,
      "Ġforward": 2449,
      "Ġpeace": 2450,
      "Ġsolve": 2451,
      "Ġpredict": 2452,
      "ĠZ": 2453,
      "Ġsil": 2454,
      "Ġbra": 2455,
      "Ġprop": 2456,
      "Ġtransform": 2457,
      "Ġtype": 2458,
      "Ġlif": 2459,
      "Ġprom": 2460,
      "ĠWorld": 2461,
      "Ġtechnolog": 2462,
      "iet": 2463,
      "Ġdepe": 2464,
      "Ġvol": 2465,
      "Ġplant": 2466,
      "Ġnormal": 2467,
      "por": 2468,
      "Ġwhite": 2469,
      "Ġarr": 2470,
      "Ġpatient": 2471,
      "Ġdiscovered": 2472,
      "irth": 2473,
      "Ġshowed": 2474,
      "oll": 2475,
      "Ġtheory": 2476,
      "Ġforce": 2477,
      "Ġimm": 2478,
      "Ġsuff": 2479,
      "ique": 2480,
      "ified": 2481,
      "Ġtrust": 2482,
      "Ġfeet": 2483,
      "ellig": 2484,
      "Ġavail": 2485,
      "Ġespecially": 2486,
      "Ġer": 2487,
      "Ġcop": 2488,
      "Ġfa": 2489,
      "usion": 2490,
      "Ġproduce": 2491,
      "Ġcenter": 2492,
      "Ġsounds": 2493,
      "book": 2494,
      "Ġrepresent": 2495,
      "asing": 2496,
      "erv": 2497,
      "entially": 2498,
      "Ġpictures": 2499,
      "Ġcurrent": 2500,
      "Ġindustry": 2501,
      "Ġast": 2502,
      "ĠAn": 2503,
      "Ġgeneration": 2504,
      "Ġsimilar": 2505,
      "Ġmovement": 2506,
      "Ġsubject": 2507,
      "Ġchalleng": 2508,
      "Ġbed": 2509,
      "Ġproper": 2510,
      "go": 2511,
      "yond": 2512,
      "Ġmar": 2513,
      "Ġstra": 2514,
      "Ġmaterials": 2515,
      "Ġincredibly": 2516,
      "Ġfundam": 2517,
      "Ġcars": 2518,
      "ley": 2519,
      "ify": 2520,
      "Ġtalked": 2521,
      "Ġsurface": 2522,
      "Not": 2523,
      "iod": 2524,
      "Ġtouch": 2525,
      "Ġbur": 2526,
      "Ġchanging": 2527,
      "Ġpotential": 2528,
      "Ġocean": 2529,
      "Is": 2530,
      "Ġchance": 2531,
      "Ġcompet": 2532,
      "Ġserious": 2533,
      "Ġabsolutely": 2534,
      "iant": 2535,
      "pre": 2536,
      "Ġgames": 2537,
      "chan": 2538,
      "ĠLe": 2539,
      "Ġteachers": 2540,
      "imens": 2541,
      "Ġresources": 2542,
      "Ġokay": 2543,
      "ogle": 2544,
      "abor": 2545,
      "Ġinvolved": 2546,
      "Ġachie": 2547,
      "osing": 2548,
      "Ġsell": 2549,
      "Ġconflict": 2550,
      "Ġhaven": 2551,
      "Ġtrack": 2552,
      "ina": 2553,
      "ences": 2554,
      "Ġrece": 2555,
      "assion": 2556,
      "Ġissues": 2557,
      "Ġjourney": 2558,
      "Ġtable": 2559,
      "Ġperiod": 2560,
      "ĠPh": 2561,
      "Ġamong": 2562,
      "Ġdefin": 2563,
      "isions": 2564,
      "Ġmarr": 2565,
      "Ġdanger": 2566,
      "ilities": 2567,
      "Ġevolution": 2568,
      "yr": 2569,
      "Ġtiny": 2570,
      "Ġbeyond": 2571,
      "Ġult": 2572,
      "Ġshape": 2573,
      "Ġhappiness": 2574,
      "Ġson": 2575,
      "Ġball": 2576,
      "Ġbirth": 2577,
      "Ġschools": 2578,
      "Ġdetail": 2579,
      "Ġmessage": 2580,
      "ohn": 2581,
      "Ġmicro": 2582,
      "like": 2583,
      "Ġintellig": 2584,
      "Ġcarbon": 2585,
      "Ġvisual": 2586,
      "Ġgroups": 2587,
      "bit": 2588,
      "Ġsn": 2589,
      "Ġsat": 2590,
      "Ġhit": 2591,
      "oring": 2592,
      "Ġstru": 2593,
      "ival": 2594,
      "Ġfunction": 2595,
      "Ġavailable": 2596,
      "Ġest": 2597,
      "Ġfur": 2598,
      "ades": 2599,
      "Ġprin": 2600,
      "Ġgeneral": 2601,
      "Ġstreet": 2602,
      "Ġsituation": 2603,
      "Ġtechnologies": 2604,
      "Ġlay": 2605,
      "Ġnecess": 2606,
      "ĠMy": 2607,
      "Ġflow": 2608,
      "Ġpassion": 2609,
      "Ġchoice": 2610,
      "Ġdemocracy": 2611,
      "Ġsold": 2612,
      "ĠBe": 2613,
      "Ġmob": 2614,
      "Ġrevolution": 2615,
      "Just": 2616,
      "light": 2617,
      "ishing": 2618,
      "Ġdou": 2619,
      "Ġtend": 2620,
      "Ġboy": 2621,
      "Ġvision": 2622,
      "Ġwalking": 2623,
      "Ġrules": 2624,
      "oid": 2625,
      "Ġwish": 2626,
      "Ġbreat": 2627,
      "Ġprojects": 2628,
      "Ġelectric": 2629,
      "Ġdevice": 2630,
      "Ġrecently": 2631,
      "Ġcause": 2632,
      "Ġ11": 2633,
      "ĠFr": 2634,
      "head": 2635,
      "Ġdrive": 2636,
      "Ġ80": 2637,
      "Ġmiles": 2638,
      "iar": 2639,
      "put": 2640,
      "Ġreact": 2641,
      "Ġrich": 2642,
      "Ġflu": 2643,
      "ency": 2644,
      "odies": 2645,
      "Ġbecomes": 2646,
      "Ġmedic": 2647,
      "Ġviolence": 2648,
      "By": 2649,
      "apan": 2650,
      "edom": 2651,
      "Ġlikely": 2652,
      "Ġputting": 2653,
      "Ġattack": 2654,
      "Ġindividuals": 2655,
      "Ġ60": 2656,
      "Ġdigital": 2657,
      "osph": 2658,
      "Ġfair": 2659,
      "Ġneg": 2660,
      "Ġlea": 2661,
      "Ġmeth": 2662,
      "Ġmemory": 2663,
      "Ġmap": 2664,
      "Ġfu": 2665,
      "Ġdied": 2666,
      "arily": 2667,
      "str": 2668,
      "Ġcross": 2669,
      "Ġaccount": 2670,
      "Do": 2671,
      "uit": 2672,
      "Ġactiv": 2673,
      "Ġtells": 2674,
      "Ġoffice": 2675,
      "ressed": 2676,
      "Ch": 2677,
      "Ġsea": 2678,
      "Ġbigger": 2679,
      "cuss": 2680,
      "ips": 2681,
      "Ġarm": 2682,
      "ned": 2683,
      "uly": 2684,
      "Ġexcept": 2685,
      "ĠGoogle": 2686,
      "fort": 2687,
      "eter": 2688,
      "aybe": 2689,
      "Ġcreative": 2690,
      "Ġclean": 2691,
      "Ġcit": 2692,
      "Ġdiv": 2693,
      "Ġmechan": 2694,
      "cient": 2695,
      "Ġevidence": 2696,
      "ma": 2697,
      "yn": 2698,
      "rage": 2699,
      "Ġcompassion": 2700,
      "ĠJapan": 2701,
      "Ġdesigned": 2702,
      "Ġreasons": 2703,
      "ges": 2704,
      "ires": 2705,
      "Ġce": 2706,
      "Ġsearch": 2707,
      "ously": 2708,
      "Ġmedical": 2709,
      "Ġresults": 2710,
      "more": 2711,
      "ted": 2712,
      "Ġbird": 2713,
      "ask": 2714,
      "Ġaction": 2715,
      "Ġeverywhere": 2716,
      "ĠNorth": 2717,
      "ĠWest": 2718,
      "Ġimprove": 2719,
      "St": 2720,
      "oke": 2721,
      "Ġtar": 2722,
      "Ġtowards": 2723,
      "Ġnine": 2724,
      "Ġcrazy": 2725,
      "With": 2726,
      "pan": 2727,
      "Ġaware": 2728,
      "Ġstore": 2729,
      "Ġlived": 2730,
      "une": 2731,
      "Ġblind": 2732,
      "Ġcris": 2733,
      "Ġdrug": 2734,
      "Ġrain": 2735,
      "antly": 2736,
      "Ġunf": 2737,
      "Ġemerg": 2738,
      "Ġready": 2739,
      "Ġteacher": 2740,
      "Ġlose": 2741,
      "Ġwaste": 2742,
      "Ġbasic": 2743,
      "Ġconscious": 2744,
      "Ġparticip": 2745,
      "medi": 2746,
      "Ġfavorite": 2747,
      "Ġsoftware": 2748,
      "IV": 2749,
      "onse": 2750,
      "Ġled": 2751,
      "agn": 2752,
      "Ġprim": 2753,
      "Ġphil": 2754,
      "ished": 2755,
      "Ġneighbor": 2756,
      "oms": 2757,
      "Ġtaught": 2758,
      "Ġstarts": 2759,
      "Ġbiggest": 2760,
      "Ġinstitut": 2761,
      "Ġextraord": 2762,
      "Ġcamera": 2763,
      "view": 2764,
      "Ġcart": 2765,
      "Ġdom": 2766,
      "oming": 2767,
      "ctors": 2768,
      "ama": 2769,
      "Ġtrial": 2770,
      "olutions": 2771,
      "Ġcertainly": 2772,
      "Ġbacter": 2773,
      "Ġdam": 2774,
      "Ġlt": 2775,
      "Ġgt": 2776,
      "Ġsever": 2777,
      "Ġexamples": 2778,
      "Ġintrodu": 2779,
      "Ġminds": 2780,
      "estern": 2781,
      "Ġprogress": 2782,
      "Ġmoved": 2783,
      "ĠOkay": 2784,
      "Ġcommunities": 2785,
      "Ġscientific": 2786,
      "Ġfurther": 2787,
      "Ġmis": 2788,
      "Ġonto": 2789,
      "umb": 2790,
      "Ġprint": 2791,
      "Ġscreen": 2792,
      "ĠYes": 2793,
      "Ġsafe": 2794,
      "Ġobviously": 2795,
      "Ġencou": 2796,
      "Ġcitiz": 2797,
      "how": 2798,
      "Ġthreat": 2799,
      "Ġep": 2800,
      "Ġmeant": 2801,
      "Ġrid": 2802,
      "ĠSe": 2803,
      "izations": 2804,
      "ude": 2805,
      "Ġshowing": 2806,
      "Ġtransl": 2807,
      "Ġmoral": 2808,
      "Ġapart": 2809,
      "ech": 2810,
      "ground": 2811,
      "Ġpu": 2812,
      "Ġquality": 2813,
      "Ġcontent": 2814,
      "Ġcontext": 2815,
      "Ġcomputers": 2816,
      "Ġparticularly": 2817,
      "Ġmolec": 2818,
      "oot": 2819,
      "ĠNow": 2820,
      "Ġcode": 2821,
      "Ġdin": 2822,
      "ala": 2823,
      "Ġnational": 2824,
      "ims": 2825,
      "urity": 2826,
      "ruction": 2827,
      "Ġreport": 2828,
      "Ġfaster": 2829,
      "Ġdoor": 2830,
      "ĠHIV": 2831,
      "Ġconsider": 2832,
      "Ġchoose": 2833,
      "Al": 2834,
      "After": 2835,
      "ners": 2836,
      "Ġaf": 2837,
      "Ġmount": 2838,
      "rab": 2839,
      "ĠTV": 2840,
      "Ġseveral": 2841,
      "nces": 2842,
      "Ġresponse": 2843,
      "rast": 2844,
      "Ġwhe": 2845,
      "ured": 2846,
      "ĠEast": 2847,
      "ĠPr": 2848,
      "Ġadm": 2849,
      "Ġgraph": 2850,
      "akes": 2851,
      "Ġstudent": 2852,
      "Ġindeed": 2853,
      "others": 2854,
      "Ġforest": 2855,
      "Ġauthor": 2856,
      "Ġdecisions": 2857,
      "Ġregion": 2858,
      "Ġsolar": 2859,
      "Ġsurprising": 2860,
      "Ġtotally": 2861,
      "come": 2862,
      "ging": 2863,
      "nal": 2864,
      "Ġec": 2865,
      "amm": 2866,
      "ĠAfgh": 2867,
      "Ġhospital": 2868,
      "Ġvacc": 2869,
      "wo": 2870,
      "Ġfix": 2871,
      "Ġgrew": 2872,
      "eth": 2873,
      "Ġworse": 2874,
      "Ġbrains": 2875,
      "Ġmagic": 2876,
      "Ġdrugs": 2877,
      "Ġsand": 2878,
      "Ġfant": 2879,
      "Ġcloud": 2880,
      "ĠDe": 2881,
      "Ġconnected": 2882,
      "ughter": 2883,
      "Ġswe": 2884,
      "Ġmine": 2885,
      "Ġfish": 2886,
      "Ġshown": 2887,
      "Ġcarry": 2888,
      "Ġskin": 2889,
      "Ġsociet": 2890,
      "Ġpositive": 2891,
      "Ġvirt": 2892,
      "ĠBrit": 2893,
      "Ġbar": 2894,
      "Ġnobody": 2895,
      "Ġremark": 2896,
      "Ġvirus": 2897,
      "ued": 2898,
      "Ġther": 2899,
      "ĠSw": 2900,
      "Ġ16": 2901,
      "Ġprison": 2902,
      "ĠJohn": 2903,
      "Ġstrateg": 2904,
      "Ġjobs": 2905,
      "Ġwait": 2906,
      "Ġcollabor": 2907,
      "Ġluck": 2908,
      "Ġstick": 2909,
      "Ġimmedi": 2910,
      "Ġwants": 2911,
      "Ġperspect": 2912,
      "ucle": 2913,
      "Ġ199": 2914,
      "Ġassum": 2915,
      "Ġfreedom": 2916,
      "Ġincluding": 2917,
      "la": 2918,
      "Ġbodies": 2919,
      "Ġpush": 2920,
      "ops": 2921,
      "place": 2922,
      "Ġwatching": 2923,
      "Ġcontinue": 2924,
      "Ġreturn": 2925,
      "Ġtraining": 2926,
      "Ġbal": 2927,
      "verty": 2928,
      "Ġfinan": 2929,
      "Ġallowed": 2930,
      "Ġchemical": 2931,
      "Ġsuddenly": 2932,
      "ĠAfghan": 2933,
      "dom": 2934,
      "atory": 2935,
      "Ġwebs": 2936,
      "oles": 2937,
      "ffic": 2938,
      "Ġanybody": 2939,
      "Ġadult": 2940,
      "ĠYeah": 2941,
      "Ġdetect": 2942,
      "Ġtrees": 2943,
      "Ġvillage": 2944,
      "Maybe": 2945,
      "Ġmental": 2946,
      "ays": 2947,
      "idge": 2948,
      "Ġnotice": 2949,
      "Ġspir": 2950,
      "soci": 2951,
      "Ġdecision": 2952,
      "tend": 2953,
      "Ġexplore": 2954,
      "Ġinflu": 2955,
      "Can": 2956,
      "ped": 2957,
      "iger": 2958,
      "Ġdiscuss": 2959,
      "Ġappear": 2960,
      "Ġstudies": 2961,
      "Ġlargest": 2962,
      "Ġinfect": 2963,
      "Ġkilled": 2964,
      "Ġposition": 2965,
      "Ġmovie": 2966,
      "Ġmethod": 2967,
      "men": 2968,
      "Ġwife": 2969,
      "Ġfill": 2970,
      "Ġfasc": 2971,
      "urt": 2972,
      "ief": 2973,
      "agine": 2974,
      "Ġunivers": 2975,
      "Ġrock": 2976,
      "Ġfarm": 2977,
      "Ġcharacter": 2978,
      "Ġobjects": 2979,
      "Even": 2980,
      "iers": 2981,
      "Ġign": 2982,
      "Ġbom": 2983,
      "Ġfine": 2984,
      "Ġsepar": 2985,
      "Ġanymore": 2986,
      "Ġbuildings": 2987,
      "inct": 2988,
      "ought": 2989,
      "Ġbank": 2990,
      "Ġactivity": 2991,
      "Ġclin": 2992,
      "Ġclos": 2993,
      "Ġsecret": 2994,
      "Ġeventually": 2995,
      "Im": 2996,
      "Ġnamed": 2997,
      "Ġtruly": 2998,
      "Ġtemper": 2999,
      "Ġcrisis": 3000,
      "50": 3001,
      "Ġpan": 3002,
      "icle": 3003,
      "Ġstress": 3004,
      "Ġdeb": 3005,
      "Ġ14": 3006,
      "Ġpoverty": 3007,
      "Ġminute": 3008,
      "ero": 3009,
      "Ġmist": 3010,
      "Ġconc": 3011,
      "Ġplants": 3012,
      "itten": 3013,
      "ologist": 3014,
      "Ġincome": 3015,
      "Ġended": 3016,
      "Ġpoints": 3017,
      "Ġexcited": 3018,
      "Ġdepend": 3019,
      "for": 3020,
      "ros": 3021,
      "ining": 3022,
      "itary": 3023,
      "Ġnarr": 3024,
      "Ġnucle": 3025,
      "Ġforms": 3026,
      "ĠShe": 3027,
      "Ġprote": 3028,
      "Ġfinding": 3029,
      "avid": 3030,
      "Ġartist": 3031,
      "Ġsupposed": 3032,
      "Ġspecific": 3033,
      "Ġconditions": 3034,
      "Ġprovide": 3035,
      "Ġfamilies": 3036,
      "Ġextremely": 3037,
      "Ġtraditional": 3038,
      "Ġconversation": 3039,
      "aur": 3040,
      "ring": 3041,
      "ror": 3042,
      "Ġsource": 3043,
      "ulate": 3044,
      "istics": 3045,
      "Ġloved": 3046,
      "eless": 3047,
      "ossible": 3048,
      "Ġkept": 3049,
      "Ġeffort": 3050,
      "Ġpolitics": 3051,
      "Ġsignific": 3052,
      "Ġextraordinary": 3053,
      "oday": 3054,
      "ĠSch": 3055,
      "Ġspeed": 3056,
      "Ġsyn": 3057,
      "licated": 3058,
      "Ġ201": 3059,
      "Ġearl": 3060,
      "Ġcapt": 3061,
      "Ġlabor": 3062,
      "Ġproducts": 3063,
      "Ġ90": 3064,
      "First": 3065,
      "aid": 3066,
      "Ġsolutions": 3067,
      "erve": 3068,
      "enn": 3069,
      "Ġpack": 3070,
      "cip": 3071,
      "Ġdisapp": 3072,
      "Ġskills": 3073,
      "ĠAfrican": 3074,
      "Ġexciting": 3075,
      "Ġcollege": 3076,
      "cise": 3077,
      "fr": 3078,
      "Ġcases": 3079,
      "igher": 3080,
      "ĠAt": 3081,
      "Ġrole": 3082,
      "any": 3083,
      "sect": 3084,
      "Ġgoal": 3085,
      "Ġalive": 3086,
      "ĠCar": 3087,
      "Ġaccept": 3088,
      "Ġsorts": 3089,
      "Ġallows": 3090,
      "Ġmodels": 3091,
      "Ġthousand": 3092,
      "Ġlistening": 3093,
      "Ġservice": 3094,
      "Most": 3095,
      "here": 3096,
      "Ġhop": 3097,
      "Ġdoctor": 3098,
      "Ġabove": 3099,
      "Ġpublish": 3100,
      "zz": 3101,
      "Ġwild": 3102,
      "Ġoxy": 3103,
      "Ġhigher": 3104,
      "Ġlate": 3105,
      "Ġrap": 3106,
      "useum": 3107,
      "ĠCal": 3108,
      "Ġsurger": 3109,
      "ĠChrist": 3110,
      "Ġsocieties": 3111,
      "cape": 3112,
      "Ġtrou": 3113,
      "iti": 3114,
      "Ġlink": 3115,
      "Ġjud": 3116,
      "Ġ13": 3117,
      "Ġenj": 3118,
      "Ġcook": 3119,
      "ĠOK": 3120,
      "Ġreading": 3121,
      "Ġdeterm": 3122,
      "Ġsuccessful": 3123,
      "Ġemploy": 3124,
      "Ġmathem": 3125,
      "Ġstrugg": 3126,
      "cies": 3127,
      "Ġweight": 3128,
      "ĠArab": 3129,
      "Ġimpossible": 3130,
      "Ġengage": 3131,
      "Ġfascin": 3132,
      "Ġdoc": 3133,
      "iest": 3134,
      "Ġafford": 3135,
      "Ġpurp": 3136,
      "iation": 3137,
      "ube": 3138,
      "Ġbunch": 3139,
      "Ġsmell": 3140,
      "Ġcorre": 3141,
      "Ġcalcul": 3142,
      "Ġfundamental": 3143,
      "Ġlands": 3144,
      "Ġ17": 3145,
      "Ġexpensive": 3146,
      "Ġpolicy": 3147,
      "Ġcapital": 3148,
      "Ġmachines": 3149,
      "ĠIsl": 3150,
      "ees": 3151,
      "yl": 3152,
      "Ġsou": 3153,
      "ster": 3154,
      "Ġconcer": 3155,
      "Ġanywhere": 3156,
      "Ġslight": 3157,
      "Ġfunny": 3158,
      "Ġreflect": 3159,
      "Ġrobots": 3160,
      "Ġneurons": 3161,
      "Ġcolleag": 3162,
      "Ġfamiliar": 3163,
      "Ġi": 3164,
      "ana": 3165,
      "iven": 3166,
      "ĠWestern": 3167,
      "Ġlad": 3168,
      "ĠGe": 3169,
      "Ġcold": 3170,
      "Ġgenetic": 3171,
      "Ġeffic": 3172,
      "Ġpieces": 3173,
      "Ġ70": 3174,
      "Ġcritical": 3175,
      "osphere": 3176,
      "Of": 3177,
      "Ġthr": 3178,
      "Ġcry": 3179,
      "Ġlower": 3180,
      "aries": 3181,
      "Ġdoctors": 3182,
      "Ġsomewhere": 3183,
      "Ġdemon": 3184,
      "Ġswim": 3185,
      "Ġtypes": 3186,
      "Ġstraight": 3187,
      "oint": 3188,
      "Ġusually": 3189,
      "Ġbecoming": 3190,
      "ĠAm": 3191,
      "ĠAll": 3192,
      "Ġupon": 3193,
      "Ġactual": 3194,
      "Ġtalks": 3195,
      "Ġfamous": 3196,
      "Ġseries": 3197,
      "Ġseconds": 3198,
      "Ġrespect": 3199,
      "Ġlarger": 3200,
      "Ġtreatment": 3201,
      "cules": 3202,
      "Ġpatterns": 3203,
      "fer": 3204,
      "Ġmir": 3205,
      "Ġplastic": 3206,
      "cond": 3207,
      "Ġrand": 3208,
      "Ġcheck": 3209,
      "Ġsquare": 3210,
      "Ġrecognize": 3211,
      "Ġmobile": 3212,
      "Ġphilos": 3213,
      "Ġperspective": 3214,
      "lex": 3215,
      "ained": 3216,
      "Ġgreater": 3217,
      "Ġraise": 3218,
      "Ġearth": 3219,
      "Ġglass": 3220,
      "ustrial": 3221,
      "ises": 3222,
      "imb": 3223,
      "rael": 3224,
      "ĠBra": 3225,
      "Ġmanage": 3226,
      "Ġrights": 3227,
      "ellow": 3228,
      "Ġlaunch": 3229,
      "ĠAmericans": 3230,
      "ĠUniversity": 3231,
      "Ġmagn": 3232,
      "Today": 3233,
      "uf": 3234,
      "Ġheav": 3235,
      "unk": 3236,
      "Ġsomehow": 3237,
      "Ġsaving": 3238,
      "Ġroll": 3239,
      "Ġboard": 3240,
      "ĠWar": 3241,
      "Ġscr": 3242,
      "Ġstrange": 3243,
      "Ġteaching": 3244,
      "Ġcitizens": 3245,
      "Ġfinancial": 3246,
      "time": 3247,
      "Ġquot": 3248,
      "repre": 3249,
      "Ġfra": 3250,
      "rof": 3251,
      "Ġkil": 3252,
      "ĠRe": 3253,
      "Ġshared": 3254,
      "Ġbeauty": 3255,
      "Ġeffective": 3256,
      "Ġfemale": 3257,
      "reprene": 3258,
      "Ġtiss": 3259,
      "Ġsus": 3260,
      "Ġsite": 3261,
      "amic": 3262,
      "Ġshark": 3263,
      "Ġjump": 3264,
      "Ġrise": 3265,
      "Ġvict": 3266,
      "Ġwilling": 3267,
      "ĠKen": 3268,
      "Ġhealthy": 3269,
      "Ġmolecules": 3270,
      "Ġversion": 3271,
      "urban": 3272,
      "ĠAfghanistan": 3273,
      "Ġdemonstr": 3274,
      "Ġrandom": 3275,
      "back": 3276,
      "egr": 3277,
      "vision": 3278,
      "Ġassoci": 3279,
      "Ġtrib": 3280,
      "Ġtrick": 3281,
      "Ġcomplicated": 3282,
      "Ġlegs": 3283,
      "Ġwritten": 3284,
      "Ġsmaller": 3285,
      "Ġstanding": 3286,
      "ortunately": 3287,
      "Ġincreasing": 3288,
      "Ġspirit": 3289,
      "Ġport": 3290,
      "Ġshap": 3291,
      "Ġuses": 3292,
      "uments": 3293,
      "Ġsym": 3294,
      "Ġprep": 3295,
      "Ġ198": 3296,
      "Ġrespond": 3297,
      "Ġpainting": 3298,
      "Ġsecurity": 3299,
      "bb": 3300,
      "rest": 3301,
      "erman": 3302,
      "Ġhous": 3303,
      "Ġgas": 3304,
      "iced": 3305,
      "ĠHar": 3306,
      "epend": 3307,
      "ounds": 3308,
      "ĠLet": 3309,
      "Ġdecades": 3310,
      "Ġhumanity": 3311,
      "Ġthrow": 3312,
      "Ġcat": 3313,
      "Ġmal": 3314,
      "Ġpage": 3315,
      "Ġdrop": 3316,
      "omm": 3317,
      "ently": 3318,
      "iring": 3319,
      "Ġgenes": 3320,
      "Ġolder": 3321,
      "Ġorganizations": 3322,
      "Ġconnection": 3323,
      "Ġlevels": 3324,
      "Ġdiscover": 3325,
      "Ġincrease": 3326,
      "Ġinnov": 3327,
      "Ġbabies": 3328,
      "Ġoptim": 3329,
      "Ġachieve": 3330,
      "Ġbacteria": 3331,
      "Se": 3332,
      "itation": 3333,
      "Ġstar": 3334,
      "Ġran": 3335,
      "Ġhelped": 3336,
      "Ġorganization": 3337,
      "Ġcosts": 3338,
      "Ġdangerous": 3339,
      "Imagine": 3340,
      "ĠX": 3341,
      "uss": 3342,
      "Ġang": 3343,
      "ulf": 3344,
      "iling": 3345,
      "aging": 3346,
      "Ġexpress": 3347,
      "Ġspeech": 3348,
      "Ġdesp": 3349,
      "Ġremind": 3350,
      "Ġcorru": 3351,
      "Ġplease": 3352,
      "Ġwebsite": 3353,
      "ball": 3354,
      "imp": 3355,
      "Ġforth": 3356,
      "Ġbeings": 3357,
      "Ġpolice": 3358,
      "Ġfinal": 3359,
      "Ġdistribut": 3360,
      "Ġengineering": 3361,
      "Ġessentially": 3362,
      "Ġbread": 3363,
      "ĠIran": 3364,
      "Ġpros": 3365,
      "acity": 3366,
      "Ġpractice": 3367,
      "Ġfantastic": 3368,
      "ugh": 3369,
      "Ġhole": 3370,
      "lebr": 3371,
      "Ġthroughout": 3372,
      "Ġimmediately": 3373,
      "aff": 3374,
      "aign": 3375,
      "ping": 3376,
      "atically": 3377,
      "Ġcard": 3378,
      "Ġfit": 3379,
      "aly": 3380,
      "Ġeth": 3381,
      "Ġcomfort": 3382,
      "ables": 3383,
      "thern": 3384,
      "ĠDo": 3385,
      "Ġhonest": 3386,
      "Ġremarkable": 3387,
      "Ġsurgery": 3388,
      "Ġcust": 3389,
      "Ġpark": 3390,
      "Ġdro": 3391,
      "Ġalg": 3392,
      "Where": 3393,
      "ĠMan": 3394,
      "Ġoffic": 3395,
      "Ġcreativity": 3396,
      "Ġentreprene": 3397,
      "ĠIsrael": 3398,
      "Ġelectricity": 3399,
      "Ġearlier": 3400,
      "ray": 3401,
      "itude": 3402,
      "Ġpen": 3403,
      "Ġbelief": 3404,
      "Ġbiology": 3405,
      "Ġphoto": 3406,
      "Ġarchitecture": 3407,
      "Ġinternational": 3408,
      "nter": 3409,
      "Ġdad": 3410,
      "Ġnation": 3411,
      "Ġet": 3412,
      "Ġcoff": 3413,
      "Ġtrade": 3414,
      "Ġenvironmental": 3415,
      "Ġclearly": 3416,
      "Ġmention": 3417,
      "Ġchair": 3418,
      "Ġevolved": 3419,
      "Ġunique": 3420,
      "Ġ21": 3421,
      "Ġinterview": 3422,
      "Ġstandard": 3423,
      "Ġfollowing": 3424,
      "Ġdiagn": 3425,
      "Ġservices": 3426,
      "Ġtelevision": 3427,
      "Ġchallenges": 3428,
      "Ġurban": 3429,
      "Ġsal": 3430,
      "itor": 3431,
      "Ġmatch": 3432,
      "orrow": 3433,
      "ulner": 3434,
      "Ġcover": 3435,
      "ĠOr": 3436,
      "Ġproduction": 3437,
      "Ġcareer": 3438,
      "son": 3439,
      "word": 3440,
      "arian": 3441,
      "oty": 3442,
      "igr": 3443,
      "ologists": 3444,
      "Ġphen": 3445,
      "ĠRight": 3446,
      "Ġwalked": 3447,
      "Ġaddress": 3448,
      "Ġwaiting": 3449,
      "Ġdaughter": 3450,
      "Ġemotional": 3451,
      "Ġneighborhood": 3452,
      "Any": 3453,
      "af": 3454,
      "eral": 3455,
      "ids": 3456,
      "sequ": 3457,
      "though": 3458,
      "Ġshock": 3459,
      "ĠCity": 3460,
      "Ġprice": 3461,
      "Ġemail": 3462,
      "Ġapply": 3463,
      "Ġlights": 3464,
      "ception": 3465,
      "Ġoppos": 3466,
      "Ġcondition": 3467,
      "Ġprivate": 3468,
      "Ġcelebr": 3469,
      "Be": 3470,
      "aul": 3471,
      "Ġtur": 3472,
      "Ġmix": 3473,
      "used": 3474,
      "imately": 3475,
      "Ġsequ": 3476,
      "Ġspaces": 3477,
      "Ġuseful": 3478,
      "Ġunderstood": 3479,
      "Ġmilitary": 3480,
      "Ġveh": 3481,
      "Ġsummer": 3482,
      "Ġintelligence": 3483,
      "Ġtask": 3484,
      "Ġnut": 3485,
      "iding": 3486,
      "ement": 3487,
      "bert": 3488,
      "Ġrace": 3489,
      "Ġhimself": 3490,
      "Ġpopular": 3491,
      "Ġblock": 3492,
      "Ġsexual": 3493,
      "attle": 3494,
      "Ġmassive": 3495,
      "Ġperformance": 3496,
      "Ġenjoy": 3497,
      "Ġcoffee": 3498,
      "Ġhus": 3499,
      "Ġlines": 3500,
      "Ġweb": 3501,
      "Ġwhose": 3502,
      "Ġstars": 3503,
      "istry": 3504,
      "resh": 3505,
      "Ġfold": 3506,
      "ĠFace": 3507,
      "Ġprevent": 3508,
      "Ġsurround": 3509,
      "Ġsky": 3510,
      "Ġautom": 3511,
      "Ġhistor": 3512,
      "Ġdestro": 3513,
      "ĠWhen": 3514,
      "Ġmale": 3515,
      "the": 3516,
      "raq": 3517,
      "Ġshift": 3518,
      "ores": 3519,
      "Ġexh": 3520,
      "Ġtherefore": 3521,
      "Ġspect": 3522,
      "udd": 3523,
      "Ġspeaking": 3524,
      "Ġchoices": 3525,
      "board": 3526,
      "ashion": 3527,
      "Ġclassroom": 3528,
      "Ġexperiments": 3529,
      "Ġphenomen": 3530,
      "Ġir": 3531,
      "rees": 3532,
      "Those": 3533,
      "Ġforget": 3534,
      "rad": 3535,
      "Which": 3536,
      "ĠMar": 3537,
      "ĠGerman": 3538,
      "ipt": 3539,
      "order": 3540,
      "rench": 3541,
      "Ġgradu": 3542,
      "Ġvalues": 3543,
      "Ġphotos": 3544,
      "Ġmeeting": 3545,
      "Ġradio": 3546,
      "Ġmultip": 3547,
      "Ġmedicine": 3548,
      "Ġslightly": 3549,
      "ĠSp": 3550,
      "cience": 3551,
      "Ġweren": 3552,
      "Ġdecide": 3553,
      "Ġcreates": 3554,
      "Ġ$": 3555,
      "Ġwood": 3556,
      "ened": 3557,
      "aling": 3558,
      "ceed": 3559,
      "Ġdog": 3560,
      "stead": 3561,
      "Ġworry": 3562,
      "Ġvulner": 3563,
      "anda": 3564,
      "ĠSte": 3565,
      "ĠBl": 3566,
      "ĠDavid": 3567,
      "Ġcentral": 3568,
      "Ġphysics": 3569,
      "Ġbirds": 3570,
      "Somet": 3571,
      "iate": 3572,
      "oe": 3573,
      "uing": 3574,
      "ya": 3575,
      "Ġtrem": 3576,
      "Ġtown": 3577,
      "Ġinsect": 3578,
      "Ġyeah": 3579,
      "Ġwealth": 3580,
      "Ġselect": 3581,
      "Ġdifferences": 3582,
      "Ġhighly": 3583,
      "ission": 3584,
      "Ġ197": 3585,
      "Ġdirection": 3586,
      "Ġfocused": 3587,
      "Ġcomplexity": 3588,
      "Ġmotiv": 3589,
      "ID": 3590,
      "Right": 3591,
      "ĠQ": 3592,
      "Ġtree": 3593,
      "ening": 3594,
      "Ġhall": 3595,
      "Ġdance": 3596,
      "owd": 3597,
      "Ġeating": 3598,
      "ĠDon": 3599,
      "Ġboys": 3600,
      "Ġinstance": 3601,
      "Ġdriving": 3602,
      "Ġnetworks": 3603,
      "Ġstreets": 3604,
      "Ġinvented": 3605,
      "Another": 3606,
      "isms": 3607,
      "icians": 3608,
      "ĠIraq": 3609,
      "imin": 3610,
      "Ġann": 3611,
      "ĠLond": 3612,
      "Ġtransport": 3613,
      "Ġanswers": 3614,
      "Ġinspired": 3615,
      "Ġcampaign": 3616,
      "Ġnuclear": 3617,
      "Ġpurpose": 3618,
      "ĠFacebook": 3619,
      "off": 3620,
      "yle": 3621,
      "Ġdying": 3622,
      "Ġlog": 3623,
      "Ġteen": 3624,
      "apped": 3625,
      "Ġ24": 3626,
      "ibr": 3627,
      "Ġdrink": 3628,
      "Ġslide": 3629,
      "Ġcultural": 3630,
      "Ġlaws": 3631,
      "Ġsurvive": 3632,
      "Ġoccur": 3633,
      "Ġtarget": 3634,
      "ĠLondon": 3635,
      "Ġahead": 3636,
      "Ġsad": 3637,
      "Ġcand": 3638,
      "oses": 3639,
      "Ġinj": 3640,
      "Ġgent": 3641,
      "ste": 3642,
      "Ġshot": 3643,
      "Ġworst": 3644,
      "ĠAustr": 3645,
      "Ġenorm": 3646,
      "Ġparty": 3647,
      "Ġsymb": 3648,
      "Ġprofound": 3649,
      "Ġdiseases": 3650,
      "Ġspending": 3651,
      "exic": 3652,
      "Ġtemperature": 3653,
      "Ġhusb": 3654,
      "Ġstates": 3655,
      "ams": 3656,
      "olve": 3657,
      "raid": 3658,
      "Ġshop": 3659,
      "Ġintegr": 3660,
      "Ġdecade": 3661,
      "Ġgreatest": 3662,
      "Ġartists": 3663,
      "Ġshares": 3664,
      "Ġidentity": 3665,
      "Ġtrouble": 3666,
      "Ġcustom": 3667,
      "ratic": 3668,
      "Ġoh": 3669,
      "atives": 3670,
      "Ġcatch": 3671,
      "Ġpaid": 3672,
      "antic": 3673,
      "Ġrange": 3674,
      "Ġord": 3675,
      "ĠAd": 3676,
      "ĠCl": 3677,
      "lications": 3678,
      "Ġterm": 3679,
      "Ġvarious": 3680,
      "Ġsustainable": 3681,
      "Ġafraid": 3682,
      "iot": 3683,
      "ystem": 3684,
      "orge": 3685,
      "oper": 3686,
      "ĠCent": 3687,
      "ĠMus": 3688,
      "ĠMiddle": 3689,
      "Ġadapt": 3690,
      "Ġbrings": 3691,
      "Ġelectr": 3692,
      "Ġcommunicate": 3693,
      "Ġanaly": 3694,
      "Ġcauses": 3695,
      "cope": 3696,
      "ox": 3697,
      "wise": 3698,
      "adem": 3699,
      "ille": 3700,
      "Ġinstr": 3701,
      "Ġlaugh": 3702,
      "Ġstopped": 3703,
      "Ġbreast": 3704,
      "Ġterrible": 3705,
      "Ġetc": 3706,
      "ried": 3707,
      "uct": 3708,
      "Ġver": 3709,
      "Ġwis": 3710,
      "ancy": 3711,
      "arm": 3712,
      "cell": 3713,
      "Ġresist": 3714,
      "Ġhelping": 3715,
      "Ġ500": 3716,
      "Ġdocument": 3717,
      "ax": 3718,
      "gth": 3719,
      "mic": 3720,
      "Ġbase": 3721,
      "Ġmut": 3722,
      "Ġdimens": 3723,
      "orith": 3724,
      "orry": 3725,
      "Ġloss": 3726,
      "Ġweap": 3727,
      "Ġstren": 3728,
      "Ġnoticed": 3729,
      "iles": 3730,
      "Ġrule": 3731,
      "Ġactive": 3732,
      "Ġtraffic": 3733,
      "Ġpublished": 3734,
      "Ġfat": 3735,
      "alia": 3736,
      "ett": 3737,
      "key": 3738,
      "Ġframe": 3739,
      "Ġconsequ": 3740,
      "Ġknowing": 3741,
      "ĠCol": 3742,
      "ĠMexic": 3743,
      "ĠBecause": 3744,
      "Ġtwice": 3745,
      "load": 3746,
      "Ġcapacity": 3747,
      "Ġscientist": 3748,
      "Ġdirectly": 3749,
      "Ġfloor": 3750,
      "na": 3751,
      "ze": 3752,
      "Ġfing": 3753,
      "edd": 3754,
      "ashing": 3755,
      "iforn": 3756,
      "thetic": 3757,
      "Ġvast": 3758,
      "ĠCong": 3759,
      "ĠMc": 3760,
      "ĠPar": 3761,
      "Ġmostly": 3762,
      "Ġdram": 3763,
      "Ġmissing": 3764,
      "Ġflying": 3765,
      "Ġvari": 3766,
      "Ġexperiences": 3767,
      "Ġmathemat": 3768,
      "Ġalgorith": 3769,
      "Ġstrength": 3770,
      "Ġing": 3771,
      "Ġgala": 3772,
      "Ġcompon": 3773,
      "Ġcommer": 3774,
      "ĠOne": 3775,
      "Ġblog": 3776,
      "Ġmembers": 3777,
      "Ġjournal": 3778,
      "Ġleadership": 3779,
      "ĠCaliforn": 3780,
      "Ġgentle": 3781,
      "Like": 3782,
      "Ġaid": 3783,
      "Ġgun": 3784,
      "Ġatm": 3785,
      "itted": 3786,
      "Ġrelative": 3787,
      "Ġautism": 3788,
      "ĠIndian": 3789,
      "Ġjoin": 3790,
      "Ġcommunication": 3791,
      "Ġvolunt": 3792,
      "rastruct": 3793,
      "Ġcloser": 3794,
      "Ġut": 3795,
      "edia": 3796,
      "Ġdispl": 3797,
      "Ġindepend": 3798,
      "Ġbelow": 3799,
      "phone": 3800,
      "Ġpossibly": 3801,
      "Ġsupply": 3802,
      "engu": 3803,
      "Ġinstitutions": 3804,
      "Ġcolleagues": 3805,
      "Sh": 3806,
      "gy": 3807,
      "zil": 3808,
      "Ġtens": 3809,
      "atr": 3810,
      "Ġreve": 3811,
      "empt": 3812,
      "Ġtax": 3813,
      "Ġbasis": 3814,
      "Ġmoments": 3815,
      "Ġconference": 3816,
      "idden": 3817,
      "Ġforeign": 3818,
      "Ġdevices": 3819,
      "Ġemotion": 3820,
      "Ġdeliver": 3821,
      "Ġdoub": 3822,
      "ĠiP": 3823,
      "ufact": 3824,
      "ĠCalifornia": 3825,
      "DP": 3826,
      "ios": 3827,
      "now": 3828,
      "Ġlack": 3829,
      "Ġbeat": 3830,
      "Ġforces": 3831,
      "amb": 3832,
      "Ġnote": 3833,
      "Ġrough": 3834,
      "izes": 3835,
      "ricult": 3836,
      "Ġpassed": 3837,
      "Ġinfrastruct": 3838,
      "Ġcontroll": 3839,
      "Ġswitch": 3840,
      "Ġzero": 3841,
      "Ġbroad": 3842,
      "Ġreduce": 3843,
      "Ġwheel": 3844,
      "Ġphilosoph": 3845,
      "SA": 3846,
      "gain": 3847,
      "Ġtom": 3848,
      "anced": 3849,
      "ĠChar": 3850,
      "Ġelectron": 3851,
      "Ġjoy": 3852,
      "Ġopportunities": 3853,
      "Ġmolecule": 3854,
      "Ġlucky": 3855,
      "Ġcorruption": 3856,
      "IDS": 3857,
      "fl": 3858,
      "itter": 3859,
      "Ġpig": 3860,
      "Ġdyn": 3861,
      "Ġfort": 3862,
      "ĠSc": 3863,
      "Ġagree": 3864,
      "Ġnovel": 3865,
      "Ġunc": 3866,
      "ĠFor": 3867,
      "Ġproduced": 3868,
      "Ġaccur": 3869,
      "Ġairpl": 3870,
      "Ġavoid": 3871,
      "Ġtissue": 3872,
      "Ġhang": 3873,
      "Ġfashion": 3874,
      "Ġseed": 3875,
      "Ġsharing": 3876,
      "Who": 3877,
      "Ġmanufact": 3878,
      "athy": 3879,
      "Ġfeels": 3880,
      "Ġplayed": 3881,
      "Ġbringing": 3882,
      "Ġhearing": 3883,
      "Ġmission": 3884,
      "Many": 3885,
      "iage": 3886,
      "Ġpengu": 3887,
      "Ġliber": 3888,
      "Ġpoet": 3889,
      "Ġamb": 3890,
      "ording": 3891,
      "Ġscan": 3892,
      "Ġstudying": 3893,
      "Ġcrowd": 3894,
      "othes": 3895,
      "Ġaddition": 3896,
      "Ġprograms": 3897,
      "Ġnearly": 3898,
      "Ġoriginal": 3899,
      "Ġbrand": 3900,
      "stein": 3901,
      "Ġhusband": 3902,
      "vant": 3903,
      "ervation": 3904,
      "Ġban": 3905,
      "Ġfro": 3906,
      "Ġden": 3907,
      "Ġreb": 3908,
      "Ġorg": 3909,
      "iber": 3910,
      "Instead": 3911,
      "Ġattract": 3912,
      "Ġrelationships": 3913,
      "Ġopposite": 3914,
      "Look": 3915,
      "sc": 3916,
      "Ġfaces": 3917,
      "Ġrecon": 3918,
      "Ġstem": 3919,
      "Ġforg": 3920,
      "ĠTw": 3921,
      "ĠDr": 3922,
      "Ġappl": 3923,
      "Ġrare": 3924,
      "Ġimportantly": 3925,
      "Ġemotions": 3926,
      "Ġdegrees": 3927,
      "Ġsignificant": 3928,
      "ĠBrazil": 3929,
      "Ġtremend": 3930,
      "osh": 3931,
      "Ġbought": 3932,
      "ctually": 3933,
      "Ġhair": 3934,
      "ada": 3935,
      "ĠMr": 3936,
      "ĠNational": 3937,
      "ĠRuss": 3938,
      "Ġinsight": 3939,
      "Ġvisit": 3940,
      "Ġstructures": 3941,
      "Ġtotal": 3942,
      "Ġreligion": 3943,
      "Ġconsciousness": 3944,
      "Ġpuzz": 3945,
      "Ġoxygen": 3946,
      "From": 3947,
      "Two": 3948,
      "wide": 3949,
      "Ġcru": 3950,
      "icking": 3951,
      "ches": 3952,
      "Ġheat": 3953,
      "ils": 3954,
      "ĠTr": 3955,
      "ĠPl": 3956,
      "Ġrestaur": 3957,
      "Ġforever": 3958,
      "Ġbroken": 3959,
      "Ġfuel": 3960,
      "Ġtherap": 3961,
      "oo": 3962,
      "vest": 3963,
      "Ġwide": 3964,
      "osqu": 3965,
      "Ġhack": 3966,
      "artment": 3967,
      "Ġalthough": 3968,
      "Ġanyway": 3969,
      "Ġsurve": 3970,
      "Ġconsid": 3971,
      "Ġpassword": 3972,
      "Ġentirely": 3973,
      "Ġfully": 3974,
      "Ġbenefits": 3975,
      "Ġnecessary": 3976,
      "Ġcorrect": 3977,
      "Ġsymbol": 3978,
      "Ġcommercial": 3979,
      "Ġatmosphere": 3980,
      "Don": 3981,
      "gn": 3982,
      "aria": 3983,
      "Ġancient": 3984,
      "Ġvote": 3985,
      "ĠAIDS": 3986,
      "ander": 3987,
      "ĠCon": 3988,
      "Ġbackground": 3989,
      "Ġdifferently": 3990,
      "Ġ300": 3991,
      "Ġmagaz": 3992,
      "Ġadvant": 3993,
      "Ġwisdom": 3994,
      "ky": 3995,
      "Ġbatter": 3996,
      "Ġmouth": 3997,
      "vere": 3998,
      "Ġheld": 3999,
      "ears": 4000,
      "udience": 4001,
      "Ġagricult": 4002,
      "elling": 4003,
      "Ġindustrial": 4004,
      "Ġimagination": 4005,
      "Ġlesson": 4006,
      "Ġmatters": 4007,
      "Ġeasily": 4008,
      "Ġfailure": 4009,
      "Ġwindow": 4010,
      "Ġmajority": 4011,
      "Ġrequire": 4012,
      "gal": 4013,
      "hand": 4014,
      "lim": 4015,
      "reet": 4016,
      "oun": 4017,
      "Ġcogn": 4018,
      "Ġmuseum": 4019,
      "Ġhom": 4020,
      "Ġreco": 4021,
      "Ġmeas": 4022,
      "roud": 4023,
      "Ġevents": 4024,
      "aced": 4025,
      "ĠFrench": 4026,
      "aker": 4027,
      "Ġcorner": 4028,
      "Ġequal": 4029,
      "Ġcheap": 4030,
      "Ġgrandm": 4031,
      "Ġargument": 4032,
      "Ġturning": 4033,
      "Yes": 4034,
      "based": 4035,
      "osystem": 4036,
      "Ġbul": 4037,
      "Ġpet": 4038,
      "edic": 4039,
      "icles": 4040,
      "irt": 4041,
      "Ġvot": 4042,
      "ĠMe": 4043,
      "ager": 4044,
      "agers": 4045,
      "Ġcla": 4046,
      "ĠPro": 4047,
      "Ġcooper": 4048,
      "Ġbrill": 4049,
      "ysis": 4050,
      "Ġcolors": 4051,
      "Ġparad": 4052,
      "Ġdeeply": 4053,
      "Ġenormous": 4054,
      "Ġinfrastructure": 4055,
      "house": 4056,
      "isible": 4057,
      "Ġtor": 4058,
      "icon": 4059,
      "Think": 4060,
      "urd": 4061,
      "ifically": 4062,
      "ifying": 4063,
      "aining": 4064,
      "Ġunlike": 4065,
      "ĠNor": 4066,
      "Ġoffer": 4067,
      "ĠKore": 4068,
      "Ġmetaph": 4069,
      "Ġleading": 4070,
      "Ġdreams": 4071,
      "Ġresponsible": 4072,
      "Ġstatistics": 4073,
      "Ġreceived": 4074,
      "Ġmountain": 4075,
      "gar": 4076,
      "win": 4077,
      "zen": 4078,
      "Ġsick": 4079,
      "Ġburn": 4080,
      "Ġstream": 4081,
      "Ġshoot": 4082,
      "Ġchick": 4083,
      "Ġtrip": 4084,
      "itely": 4085,
      "Ġgrown": 4086,
      "Ġcrime": 4087,
      "Ġ196": 4088,
      "Ġdemand": 4089,
      "However": 4090,
      "Ġgovernments": 4091,
      "Ġnewsp": 4092,
      "Ġhyp": 4093,
      "Ġdescribe": 4094,
      "Ġecosystem": 4095,
      "Ġrapid": 4096,
      "Ġlandscape": 4097,
      "hy": 4098,
      "Ġcore": 4099,
      "Ġble": 4100,
      "Ġbone": 4101,
      "apers": 4102,
      "Ġfab": 4103,
      "Ġdiversity": 4104,
      "Ġrepe": 4105,
      "ulous": 4106,
      "ĠMich": 4107,
      "Ġworkers": 4108,
      "Ġgotten": 4109,
      "Ġamp": 4110,
      "ography": 4111,
      "pected": 4112,
      "Ġhyd": 4113,
      "Ġsuffering": 4114,
      "Ġfascinating": 4115,
      "Ġdestroy": 4116,
      "Ġvolunte": 4117,
      "tle": 4118,
      "vity": 4119,
      "reci": 4120,
      "Ġmamm": 4121,
      "Ġproud": 4122,
      "Ġlunch": 4123,
      "Ġnone": 4124,
      "roll": 4125,
      "ulations": 4126,
      "Ġaltern": 4127,
      "lock": 4128,
      "Ġcontact": 4129,
      "Ġcreatures": 4130,
      "Ġflight": 4131,
      "Ġaccident": 4132,
      "ĠHey": 4133,
      "ĠWhere": 4134,
      "ĠBritish": 4135,
      "Ġdespite": 4136,
      "Yeah": 4137,
      "ha": 4138,
      "li": 4139,
      "water": 4140,
      "Ġbag": 4141,
      "Ġbud": 4142,
      "Ġmosqu": 4143,
      "Ġgift": 4144,
      "Ġusers": 4145,
      "Ġjustice": 4146,
      "Ġspot": 4147,
      "Ġsport": 4148,
      "Ġseemed": 4149,
      "Ġexpand": 4150,
      "orders": 4151,
      "Ġeffects": 4152,
      "Ġresponsibility": 4153,
      "Ġbenefit": 4154,
      "equ": 4155,
      "Ġbound": 4156,
      "Ġmid": 4157,
      "Ġmort": 4158,
      "encies": 4159,
      "Ġwear": 4160,
      "Ġbees": 4161,
      "Ġreward": 4162,
      "verse": 4163,
      "ĠSm": 4164,
      "ĠHere": 4165,
      "Ġregular": 4166,
      "Ġresearchers": 4167,
      "Ġphysic": 4168,
      "Ġinteraction": 4169,
      "Ġillness": 4170,
      "Ġfighting": 4171,
      "Ġextreme": 4172,
      "Ġpressure": 4173,
      "Ġbreath": 4174,
      "Are": 4175,
      "Your": 4176,
      "ked": 4177,
      "mark": 4178,
      "Ġtough": 4179,
      "Ġdan": 4180,
      "urch": 4181,
      "Ġsector": 4182,
      "Ġshoes": 4183,
      "term": 4184,
      "Ġrout": 4185,
      "Ġcompared": 4186,
      "Ġclimb": 4187,
      "ipment": 4188,
      "Ġchildhood": 4189,
      "Ġremote": 4190,
      "Ġshouldn": 4191,
      "Ġattempt": 4192,
      "Ġtypical": 4193,
      "Ġembra": 4194,
      "Ġdomin": 4195,
      "Ġstrategy": 4196,
      "Ġbalance": 4197,
      "kn": 4198,
      "itable": 4199,
      "Ġpair": 4200,
      "esome": 4201,
      "Ġnor": 4202,
      "thes": 4203,
      "erson": 4204,
      "Ġquant": 4205,
      "Ġappe": 4206,
      "Ġraised": 4207,
      "Ġ400": 4208,
      "Ġvoices": 4209,
      "Ġillustr": 4210,
      "ipped": 4211,
      "Ġlegal": 4212,
      "ĠJapanese": 4213,
      "Ġadults": 4214,
      "mp": 4215,
      "och": 4216,
      "Ġhate": 4217,
      "Ġgay": 4218,
      "Ġgiant": 4219,
      "ica": 4220,
      "Ġegg": 4221,
      "Ġexer": 4222,
      "Ġtruck": 4223,
      "ĠMars": 4224,
      "Ġmanaged": 4225,
      "Ġprior": 4226,
      "Ġmeters": 4227,
      "ĠEuropean": 4228,
      "cript": 4229,
      "ĠAsia": 4230,
      "Ġdefinition": 4231,
      "Ġmarried": 4232,
      "Ġdinner": 4233,
      "Ġprotein": 4234,
      "Ġtremendous": 4235,
      "uild": 4236,
      "Ġtal": 4237,
      "Ġwond": 4238,
      "Ġhost": 4239,
      "Ġhabit": 4240,
      "ĠSan": 4241,
      "ellect": 4242,
      "ĠMin": 4243,
      "ĠPal": 4244,
      "Ġpossibility": 4245,
      "Ġpresident": 4246,
      "Ġcollective": 4247,
      "Ġveget": 4248,
      "Ġperfectly": 4249,
      "Ġdamage": 4250,
      "Ġepide": 4251,
      "Ġfarmers": 4252,
      "ford": 4253,
      "Ġtum": 4254,
      "reg": 4255,
      "esign": 4256,
      "Ġgold": 4257,
      "Ġthinks": 4258,
      "iable": 4259,
      "Ġcalls": 4260,
      "Ġcontribut": 4261,
      "Ġbrother": 4262,
      "Ġtransm": 4263,
      "Ġelement": 4264,
      "Ġconvin": 4265,
      "Ġfaith": 4266,
      "gypt": 4267,
      "Ġtast": 4268,
      "Ġreplace": 4269,
      "Ġhell": 4270,
      "Ġalt": 4271,
      "ĠHa": 4272,
      "ĠEvery": 4273,
      "rupt": 4274,
      "Ġprevious": 4275,
      "Ġrelated": 4276,
      "Ġstuck": 4277,
      "Ġbiological": 4278,
      "Ġdistance": 4279,
      "Ġpaint": 4280,
      "Ġfigured": 4281,
      "Ġfailed": 4282,
      "Ġdrawing": 4283,
      "Ġdouble": 4284,
      "Re": 4285,
      "hab": 4286,
      "atform": 4287,
      "Ġdue": 4288,
      "arter": 4289,
      "Ġyellow": 4290,
      "Ġgard": 4291,
      "uries": 4292,
      "Ġaspect": 4293,
      "Ġship": 4294,
      "Ġriver": 4295,
      "Ġconcent": 4296,
      "cket": 4297,
      "Ġintellect": 4298,
      "ĠBill": 4299,
      "ĠGDP": 4300,
      "Ġexperts": 4301,
      "Ġletter": 4302,
      "Ġsimpl": 4303,
      "connect": 4304,
      "Ġhelps": 4305,
      "Ġleads": 4306,
      "Ġeasier": 4307,
      "Ġwatched": 4308,
      "Ġequipment": 4309,
      "Ġfrequ": 4310,
      "Ġcycle": 4311,
      "Ġnegative": 4312,
      "Ġinsects": 4313,
      "Ġcognitive": 4314,
      "Over": 4315,
      "hold": 4316,
      "mon": 4317,
      "val": 4318,
      "Ġhomes": 4319,
      "Ġhidden": 4320,
      "ctions": 4321,
      "Ġshut": 4322,
      "Ġshel": 4323,
      "Ġround": 4324,
      "Ġpartners": 4325,
      "ĠJust": 4326,
      "Ġgenome": 4327,
      "Ġexpert": 4328,
      "Ġinvisible": 4329,
      "Ġinstall": 4330,
      "Ġartific": 4331,
      "Ġenter": 4332,
      "ification": 4333,
      "Ġcorpor": 4334,
      "Ġsucceed": 4335,
      "Ġdiscovery": 4336,
      "Ġdiet": 4337,
      "Ġlimited": 4338,
      "Ġversus": 4339,
      "ĠSwed": 4340,
      "Ġbomb": 4341,
      "Ġefficient": 4342,
      "Ġquote": 4343,
      "Ġadvantage": 4344,
      "Ġbrilliant": 4345,
      "lin": 4346,
      "Ġtun": 4347,
      "Ġtour": 4348,
      "Ġbillions": 4349,
      "Ġweird": 4350,
      "Ġund": 4351,
      "Ġnotion": 4352,
      "ĠAre": 4353,
      "Ġintu": 4354,
      "pped": 4355,
      "Ġunex": 4356,
      "ĠEgypt": 4357,
      "Ġdesire": 4358,
      "Ġlanguages": 4359,
      "Ġholding": 4360,
      "Ġinvestment": 4361,
      "Ġmotor": 4362,
      "Ġantib": 4363,
      "Ġessential": 4364,
      "Ġfairly": 4365,
      "rict": 4366,
      "Ġcred": 4367,
      "Ġmothers": 4368,
      "Ġfol": 4369,
      "Ġfresh": 4370,
      "Ġnames": 4371,
      "Ġstim": 4372,
      "atell": 4373,
      "ĠMo": 4374,
      "Ġeveryday": 4375,
      "Ġdisc": 4376,
      "ĠRo": 4377,
      "Ġbridge": 4378,
      "Ġplanning": 4379,
      "Ġsubst": 4380,
      "Ġdaily": 4381,
      "Ġterror": 4382,
      "ipping": 4383,
      "Ġfeedback": 4384,
      "Ġcircum": 4385,
      "imensional": 4386,
      "Ġnecessarily": 4387,
      "Second": 4388,
      "Ġconcentr": 4389,
      "IT": 4390,
      "my": 4391,
      "inc": 4392,
      "Ġsister": 4393,
      "Ġcateg": 4394,
      "ason": 4395,
      "ulpt": 4396,
      "Ġchann": 4397,
      "oking": 4398,
      "apping": 4399,
      "ĠDan": 4400,
      "Ġempt": 4401,
      "Ġfacts": 4402,
      "Ġsculpt": 4403,
      "Ġappreci": 4404,
      "Ġstudied": 4405,
      "Ġcreation": 4406,
      "Ġopin": 4407,
      "Ġleader": 4408,
      "Ġdollar": 4409,
      "Ġbusinesses": 4410,
      "ĠChris": 4411,
      "Ġexperienced": 4412,
      "Ġinfluence": 4413,
      "Ġstruggle": 4414,
      "Ġhouses": 4415,
      "Actually": 4416,
      "ius": 4417,
      "Ġwire": 4418,
      "Ġincent": 4419,
      "otic": 4420,
      "Ġglo": 4421,
      "Ġrat": 4422,
      "ĠGu": 4423,
      "Ġmoves": 4424,
      "Ġdesigner": 4425,
      "Ġplanets": 4426,
      "Ġedge": 4427,
      "Ġopened": 4428,
      "Ġneuros": 4429,
      "Ġleaving": 4430,
      "known": 4431,
      "His": 4432,
      "Oh": 4433,
      "cles": 4434,
      "dimensional": 4435,
      "Ġiron": 4436,
      "inally": 4437,
      "Ġsatell": 4438,
      "owing": 4439,
      "rogen": 4440,
      "throp": 4441,
      "ortex": 4442,
      "Ġcompare": 4443,
      "ĠEd": 4444,
      "Ġdisp": 4445,
      "Ġcommit": 4446,
      "Ġsurge": 4447,
      "Ġinvited": 4448,
      "Ġentertain": 4449,
      "Ġkeeping": 4450,
      "Ġ150": 4451,
      "Ġfollowed": 4452,
      "Ġdepression": 4453,
      "Ġinvestig": 4454,
      "Ġsurprise": 4455,
      "Ġsurprised": 4456,
      "Ġargue": 4457,
      "Ġincreasingly": 4458,
      "Ġelectrical": 4459,
      "cop": 4460,
      "me": 4461,
      "mber": 4462,
      "pid": 4463,
      "Ġur": 4464,
      "Ġtick": 4465,
      "itute": 4466,
      "Ġmill": 4467,
      "Ġmouse": 4468,
      "ener": 4469,
      "apse": 4470,
      "Ġgar": 4471,
      "Ġwearing": 4472,
      "entally": 4473,
      "Ġmeat": 4474,
      "Ġplatform": 4475,
      "ĠMay": 4476,
      "Ġworldwide": 4477,
      "ĠBig": 4478,
      "ĠGreat": 4479,
      "Ġuniversity": 4480,
      "Ġclick": 4481,
      "ĠNe": 4482,
      "Ġprecise": 4483,
      "Ġhighest": 4484,
      "Ġcapable": 4485,
      "Ġbegins": 4486,
      "Ġradical": 4487,
      "Ġhorr": 4488,
      "Ġassociated": 4489,
      "Ġmagazine": 4490,
      "au": 4491,
      "instein": 4492,
      "Ġodd": 4493,
      "isco": 4494,
      "Ġmaster": 4495,
      "Ġlosing": 4496,
      "ara": 4497,
      "omy": 4498,
      "ami": 4499,
      "Ġliked": 4500,
      "anted": 4501,
      "Ġmaint": 4502,
      "Ġnoise": 4503,
      "ĠLook": 4504,
      "ĠFran": 4505,
      "ocol": 4506,
      "Ġfinished": 4507,
      "print": 4508,
      "Ġaccom": 4509,
      "Ġmarkets": 4510,
      "Ġconstantly": 4511,
      "Ġprincip": 4512,
      "Ġvaccine": 4513,
      "Ġuniversal": 4514,
      "Ġseparate": 4515,
      "ĠSchool": 4516,
      "Ġcomfortable": 4517,
      "Sometimes": 4518,
      "ĠAustralia": 4519,
      "ĠMexico": 4520,
      "Ġmetaphor": 4521,
      "Again": 4522,
      "Once": 4523,
      "Ġsorry": 4524,
      "essed": 4525,
      "ĠAb": 4526,
      "acters": 4527,
      "ibilities": 4528,
      "Ġresource": 4529,
      "ĠWashing": 4530,
      "Ġbelieved": 4531,
      "Ġprototy": 4532,
      "Ġcharge": 4533,
      "Ġcharacters": 4534,
      "Ġsurvival": 4535,
      "Ġharm": 4536,
      "Ġdegree": 4537,
      "Ġcompetition": 4538,
      "Ġnutr": 4539,
      "ef": 4540,
      "ij": 4541,
      "ns": 4542,
      "vention": 4543,
      "Ġbattle": 4544,
      "illed": 4545,
      "Ġrural": 4546,
      "Ġmoon": 4547,
      "Ġbright": 4548,
      "Ġgrad": 4549,
      "Ġkilling": 4550,
      "Ġengineers": 4551,
      "Ġdescribed": 4552,
      "Ġultimately": 4553,
      "ĠKenya": 4554,
      "ĠTwitter": 4555,
      "inist": 4556,
      "Ġpurs": 4557,
      "anes": 4558,
      "Ġdry": 4559,
      "Ġdial": 4560,
      "Ġgap": 4561,
      "Ġgather": 4562,
      "Ġwhom": 4563,
      "idents": 4564,
      "cked": 4565,
      "Ġsugar": 4566,
      "Ġperce": 4567,
      "forest": 4568,
      "Ġindic": 4569,
      "issions": 4570,
      "Ġcounter": 4571,
      "Ġvalu": 4572,
      "Ġprofessional": 4573,
      "Ġsuggests": 4574,
      "Ġphenomenon": 4575,
      "Ġdimensions": 4576,
      "Ġweapons": 4577,
      "Ġairplane": 4578,
      "Ġorgans": 4579,
      "ĠWashington": 4580,
      "20": 4581,
      "ls": 4582,
      "rum": 4583,
      "Ġtit": 4584,
      "Ġton": 4585,
      "omp": 4586,
      "enty": 4587,
      "celer": 4588,
      "Ġking": 4589,
      "uls": 4590,
      "Ġintr": 4591,
      "Ġexpression": 4592,
      "Ġperception": 4593,
      "Ġfellow": 4594,
      "Ġagre": 4595,
      "ĠPaul": 4596,
      "Ġroot": 4597,
      "Ġadvert": 4598,
      "Ġletters": 4599,
      "ĠEngland": 4600,
      "Ġelements": 4601,
      "ĠWho": 4602,
      "Ġpassionate": 4603,
      "Ġconcerned": 4604,
      "Ġshapes": 4605,
      "Ġband": 4606,
      "Ġholes": 4607,
      "odes": 4608,
      "ession": 4609,
      "ĠBang": 4610,
      "ĠGra": 4611,
      "Ġhero": 4612,
      "aked": 4613,
      "Ġbelong": 4614,
      "ublic": 4615,
      "Ġfinish": 4616,
      "Ġharder": 4617,
      "Ġcourage": 4618,
      "Ġcaught": 4619,
      "Ġnormally": 4620,
      "Ġidentify": 4621,
      "Ġawesome": 4622,
      "Ġastron": 4623,
      "Ġvirtual": 4624,
      "ael": 4625,
      "bble": 4626,
      "atures": 4627,
      "Ġinform": 4628,
      "Ġstation": 4629,
      "iration": 4630,
      "ulated": 4631,
      "estic": 4632,
      "ĠSun": 4633,
      "ĠGreen": 4634,
      "ĠNot": 4635,
      "ĠFl": 4636,
      "Ġputs": 4637,
      "Ġfactory": 4638,
      "Ġgene": 4639,
      "Ġtransformation": 4640,
      "Ġeconomics": 4641,
      "Ġgenerations": 4642,
      "Ġexhib": 4643,
      "Ġmultiple": 4644,
      "Ġartificial": 4645,
      "30": 4646,
      "Un": 4647,
      "uous": 4648,
      "isf": 4649,
      "Ġdiction": 4650,
      "ushing": 4651,
      "olves": 4652,
      "Ġarms": 4653,
      "Ġadop": 4654,
      "lication": 4655,
      "Ġtransp": 4656,
      "ribute": 4657,
      "Ġheads": 4658,
      "Ġcurious": 4659,
      "Ġwondering": 4660,
      "Ġtrained": 4661,
      "Ġconstruction": 4662,
      "Ġoperating": 4663,
      "Ġpollut": 4664,
      "Ġslowly": 4665,
      "Ġmarriage": 4666,
      "Ġdetails": 4667,
      "Ġsoldiers": 4668,
      "Ġleaves": 4669,
      "Ġsympt": 4670,
      "Ġconsidered": 4671,
      "Ġunexpected": 4672,
      "Ġvaluable": 4673,
      "Each": 4674,
      "iors": 4675,
      "ties": 4676,
      "rete": 4677,
      "Ġcow": 4678,
      "itness": 4679,
      "Ġdots": 4680,
      "Ġfrustr": 4681,
      "Ġuser": 4682,
      "Ġhasn": 4683,
      "Ġfell": 4684,
      "Ġaging": 4685,
      "ĠEn": 4686,
      "Ġcoast": 4687,
      "Ġacadem": 4688,
      "Ġdesert": 4689,
      "Ġaccording": 4690,
      "Ġpaying": 4691,
      "Ġanalysis": 4692,
      "Ġcaused": 4693,
      "Ġfacing": 4694,
      "ĠCanada": 4695,
      "Ġcurrently": 4696,
      "Ġcartoon": 4697,
      "Ġentrepreneurs": 4698,
      "Ġordinary": 4699,
      "Go": 4700,
      "cers": 4701,
      "ris": 4702,
      "wood": 4703,
      "Ġax": 4704,
      "Ġtheater": 4705,
      "itals": 4706,
      "osis": 4707,
      "Ġhun": 4708,
      "Ġtow": 4709,
      "Ġpow": 4710,
      "cend": 4711,
      "Ġsoil": 4712,
      "Ġrom": 4713,
      "cipl": 4714,
      "Ġhadn": 4715,
      "Ġtail": 4716,
      "Ġquiet": 4717,
      "berg": 4718,
      "Ġgrid": 4719,
      "Ġgrade": 4720,
      "Ġextract": 4721,
      "Ġorganic": 4722,
      "iques": 4723,
      "Ġsafety": 4724,
      "Ġwalls": 4725,
      "Ġreligious": 4726,
      "Ġlifet": 4727,
      "Ġemployees": 4728,
      "Ġkilomet": 4729,
      "Ġdistribution": 4730,
      "Ġofficial": 4731,
      "Audience": 4732,
      "Take": 4733,
      "gment": 4734,
      "ye": 4735,
      "ĠThese": 4736,
      "Ġtoile": 4737,
      "Ġdate": 4738,
      "Ġgrain": 4739,
      "Ġweather": 4740,
      "Ġforced": 4741,
      "ads": 4742,
      "Ġexch": 4743,
      "ildren": 4744,
      "Ġotherwise": 4745,
      "Ġphones": 4746,
      "Ġsmile": 4747,
      "Ġscene": 4748,
      "Ġasks": 4749,
      "Ġinterp": 4750,
      "Ġstupid": 4751,
      "ographic": 4752,
      "Ġrefuge": 4753,
      "Ġtesting": 4754,
      "Ġlawy": 4755,
      "Ġsteps": 4756,
      "Ġsentence": 4757,
      "Ġchemistry": 4758,
      "Ġproperty": 4759,
      "Ġunfortunately": 4760,
      "ĠFranc": 4761,
      "cra": 4762,
      "mas": 4763,
      "oor": 4764,
      "prof": 4765,
      "zing": 4766,
      "Ġsight": 4767,
      "Ġhurt": 4768,
      "Ġpages": 4769,
      "Ġlat": 4770,
      "Ġnan": 4771,
      "Ġreform": 4772,
      "Ġrecy": 4773,
      "add": 4774,
      "ula": 4775,
      "Ġclosed": 4776,
      "ĠNiger": 4777,
      "Ġpartner": 4778,
      "Ġfeelings": 4779,
      "ĠStreet": 4780,
      "Ġmusical": 4781,
      "Ġcultures": 4782,
      "Ġequival": 4783,
      "Ġtreated": 4784,
      "Ġcollection": 4785,
      "Ġconstruct": 4786,
      "onym": 4787,
      "Ġpleasure": 4788,
      "Ġphotographs": 4789,
      "Ġawful": 4790,
      "Ġseriously": 4791,
      "Ġclinical": 4792,
      "Ġconsequences": 4793,
      "cut": 4794,
      "cil": 4795,
      "lation": 4796,
      "mar": 4797,
      "met": 4798,
      "right": 4799,
      "uh": 4800,
      "uits": 4801,
      "Ġtall": 4802,
      "Ġpal": 4803,
      "Ġpounds": 4804,
      "omas": 4805,
      "asion": 4806,
      "Ġliqu": 4807,
      "Ġshad": 4808,
      "Ġchart": 4809,
      "ume": 4810,
      "Ġvibr": 4811,
      "ĠMIT": 4812,
      "Ġimpl": 4813,
      "Ġacceler": 4814,
      "neath": 4815,
      "Ġinterface": 4816,
      "Ġarticle": 4817,
      "Ġplane": 4818,
      "Ġattach": 4819,
      "Ġelection": 4820,
      "Ġcutting": 4821,
      "Ġcivilization": 4822,
      "Ġfilled": 4823,
      "Ġvictims": 4824,
      "Ġgrandmother": 4825,
      "Ġmosquit": 4826,
      "Ġempty": 4827,
      "More": 4828,
      "PS": 4829,
      "father": 4830,
      "vard": 4831,
      "Ã©": 4832,
      "Ġera": 4833,
      "Ġcos": 4834,
      "Ġmigr": 4835,
      "Ġfal": 4836,
      "Ġinner": 4837,
      "Ġstood": 4838,
      "olf": 4839,
      "Ġconcl": 4840,
      "ĠTimes": 4841,
      "Ġunless": 4842,
      "Ġbubble": 4843,
      "Ġpolic": 4844,
      "Ġopening": 4845,
      "Ġsetting": 4846,
      "Ġvideos": 4847,
      "Ġlimit": 4848,
      "Ġaffected": 4849,
      "Ġarrived": 4850,
      "Ġsweet": 4851,
      "Ġmalaria": 4852,
      "Ġpenguins": 4853,
      "Would": 4854,
      "lands": 4855,
      "making": 4856,
      "Ġpil": 4857,
      "Ġrein": 4858,
      "Ġrepl": 4859,
      "Ġpeak": 4860,
      "ests": 4861,
      "Ġves": 4862,
      "Ġwhenever": 4863,
      "agr": 4864,
      "ĠWik": 4865,
      "Ġhumor": 4866,
      "akistan": 4867,
      "ĠJe": 4868,
      "Ġdriver": 4869,
      "Ġspecifically": 4870,
      "Ġsignal": 4871,
      "Ġappropr": 4872,
      "Ġexpected": 4873,
      "Ġreleased": 4874,
      "Ġprofessor": 4875,
      "Ġhorse": 4876,
      "Ġhonor": 4877,
      "ĠPhil": 4878,
      "Ġnegot": 4879,
      "Ġencourage": 4880,
      "Ġsharks": 4881,
      "Ġvehicle": 4882,
      "Ġtomorrow": 4883,
      "Ġconvinced": 4884,
      "Yet": 4885,
      "care": 4886,
      "life": 4887,
      "min": 4888,
      "ps": 4889,
      "Ġcrop": 4890,
      "Ġpure": 4891,
      "Ġfle": 4892,
      "Ġweak": 4893,
      "ented": 4894,
      "irm": 4895,
      "Ġchain": 4896,
      "Ġmyth": 4897,
      "iend": 4898,
      "ĠCam": 4899,
      "ĠEx": 4900,
      "Ġcalling": 4901,
      "ension": 4902,
      "Ġresc": 4903,
      "ĠWill": 4904,
      "Ġpregn": 4905,
      "Ġfewer": 4906,
      "ĠInst": 4907,
      "Ġsolid": 4908,
      "Ġwarm": 4909,
      "Ġ2008": 4910,
      "Ġpoliticians": 4911,
      "Ġdeeper": 4912,
      "Ġengineer": 4913,
      "Ġempathy": 4914,
      "Ġsending": 4915,
      "Ġbirthday": 4916,
      "Ġingred": 4917,
      "Ġbattery": 4918,
      "&#": 4919,
      "cap": 4920,
      "rs": 4921,
      "set": 4922,
      "uary": 4923,
      "Ġtap": 4924,
      "Ġfed": 4925,
      "alt": 4926,
      "Ġnerv": 4927,
      "urally": 4928,
      "Ġdogs": 4929,
      "illing": 4930,
      "Ġride": 4931,
      "Ġteles": 4932,
      "Ġspoke": 4933,
      "Ġens": 4934,
      "Ġenem": 4935,
      "ĠTur": 4936,
      "ĠPark": 4937,
      "ĠDar": 4938,
      "angers": 4939,
      "ensity": 4940,
      "Ġunderneath": 4941,
      "ĠWith": 4942,
      "Ġbrief": 4943,
      "Ġinvention": 4944,
      "Ġfourth": 4945,
      "ograp": 4946,
      "Ġhopefully": 4947,
      "Ġlocation": 4948,
      "Ġreview": 4949,
      "Ġdemocratic": 4950,
      "Ġpractical": 4951,
      "Ġpollen": 4952,
      "Ġreaction": 4953,
      "Ġdisplay": 4954,
      "Ġcircumst": 4955,
      "Ġequivalent": 4956,
      "Ar": 4957,
      "Have": 4958,
      "za": 4959,
      "Ġille": 4960,
      "Ġsan": 4961,
      "Ġsources": 4962,
      "Ġcup": 4963,
      "oration": 4964,
      "lease": 4965,
      "Ġeld": 4966,
      "urance": 4967,
      "irty": 4968,
      "Ġmyst": 4969,
      "Ġspl": 4970,
      "ciple": 4971,
      "ĠCO": 4972,
      "Ġsaved": 4973,
      "Ġuncle": 4974,
      "ĠEl": 4975,
      "Ġgrass": 4976,
      "Ġprefer": 4977,
      "ĠOb": 4978,
      "Ġscen": 4979,
      "Ġtechniques": 4980,
      "Ġremo": 4981,
      "Ġimportance": 4982,
      "Ġcolon": 4983,
      "Ġthoughts": 4984,
      "Ġsinging": 4985,
      "Ġorganized": 4986,
      "ength": 4987,
      "Ġconduct": 4988,
      "Ġmicros": 4989,
      "Ġabsolute": 4990,
      "Ġgender": 4991,
      "Ġpromise": 4992,
      "Ġmolecular": 4993,
      "Ġlaunched": 4994,
      "Ġalgorithms": 4995,
      "Ġliquid": 4996,
      "Ġvessel": 4997,
      "Talk": 4998,
      "gra": 4999,
      "ux": 5000,
      "atin": 5001,
      "Ġcere": 5002,
      "Ġstaff": 5003,
      "semb": 5004,
      "Ġabst": 5005,
      "Ġsevere": 5006,
      "Ġlibr": 5007,
      "Ġju": 5008,
      "ateful": 5009,
      "Ġmanip": 5010,
      "ĠGPS": 5011,
      "ĠPakistan": 5012,
      "Ġcovered": 5013,
      "ĠLa": 5014,
      "Ġgoods": 5015,
      "ĠOn": 5016,
      "ĠKing": 5017,
      "Ġplayers": 5018,
      "Ġ45": 5019,
      "Ġwarming": 5020,
      "Ġdefine": 5021,
      "Ġblocks": 5022,
      "Ġpsychology": 5023,
      "Ġhospitals": 5024,
      "Ġprinting": 5025,
      "Ġdebate": 5026,
      "Ġheavy": 5027,
      "ĠHarvard": 5028,
      "Ġgentlemen": 5029,
      "Ġrelatively": 5030,
      "Ġfalse": 5031,
      "aving": 5032,
      "lines": 5033,
      "rel": 5034,
      "Ġsoph": 5035,
      "itarian": 5036,
      "Ġtoward": 5037,
      "Ġgain": 5038,
      "lement": 5039,
      "Ġworried": 5040,
      "Ġrational": 5041,
      "Ġprove": 5042,
      "ĠApp": 5043,
      "ĠBro": 5044,
      "Ġqual": 5045,
      "Ġcontract": 5046,
      "Ġphr": 5047,
      "Ġemissions": 5048,
      "Ġ35": 5049,
      "Ġtransition": 5050,
      "Ġmush": 5051,
      "Ġprocesses": 5052,
      "ĠVal": 5053,
      "Ġcircle": 5054,
      "Ġmarketing": 5055,
      "Ġrequires": 5056,
      "Ġpicked": 5057,
      "Ġanalog": 5058,
      "Ġprinciple": 5059,
      "Ġlifetime": 5060,
      "craft": 5061,
      "Ġnervous": 5062,
      "down": 5063,
      "ham": 5064,
      "zed": 5065,
      "Ġsides": 5066,
      "ato": 5067,
      "Ġlapt": 5068,
      "Ġnations": 5069,
      "Ġnurs": 5070,
      "Ġstock": 5071,
      "Ġgod": 5072,
      "Their": 5073,
      "Ġjail": 5074,
      "Ġuns": 5075,
      "ĠEinstein": 5076,
      "Ġdish": 5077,
      "Ġbuying": 5078,
      "acle": 5079,
      "ĠRes": 5080,
      "ĠRep": 5081,
      "Ġarts": 5082,
      "olds": 5083,
      "Ġmetal": 5084,
      "ĠWeb": 5085,
      "Ġconnections": 5086,
      "Ġmemories": 5087,
      "Ġconsumption": 5088,
      "Ġsilence": 5089,
      "Ġemerging": 5090,
      "Ind": 5091,
      "RI": 5092,
      "ov": 5093,
      "ta": 5094,
      "Ġbath": 5095,
      "organ": 5096,
      "Ġlect": 5097,
      "Ġisol": 5098,
      "Ġbear": 5099,
      "ament": 5100,
      "Ġlie": 5101,
      "Ġshame": 5102,
      "Ġnotes": 5103,
      "Ġvan": 5104,
      "ĠBen": 5105,
      "ĠBar": 5106,
      "Ġevil": 5107,
      "Ġpoem": 5108,
      "ĠRob": 5109,
      "ĠJan": 5110,
      "Ġscar": 5111,
      "Ġscared": 5112,
      "Ġtechnical": 5113,
      "Ġdesigners": 5114,
      "Ġorganisms": 5115,
      "Ġtopic": 5116,
      "Ġsignals": 5117,
      "Ġrisks": 5118,
      "Ġimprov": 5119,
      "Everybody": 5120,
      "Ġstronger": 5121,
      "Ġrelease": 5122,
      "Ġstatus": 5123,
      "Ġtrials": 5124,
      "Ġnarrative": 5125,
      "Ġmanagement": 5126,
      "Ġvulnerable": 5127,
      "Ġindependent": 5128,
      "Ġdynamic": 5129,
      "Ġrestaurant": 5130,
      "Ġepidemic": 5131,
      "Ġfolks": 5132,
      "OK": 5133,
      "Tube": 5134,
      "Ġath": 5135,
      "inations": 5136,
      "Ġsam": 5137,
      "Ġsouth": 5138,
      "Ġlic": 5139,
      "Ġnorth": 5140,
      "Ġisland": 5141,
      "Ġanx": 5142,
      "terday": 5143,
      "Ġrig": 5144,
      "uman": 5145,
      "umber": 5146,
      "ichard": 5147,
      "While": 5148,
      "ĠTe": 5149,
      "Ġunus": 5150,
      "anging": 5151,
      "Ġroof": 5152,
      "Ġcontain": 5153,
      "Ġacqu": 5154,
      "Ġideal": 5155,
      "athers": 5156,
      "being": 5157,
      "Ġfoundation": 5158,
      "Ġbits": 5159,
      "azz": 5160,
      "Ġengaged": 5161,
      "Ġfalling": 5162,
      "Ġrelevant": 5163,
      "Ġconvention": 5164,
      "Ġprofession": 5165,
      "ĠAnge": 5166,
      "Ġintelligent": 5167,
      "Ġinfected": 5168,
      "Ġmistakes": 5169,
      "force": 5170,
      "Ġlady": 5171,
      "Ġclaim": 5172,
      "Ġnewspaper": 5173,
      "Ġbudget": 5174,
      "Ġmortality": 5175,
      "Ġintellectual": 5176,
      "Since": 5177,
      "See": 5178,
      "aj": 5179,
      "bur": 5180,
      "oons": 5181,
      "ugg": 5182,
      "Ġske": 5183,
      "Ġtox": 5184,
      "Ġfiction": 5185,
      "aled": 5186,
      "Ġinit": 5187,
      "Ġreven": 5188,
      "roph": 5189,
      "amin": 5190,
      "Ġdolp": 5191,
      "Ġlies": 5192,
      "Ġheight": 5193,
      "Ġexists": 5194,
      "Ġextend": 5195,
      "aren": 5196,
      "ĠBer": 5197,
      "Ġgenet": 5198,
      "Ġremain": 5199,
      "Ġminim": 5200,
      "Ġserve": 5201,
      "Ġlessons": 5202,
      "Ġpossibilities": 5203,
      "Ġeffectively": 5204,
      "Ġgrandfather": 5205,
      "Ġmotion": 5206,
      "Ġcopy": 5207,
      "ĠGermany": 5208,
      "Ġcandid": 5209,
      "ĠCenter": 5210,
      "ĠCongress": 5211,
      "Ġdolph": 5212,
      "bre": 5213,
      "hi": 5214,
      "itz": 5215,
      "enced": 5216,
      "Ġnose": 5217,
      "enture": 5218,
      "olving": 5219,
      "Ġsees": 5220,
      "Ġrates": 5221,
      "abol": 5222,
      "ĠPer": 5223,
      "Ġcoal": 5224,
      "ĠLos": 5225,
      "Ġflat": 5226,
      "Ġproducing": 5227,
      "Ġpatent": 5228,
      "Ġcarefully": 5229,
      "Ġbottle": 5230,
      "Ġeleph": 5231,
      "Ġdefinitely": 5232,
      "Ġsatisf": 5233,
      "Ġintroduced": 5234,
      "Ġspectrum": 5235,
      "ĠiPh": 5236,
      "Ġroughly": 5237,
      "Ġfortun": 5238,
      "Ġforgot": 5239,
      "Ġprinciples": 5240,
      "Ġhorm": 5241,
      "lying": 5242,
      "Ġformer": 5243,
      "Ġshr": 5244,
      "Ġvoc": 5245,
      "ĠAc": 5246,
      "Ġactions": 5247,
      "ĠTalk": 5248,
      "ĠPe": 5249,
      "Ġpersonally": 5250,
      "Ġflower": 5251,
      "Ġtranspl": 5252,
      "Ġmedium": 5253,
      "lessly": 5254,
      "Ġamounts": 5255,
      "Ġzo": 5256,
      "Ġprotection": 5257,
      "Ġmeaningful": 5258,
      "Ġerror": 5259,
      "Ġmicrob": 5260,
      "Ġestab": 5261,
      "Ġlayer": 5262,
      "Ġintroduce": 5263,
      "Ġdisappear": 5264,
      "Ġdramatic": 5265,
      "Ġpoetry": 5266,
      "Ġalternative": 5267,
      "Ġexercise": 5268,
      "Ġkilometers": 5269,
      "Ġcircumstances": 5270,
      "Ġsophistic": 5271,
      "point": 5272,
      "uel": 5273,
      "Ġten": 5274,
      "Ġwitness": 5275,
      "erves": 5276,
      "Ġcave": 5277,
      "Ġcortex": 5278,
      "Ġbow": 5279,
      "Ġbill": 5280,
      "alu": 5281,
      "icip": 5282,
      "ĠII": 5283,
      "Ġnav": 5284,
      "Ġseat": 5285,
      "ulating": 5286,
      "Ġfright": 5287,
      "Ġplans": 5288,
      "Ġ2000": 5289,
      "acles": 5290,
      "ĠYouTube": 5291,
      "whel": 5292,
      "Ġexplains": 5293,
      "Ġexisting": 5294,
      "Ġoccup": 5295,
      "Ġlifest": 5296,
      "Ġdepends": 5297,
      "Ġ2010": 5298,
      "Ġchicken": 5299,
      "Ġwondered": 5300,
      "Ġcredit": 5301,
      "Very": 5302,
      "bors": 5303,
      "cast": 5304,
      "gets": 5305,
      "oly": 5306,
      "Ġtons": 5307,
      "Ġwars": 5308,
      "Ġpip": 5309,
      "Ġinev": 5310,
      "Ġgoals": 5311,
      "emp": 5312,
      "ĠNA": 5313,
      "Ġoverwhel": 5314,
      "Ġpoore": 5315,
      "Ġboat": 5316,
      "Ġstudio": 5317,
      "cont": 5318,
      "Ġdesigning": 5319,
      "Ġinterests": 5320,
      "Ġparticles": 5321,
      "Ġgenerate": 5322,
      "Ġdefined": 5323,
      "Ġadded": 5324,
      "Ġsites": 5325,
      "Ġanti": 5326,
      "Ġsteel": 5327,
      "Ġinternal": 5328,
      "porary": 5329,
      "Ġawareness": 5330,
      "Ġparticipate": 5331,
      "Ġproteins": 5332,
      "ĠIslam": 5333,
      "ĠGeorge": 5334,
      "Ġmentioned": 5335,
      "Ġframework": 5336,
      "Ġcomponents": 5337,
      "ĠCharles": 5338,
      "Ġaccurate": 5339,
      "Ġinterpret": 5340,
      "Ġmushroom": 5341,
      "Did": 5342,
      "cest": 5343,
      "ey": 5344,
      "ih": 5345,
      "ym": 5346,
      "Ġwine": 5347,
      "aters": 5348,
      "itual": 5349,
      "Ġinequ": 5350,
      "Ġitem": 5351,
      "sters": 5352,
      "Ġshall": 5353,
      "Ġcha": 5354,
      "Ġchose": 5355,
      "Ġrow": 5356,
      "Ġmak": 5357,
      "iel": 5358,
      "ĠCE": 5359,
      "ĠBank": 5360,
      "ĠGen": 5361,
      "Ġgrateful": 5362,
      "Ġreprodu": 5363,
      "Ġbike": 5364,
      "Ġsolving": 5365,
      "Ġenvironments": 5366,
      "Ġadvice": 5367,
      "Ġconstant": 5368,
      "Ġdealing": 5369,
      "Ġtypically": 5370,
      "Ġsenses": 5371,
      "Ġfields": 5372,
      "Ġmulti": 5373,
      "Ġaston": 5374,
      "Ġsubjects": 5375,
      "Ġtracking": 5376,
      "ĠFrank": 5377,
      "Ġcarrying": 5378,
      "Ġignor": 5379,
      "Ġsoul": 5380,
      "Ġsequence": 5381,
      "Ġmathematics": 5382,
      "Ġdoubt": 5383,
      "Ġmanufacturing": 5384,
      "Ġapplied": 5385,
      "Ġrapidly": 5386,
      "ĠHaiti": 5387,
      "Ġopinion": 5388,
      "Ġunusual": 5389,
      "Americ": 5390,
      "Does": 5391,
      "ait": 5392,
      "ront": 5393,
      "Ġwake": 5394,
      "rets": 5395,
      "Ġbarr": 5396,
      "Ġhide": 5397,
      "Ġends": 5398,
      "entic": 5399,
      "imer": 5400,
      "Ġmel": 5401,
      "Ġworlds": 5402,
      "ago": 5403,
      "Ġunit": 5404,
      "ĠEm": 5405,
      "tech": 5406,
      "Ġpercentage": 5407,
      "Ġpolio": 5408,
      "Ġgravity": 5409,
      "Ġrepair": 5410,
      "Ġmessages": 5411,
      "Everything": 5412,
      "Ġprivile": 5413,
      "Ġconversations": 5414,
      "Ġfundamentally": 5415,
      "Ġestim": 5416,
      "Ġcapture": 5417,
      "Ġinnovative": 5418,
      "Ġinstrument": 5419,
      "Ġvariety": 5420,
      "hyth": 5421,
      "Ġhydrogen": 5422,
      "Ġsample": 5423,
      "Per": 5424,
      "cal": 5425,
      "uff": 5426,
      "nding": 5427,
      "nded": 5428,
      "ita": 5429,
      "osition": 5430,
      "Ġmer": 5431,
      "Ġpun": 5432,
      "Ġlength": 5433,
      "Ġreverse": 5434,
      "Ġancest": 5435,
      "Ġring": 5436,
      "Ġrot": 5437,
      "oken": 5438,
      "ĠAnt": 5439,
      "Ġintense": 5440,
      "eline": 5441,
      "Ġsuit": 5442,
      "abled": 5443,
      "ĠGree": 5444,
      "Ġdisaster": 5445,
      "Ġfactor": 5446,
      "ternal": 5447,
      "Ġplayer": 5448,
      "Ġconsist": 5449,
      "Ġeconomies": 5450,
      "Ġruns": 5451,
      "Ġlabel": 5452,
      "Ġrefr": 5453,
      "retch": 5454,
      "Ġjoined": 5455,
      "iency": 5456,
      "ĠArt": 5457,
      "Ġoperate": 5458,
      "Ġneighbors": 5459,
      "Ġcritic": 5460,
      "Ġmovies": 5461,
      "Ġprimary": 5462,
      "Ġencoura": 5463,
      "Ġridic": 5464,
      "Ġmountains": 5465,
      "Ġforests": 5466,
      "Ġauthority": 5467,
      "Ġswimming": 5468,
      "Ġearthqu": 5469,
      "Ġgraduate": 5470,
      "Ġgalaxy": 5471,
      "Ġphilosophy": 5472,
      "Ġgarden": 5473,
      "Ġchannel": 5474,
      "Ġexchange": 5475,
      "profit": 5476,
      "Ġillegal": 5477,
      "Ġabstract": 5478,
      "hol": 5479,
      "ri": 5480,
      "uce": 5481,
      "Ġoption": 5482,
      "Ġpump": 5483,
      "Ġfake": 5484,
      "edy": 5485,
      "Ġlung": 5486,
      "Ġstro": 5487,
      "Ġhem": 5488,
      "Ġatoms": 5489,
      "iled": 5490,
      "Ġritual": 5491,
      "ums": 5492,
      "Ġspin": 5493,
      "ĠCo": 5494,
      "Ġsacr": 5495,
      "Ġhowever": 5496,
      "ĠTom": 5497,
      "Ġclock": 5498,
      "ĠJew": 5499,
      "Ġfactors": 5500,
      "Ġflash": 5501,
      "Ġcenturies": 5502,
      "Ġeconomists": 5503,
      "Ġexplan": 5504,
      "Ġregard": 5505,
      "Ġregions": 5506,
      "Ġconfidence": 5507,
      "Ġconfront": 5508,
      "Ġauton": 5509,
      "Ġmember": 5510,
      "Ġfilms": 5511,
      "Ġ75": 5512,
      "Ġincreased": 5513,
      "Ġteams": 5514,
      "Ġfunding": 5515,
      "Ġsunlight": 5516,
      "Ġcamer": 5517,
      "Ġcombine": 5518,
      "Ġselling": 5519,
      "Ġcollaboration": 5520,
      "Ġconcrete": 5521,
      "friend": 5522,
      "Ġhoping": 5523,
      "Ġpasswords": 5524,
      "Ġagriculture": 5525,
      "Ġtumor": 5526,
      "ĠSweden": 5527,
      "Ġnavig": 5528,
      "ae": 5529,
      "bel": 5530,
      "source": 5531,
      "Ġwave": 5532,
      "Ġsamples": 5533,
      "iture": 5534,
      "Ġdot": 5535,
      "ald": 5536,
      "Ġchocol": 5537,
      "Ġteeth": 5538,
      "alled": 5539,
      "emoc": 5540,
      "Ġcompar": 5541,
      "resident": 5542,
      "Ġpray": 5543,
      "akers": 5544,
      "Ġstring": 5545,
      "Ġanimation": 5546,
      "Ġsolved": 5547,
      "Ġwinter": 5548,
      "Ġtraveling": 5549,
      "Ġoceans": 5550,
      "Ġcombination": 5551,
      "olly": 5552,
      "Ġchallenging": 5553,
      "ĠBritain": 5554,
      "Ġchemicals": 5555,
      "Ġdiscussion": 5556,
      "Ġcooking": 5557,
      "Ġsports": 5558,
      "Ġaccompl": 5559,
      "ographer": 5560,
      "gin": 5561,
      "lom": 5562,
      "Ġthick": 5563,
      "Ġack": 5564,
      "Ġcure": 5565,
      "osa": 5566,
      "Ġmere": 5567,
      "Ġhung": 5568,
      "Ġlift": 5569,
      "ifting": 5570,
      "ola": 5571,
      "olar": 5572,
      "Ġacting": 5573,
      "ĠMart": 5574,
      "abet": 5575,
      "ĠGood": 5576,
      "Ġcontrast": 5577,
      "ĠRev": 5578,
      "Ġadj": 5579,
      "ĠJul": 5580,
      "Ġwriter": 5581,
      "Ġsla": 5582,
      "Ġmovements": 5583,
      "what": 5584,
      "Ġskill": 5585,
      "Ġproductive": 5586,
      "Ġassign": 5587,
      "Ġbehavioral": 5588,
      "Ġoperation": 5589,
      "Ġinclude": 5590,
      "itchen": 5591,
      "Ġobser": 5592,
      "Ġyesterday": 5593,
      "Ġharvest": 5594,
      "Ġfacial": 5595,
      "Ġvaccines": 5596,
      "Ġtransportation": 5597,
      "Ġresistance": 5598,
      "Ġantibiot": 5599,
      "PM": 5600,
      "mers": 5601,
      "nam": 5602,
      "Ġcents": 5603,
      "Ġbare": 5604,
      "Ġborder": 5605,
      "Ġlas": 5606,
      "que": 5607,
      "igm": 5608,
      "opher": 5609,
      "ĠTo": 5610,
      "Ġ22": 5611,
      "ĠLatin": 5612,
      "Ġresil": 5613,
      "Ġbold": 5614,
      "Ġapplications": 5615,
      "ĠYour": 5616,
      "Ġcenters": 5617,
      "Ġgenerally": 5618,
      "Ġcomputing": 5619,
      "Ġphysically": 5620,
      "Ġmilk": 5621,
      "Ġbehaviors": 5622,
      "Ġcollapse": 5623,
      "Ġcyber": 5624,
      "Ġconsumer": 5625,
      "Ġdestruction": 5626,
      "Ġpulled": 5627,
      "Ġhoriz": 5628,
      "Ġclouds": 5629,
      "Ġprepared": 5630,
      "ĠParis": 5631,
      "ĠiPhone": 5632,
      "Ex": 5633,
      "foot": 5634,
      "upp": 5635,
      "Ġtank": 5636,
      "Ġought": 5637,
      "Ġhunt": 5638,
      "Ġpin": 5639,
      "Ġflex": 5640,
      "Ġdip": 5641,
      "Ġdedic": 5642,
      "Ġinput": 5643,
      "Ġloud": 5644,
      "asters": 5645,
      "lly": 5646,
      "Ġbee": 5647,
      "Ġcomment": 5648,
      "Ġfrank": 5649,
      "Ġproced": 5650,
      "abilities": 5651,
      "ĠGulf": 5652,
      "Ġuncom": 5653,
      "ĠPeople": 5654,
      "ĠPresident": 5655,
      "Ġarrest": 5656,
      "ĠFe": 5657,
      "Ġoffers": 5658,
      "Ġinstinct": 5659,
      "Ġdriven": 5660,
      "Ġ194": 5661,
      "Ġbusy": 5662,
      "Ġwalks": 5663,
      "Ġclever": 5664,
      "arrass": 5665,
      "Ġ2007": 5666,
      "Ġsigns": 5667,
      "Ġtests": 5668,
      "Ġdevast": 5669,
      "Ġ99": 5670,
      "Ġdepartment": 5671,
      "Ġfears": 5672,
      "Ġelev": 5673,
      "Ġbroke": 5674,
      "Ġrepresents": 5675,
      "Ġinspiration": 5676,
      "Ġconvince": 5677,
      "ĠThomas": 5678,
      "Ġsustainability": 5679,
      "Ġtransformed": 5680,
      "Ġmechanism": 5681,
      "Ġbombs": 5682,
      "Ġmirror": 5683,
      "Ġentrepreneur": 5684,
      "ĠMuslim": 5685,
      "ĠMichael": 5686,
      "ĠSmith": 5687,
      "Ġeggs": 5688,
      "Ġglobe": 5689,
      "Ġlifestyle": 5690,
      "Ġcameras": 5691,
      "Could": 5692,
      "over": 5693,
      "oice": 5694,
      "inate": 5695,
      "nda": 5696,
      "Ġmaps": 5697,
      "Ġhip": 5698,
      "Ġdict": 5699,
      "astern": 5700,
      "icing": 5701,
      "iminal": 5702,
      "imeter": 5703,
      "Ġstands": 5704,
      "chair": 5705,
      "oli": 5706,
      "adic": 5707,
      "Ġorch": 5708,
      "Ġplus": 5709,
      "ĠMon": 5710,
      "aret": 5711,
      "ĠDay": 5712,
      "Ġdesk": 5713,
      "Ġdesper": 5714,
      "chnology": 5715,
      "Ġowners": 5716,
      "Ġmetabol": 5717,
      "Ġprocessing": 5718,
      "ĠTEDTalk": 5719,
      "Ġparking": 5720,
      "Ġcollected": 5721,
      "Ġconstrain": 5722,
      "Ġradiation": 5723,
      "Ġliterature": 5724,
      "Ġstayed": 5725,
      "Ġsituations": 5726,
      "Ġcircuit": 5727,
      "Ġsnow": 5728,
      "Also": 5729,
      "Ġmistake": 5730,
      "Ġdetermine": 5731,
      "Ġladies": 5732,
      "Ġtherapy": 5733,
      "Ġhypothes": 5734,
      "Ġfabric": 5735,
      "Ġsatellite": 5736,
      "Ġhorrible": 5737,
      "Ġsymptoms": 5738,
      "Ġhunger": 5739,
      "ĠFrancisco": 5740,
      "ĠInstitute": 5741,
      "Ġsophisticated": 5742,
      "mit": 5743,
      "vas": 5744,
      "Ġ0": 5745,
      "Ġthin": 5746,
      "Ġbes": 5747,
      "Ġborders": 5748,
      "Ġhits": 5749,
      "oned": 5750,
      "Ġpian": 5751,
      "Ġfan": 5752,
      "Ġfif": 5753,
      "esity": 5754,
      "usive": 5755,
      "Ġreject": 5756,
      "Three": 5757,
      "Ġstere": 5758,
      "keep": 5759,
      "cel": 5760,
      "Ġanonym": 5761,
      "stand": 5762,
      "Ġtea": 5763,
      "ĠSat": 5764,
      "Ġsomewhat": 5765,
      "Ġunknown": 5766,
      "Ġthanks": 5767,
      "ipedia": 5768,
      "Ġpocket": 5769,
      "elly": 5770,
      "ĠFound": 5771,
      "Ġprem": 5772,
      "ĠUS": 5773,
      "Ġapparent": 5774,
      "Ġtechnique": 5775,
      "Ġflag": 5776,
      "Ġobst": 5777,
      "Ġstoryt": 5778,
      "Ġ2009": 5779,
      "Ġallowing": 5780,
      "Ġequally": 5781,
      "Ġadvanced": 5782,
      "Ġcollecting": 5783,
      "Ġpotentially": 5784,
      "Ġidentical": 5785,
      "Ġexistence": 5786,
      "Ġembarrass": 5787,
      "Ġboxes": 5788,
      "Ġoptions": 5789,
      "Ġroads": 5790,
      "Ġfootprint": 5791,
      "Ġproperties": 5792,
      "Ġburning": 5793,
      "Ġultimate": 5794,
      "Ġlaboratory": 5795,
      "ĠIslamic": 5796,
      "Ġcontrolled": 5797,
      "ĠRussia": 5798,
      "Ġsurvey": 5799,
      "Ġdancing": 5800,
      "ĠDarwin": 5801,
      "ĠObama": 5802,
      "Ġearthquake": 5803,
      "Bas": 5804,
      "xies": 5805,
      "xide": 5806,
      "Ġsen": 5807,
      "Ġsets": 5808,
      "Ġmad": 5809,
      "Ġwhist": 5810,
      "Ġbeach": 5811,
      "erek": 5812,
      "rog": 5813,
      "stream": 5814,
      "Ġhel": 5815,
      "Ġexec": 5816,
      "earch": 5817,
      "Ġknock": 5818,
      "ĠAh": 5819,
      "Ġoutc": 5820,
      "Ġsuic": 5821,
      "Ġcompl": 5822,
      "resp": 5823,
      "ĠGh": 5824,
      "ĠPole": 5825,
      "Ġimplement": 5826,
      "Ġ23": 5827,
      "Ġshell": 5828,
      "Ġphase": 5829,
      "Ġbrib": 5830,
      "Ġguide": 5831,
      "Ġinstruct": 5832,
      "Ġplays": 5833,
      "Ġformed": 5834,
      "Ġkeeps": 5835,
      "box": 5836,
      "Ġmemor": 5837,
      "Ġpainful": 5838,
      "Ġempower": 5839,
      "Ġclosely": 5840,
      "attan": 5841,
      "Ġmainly": 5842,
      "Ġimmune": 5843,
      "Ġflowers": 5844,
      "Ġactivities": 5845,
      "Ġspiritual": 5846,
      "Ġvehicles": 5847,
      "Ġpuzzle": 5848,
      "Ġembrace": 5849,
      "connected": 5850,
      "Ġtonight": 5851,
      "Ġconclusion": 5852,
      "Ġestablish": 5853,
      "Ġchocolate": 5854,
      "Ġacknow": 5855,
      "iat": 5856,
      "nic": 5857,
      "pet": 5858,
      "rat": 5859,
      "ua": 5860,
      "Ġbicy": 5861,
      "Ġmales": 5862,
      "Ġpitch": 5863,
      "Ġfoss": 5864,
      "Ġfurn": 5865,
      "Ġfert": 5866,
      "Ġdense": 5867,
      "asks": 5868,
      "Ġwel": 5869,
      "ctic": 5870,
      "Ġwash": 5871,
      "Ġkitchen": 5872,
      "Ġru": 5873,
      "Ġloop": 5874,
      "Ġacts": 5875,
      "ĠCop": 5876,
      "ĠMuseum": 5877,
      "pping": 5878,
      "Ġimplications": 5879,
      "Ġoverall": 5880,
      "Ġdiss": 5881,
      "ĠJer": 5882,
      "Ġbrothers": 5883,
      "onscious": 5884,
      "Ġremem": 5885,
      "Thanks": 5886,
      "ubes": 5887,
      "ocin": 5888,
      "Ġelectro": 5889,
      "Ġdistinct": 5890,
      "Ġparal": 5891,
      "Ġcontinent": 5892,
      "Ġwaves": 5893,
      "Ġjoke": 5894,
      "Ġexplained": 5895,
      "Ġinteractive": 5896,
      "Ġillusion": 5897,
      "Ġsensitive": 5898,
      "Ġarguments": 5899,
      "Ġreached": 5900,
      "Ġspreading": 5901,
      "Ġconflicts": 5902,
      "Ġdivide": 5903,
      "Ġadmit": 5904,
      "Ġ1990": 5905,
      "Ġwheelchair": 5906,
      "Ġmaintain": 5907,
      "Ġromantic": 5908,
      "ĠWikipedia": 5909,
      "Ġappropriate": 5910,
      "Ġtransplant": 5911,
      "Last": 5912,
      "Women": 5913,
      "hour": 5914,
      "hattan": 5915,
      "spe": 5916,
      "tocin": 5917,
      "van": 5918,
      "viol": 5919,
      "Ġtape": 5920,
      "Ġpill": 5921,
      "Ġdress": 5922,
      "orter": 5923,
      "arant": 5924,
      "lete": 5925,
      "oded": 5926,
      "Ġconvert": 5927,
      "appy": 5928,
      "ĠTal": 5929,
      "ptember": 5930,
      "Ġdiscipl": 5931,
      "Ġpool": 5932,
      "Ġcontem": 5933,
      "Ġunderwater": 5934,
      "ĠKh": 5935,
      "Ġobesity": 5936,
      "obel": 5937,
      "ĠState": 5938,
      "Ġhealthcare": 5939,
      "Ġhandle": 5940,
      "Ġcontrovers": 5941,
      "Ġyounger": 5942,
      "ended": 5943,
      "Ġadvance": 5944,
      "Ġrequired": 5945,
      "Ġattacks": 5946,
      "Ġviruses": 5947,
      "Ġ1970": 5948,
      "scale": 5949,
      "Ġmeasuring": 5950,
      "Ġvolunteers": 5951,
      "Ġentertainment": 5952,
      "ĠNigeria": 5953,
      "Ġpregnant": 5954,
      "ĠJanuary": 5955,
      "ĠAngeles": 5956,
      "ĠNASA": 5957,
      "Ġastonishing": 5958,
      "Perhaps": 5959,
      "ĠRevolution": 5960,
      "PA": 5961,
      "dr": 5962,
      "gent": 5963,
      "Ġtack": 5964,
      "ino": 5965,
      "err": 5966,
      "Ġboring": 5967,
      "Ġment": 5968,
      "Ġlions": 5969,
      "Ġlying": 5970,
      "Ġgest": 5971,
      "Ġgolf": 5972,
      "uses": 5973,
      "Ġbeet": 5974,
      "Ġasp": 5975,
      "oding": 5976,
      "illy": 5977,
      "anta": 5978,
      "Ġrub": 5979,
      "Ġrush": 5980,
      "Ġtrig": 5981,
      "Ġupper": 5982,
      "emen": 5983,
      "ĠMark": 5984,
      "ĠMont": 5985,
      "ogue": 5986,
      "Ġperman": 5987,
      "Ġfeature": 5988,
      "Ġagencies": 5989,
      "Ġcommand": 5990,
      "heimer": 5991,
      "Ġdesigns": 5992,
      "Ġstrangers": 5993,
      "Ġregener": 5994,
      "Ġclasses": 5995,
      "def": 5996,
      "Ġlargely": 5997,
      "Ġproviding": 5998,
      "Ġrecords": 5999,
      "Ġsuffer": 6000,
      "going": 6001,
      "Ġbreathe": 6002,
      "Ġapartment": 6003,
      "ĠChristmas": 6004,
      "ĠAmaz": 6005,
      "Ġdropped": 6006,
      "ĠManhattan": 6007,
      "Ġsurrounded": 6008,
      "Ġgalaxies": 6009,
      "Ġrebuild": 6010,
      "ĠKorea": 6011,
      "Ġincentives": 6012,
      "Ġprototype": 6013,
      "Ġadvertising": 6014,
      "Ġpollution": 6015,
      "den": 6016,
      "iety": 6017,
      "nel": 6018,
      "uper": 6019,
      "vable": 6020,
      "wr": 6021,
      "isters": 6022,
      "Ġmim": 6023,
      "Ġpushing": 6024,
      "Ġiniti": 6025,
      "Ġstorm": 6026,
      "rob": 6027,
      "olit": 6028,
      "Ġliver": 6029,
      "Ġsphere": 6030,
      "ĠMa": 6031,
      "ĠEve": 6032,
      "Ġ27": 6033,
      "Ġheroes": 6034,
      "ĠJames": 6035,
      "Ġdownload": 6036,
      "Ġremove": 6037,
      "Ġinsurance": 6038,
      "Ġtransfer": 6039,
      "ĠStan": 6040,
      "Ġregret": 6041,
      "Ġvisible": 6042,
      "Ġpresence": 6043,
      "Ġcontinued": 6044,
      "Ġinteractions": 6045,
      "Ġgreenhouse": 6046,
      "Ġdigit": 6047,
      "Ġcausing": 6048,
      "Ġauthentic": 6049,
      "Ġsongs": 6050,
      "Ġreligions": 6051,
      "Ġmechanical": 6052,
      "ĠSeptember": 6053,
      "Ġassume": 6054,
      "Ġjudge": 6055,
      "Ġangry": 6056,
      "Ġdiagnosed": 6057,
      "Ġmathematical": 6058,
      "Ġuncertain": 6059,
      "ĠRobert": 6060,
      "Ġtoilet": 6061,
      "Ġlatest": 6062,
      "Ġphrase": 6063,
      "Ġconventional": 6064,
      "Ġfrankly": 6065,
      "Os": 6066,
      "cred": 6067,
      "iam": 6068,
      "zheimer": 6069,
      "Ġcast": 6070,
      "Ġcous": 6071,
      "Ġcord": 6072,
      "Ġcards": 6073,
      "iters": 6074,
      "Ġpapers": 6075,
      "Ġears": 6076,
      "aming": 6077,
      "Ġsem": 6078,
      "Ġseason": 6079,
      "Ġkick": 6080,
      "tery": 6081,
      "Ġrating": 6082,
      "Ġload": 6083,
      "ĠAct": 6084,
      "Ġoutcome": 6085,
      "ela": 6086,
      "ĠMal": 6087,
      "ĠHer": 6088,
      "ĠGab": 6089,
      "Ġclothes": 6090,
      "ĠDep": 6091,
      "ĠNobel": 6092,
      "Ġsheep": 6093,
      "Ġgray": 6094,
      "aks": 6095,
      "Ġdecl": 6096,
      "Ġlets": 6097,
      "Ġblank": 6098,
      "Ġpolar": 6099,
      "ĠStar": 6100,
      "Ġgrab": 6101,
      "Ġfinance": 6102,
      "Ġcareful": 6103,
      "Ġnaturally": 6104,
      "Ġbias": 6105,
      "Ġelections": 6106,
      "Ġeducational": 6107,
      "Ġrefer": 6108,
      "Ġcollaps": 6109,
      "Ġdeaths": 6110,
      "Ġfaced": 6111,
      "Ġstruck": 6112,
      "Ġaftern": 6113,
      "Ġmethods": 6114,
      "ĠAtl": 6115,
      "Ġengagement": 6116,
      "Ġtribe": 6117,
      "Ġhousing": 6118,
      "Ġcustomers": 6119,
      "Ġfingers": 6120,
      "Ġcomponent": 6121,
      "ĠPalest": 6122,
      "Ġelder": 6123,
      "Ġmystery": 6124,
      "Ġnurses": 6125,
      "Ġathlet": 6126,
      "Ġantibiotics": 6127,
      "Basically": 6128,
      "Ġoutcomes": 6129,
      "Ab": 6130,
      "Other": 6131,
      "rary": 6132,
      "under": 6133,
      "xim": 6134,
      "Ġwise": 6135,
      "ingu": 6136,
      "enger": 6137,
      "Ġped": 6138,
      "Ġinject": 6139,
      "eding": 6140,
      "Ġwhales": 6141,
      "stage": 6142,
      "think": 6143,
      "Ġlikes": 6144,
      "Ġattend": 6145,
      "ĠAlex": 6146,
      "Ġspoken": 6147,
      "Ġplate": 6148,
      "Ġwherever": 6149,
      "ĠTor": 6150,
      "ĠEastern": 6151,
      "Ġprost": 6152,
      "ĠRichard": 6153,
      "icted": 6154,
      "Ġadoles": 6155,
      "ĠWall": 6156,
      "Ġoffered": 6157,
      "Ġraw": 6158,
      "pring": 6159,
      "gged": 6160,
      "ending": 6161,
      "Ġequation": 6162,
      "Ġfigures": 6163,
      "Ġhearts": 6164,
      "Ġtested": 6165,
      "Ġclassic": 6166,
      "Ġsensors": 6167,
      "Ġviolent": 6168,
      "ĠAlzheimer": 6169,
      "Ġrecorded": 6170,
      "Ġreaching": 6171,
      "Ġoxytocin": 6172,
      "Ġfascinated": 6173,
      "Ġefficiency": 6174,
      "Ġportra": 6175,
      "Ġirr": 6176,
      "ĠSteve": 6177,
      "Ġteenagers": 6178,
      "iosity": 6179,
      "Ġseeds": 6180,
      "Ġtaste": 6181,
      "Ġdictionary": 6182,
      "Ġacademic": 6183,
      "Ġrecyc": 6184,
      "bl": 6185,
      "case": 6186,
      "oft": 6187,
      "rors": 6188,
      "yard": 6189,
      "Ġtight": 6190,
      "isher": 6191,
      "Ġhur": 6192,
      "ota": 6193,
      "Ġgut": 6194,
      "ician": 6195,
      "owered": 6196,
      "usions": 6197,
      "lyn": 6198,
      "ione": 6199,
      "Ġstack": 6200,
      "struct": 6201,
      "Ġsection": 6202,
      "Ġshake": 6203,
      "Ġbutton": 6204,
      "inder": 6205,
      "rous": 6206,
      "Ġspring": 6207,
      "Ġtheme": 6208,
      "ĠSam": 6209,
      "Ġages": 6210,
      "Ġwhereas": 6211,
      "ĠGl": 6212,
      "Ġhappier": 6213,
      "Ġtwe": 6214,
      "ĠDerek": 6215,
      "Ġcontribute": 6216,
      "Ġpharm": 6217,
      "Ġevening": 6218,
      "ĠJack": 6219,
      "Ġcriminal": 6220,
      "Ġ36": 6221,
      "Ġdrives": 6222,
      "Ġconserv": 6223,
      "Ġdatab": 6224,
      "Ġelimin": 6225,
      "while": 6226,
      "Ġfunctions": 6227,
      "Ġcoral": 6228,
      "Ġdisturb": 6229,
      "Ġsigned": 6230,
      "Ġretire": 6231,
      "Ġmeetings": 6232,
      "Ġwindows": 6233,
      "Ġexisted": 6234,
      "Ġaccessible": 6235,
      "Ġembedd": 6236,
      "Ġtraveled": 6237,
      "Ġobsessed": 6238,
      "Ġconcepts": 6239,
      "Ġreceive": 6240,
      "Ġdomestic": 6241,
      "Ġfixed": 6242,
      "forward": 6243,
      "Ġscratch": 6244,
      "Ġhistorical": 6245,
      "Ġvulnerability": 6246,
      "Ġselection": 6247,
      "Ġdestroyed": 6248,
      "Ġshadow": 6249,
      "ĠRepublic": 6250,
      "hythm": 6251,
      "Ġrefriger": 6252,
      "Ġfurniture": 6253,
      "Rem": 6254,
      "car": 6255,
      "fish": 6256,
      "ka": 6257,
      "mates": 6258,
      "inction": 6259,
      "ata": 6260,
      "erge": 6261,
      "oster": 6262,
      "Ġben": 6263,
      "Ġpour": 6264,
      "ester": 6265,
      "icious": 6266,
      "using": 6267,
      "iggs": 6268,
      "opath": 6269,
      "Ġaband": 6270,
      "Ġug": 6271,
      "Ġchip": 6272,
      "Ġchrom": 6273,
      "Ġchurch": 6274,
      "Ġknee": 6275,
      "ĠCom": 6276,
      "ĠComm": 6277,
      "oston": 6278,
      "Ġworker": 6279,
      "Ġleap": 6280,
      "Ġnowhere": 6281,
      "ĠDemoc": 6282,
      "eph": 6283,
      "ologically": 6284,
      "ĠFin": 6285,
      "ĠWow": 6286,
      "Ġbran": 6287,
      "Ġsurf": 6288,
      "Ġapplication": 6289,
      "Ġtechnological": 6290,
      "Ġguarant": 6291,
      "Ġrelate": 6292,
      "Ġbehave": 6293,
      "Ġexplos": 6294,
      "Ġrooms": 6295,
      "Ġcurve": 6296,
      "Ġdeploy": 6297,
      "Ġlimits": 6298,
      "Ġtrend": 6299,
      "Ġhotel": 6300,
      "Ġtouched": 6301,
      "Ġevolutionary": 6302,
      "Ġarmy": 6303,
      "Ġtranslate": 6304,
      "iveness": 6305,
      "Ġtribes": 6306,
      "Ġdistributed": 6307,
      "Ġfrozen": 6308,
      "ĠProject": 6309,
      "Ġtort": 6310,
      "Ġintuitive": 6311,
      "Ġappreciate": 6312,
      "Ġcommitment": 6313,
      "Ġprecisely": 6314,
      "Ġingredients": 6315,
      "Ġlibrary": 6316,
      "arency": 6317,
      "Ġpoorest": 6318,
      "Ġignorance": 6319,
      "ĠMartin": 6320,
      "Ġdiplom": 6321,
      "ĠFoundation": 6322,
      "Ġafternoon": 6323,
      "Me": 6324,
      "city": 6325,
      "fortunately": 6326,
      "night": 6327,
      "pes": 6328,
      "uity": 6329,
      "Ġvert": 6330,
      "Ġtube": 6331,
      "Ġaim": 6332,
      "Ġwings": 6333,
      "itors": 6334,
      "Ġyield": 6335,
      "icago": 6336,
      "iday": 6337,
      "Ġstretch": 6338,
      "Ġneut": 6339,
      "Ġate": 6340,
      "Ġtrillion": 6341,
      "Ġplenty": 6342,
      "ĠCount": 6343,
      "ĠMand": 6344,
      "Ġwanting": 6345,
      "ĠBoston": 6346,
      "Ġevalu": 6347,
      "ĠGates": 6348,
      "Ġclus": 6349,
      "Ġclub": 6350,
      "Ġdisorder": 6351,
      "acing": 6352,
      "ĠRw": 6353,
      "Ġherself": 6354,
      "ĠFre": 6355,
      "Ġpretend": 6356,
      "Ġcrash": 6357,
      "Ġinterf": 6358,
      "Ġextinct": 6359,
      "airs": 6360,
      "Ġinfin": 6361,
      "Ġpopulations": 6362,
      "Ġdistrict": 6363,
      "Ġairport": 6364,
      "Ġsurely": 6365,
      "Ġcheaper": 6366,
      "Ġadvoc": 6367,
      "Ġstatement": 6368,
      "aneously": 6369,
      "Ġabsor": 6370,
      "Ġdepth": 6371,
      "Ġpractices": 6372,
      "Ġphotography": 6373,
      "Ġrobotic": 6374,
      "Ġcombined": 6375,
      "Ġvolume": 6376,
      "Ġachieved": 6377,
      "ĠFrance": 6378,
      "Ġcaptured": 6379,
      "Ġfrag": 6380,
      "Ġdramatically": 6381,
      "Ġjournalist": 6382,
      "Ġcosm": 6383,
      "Ġsplit": 6384,
      "Ġlicense": 6385,
      "Ġinequality": 6386,
      "Ġhungry": 6387,
      "Ġexecut": 6388,
      "Ġfossil": 6389,
      "ĠAmazon": 6390,
      "Ġembedded": 6391,
      "Ġchromos": 6392,
      "Com": 6393,
      "Her": 6394,
      "bal": 6395,
      "ias": 6396,
      "mble": 6397,
      "wich": 6398,
      "yan": 6399,
      "inated": 6400,
      "Ġtoler": 6401,
      "oman": 6402,
      "Ġwhale": 6403,
      "erences": 6404,
      "Ġdozen": 6405,
      "Ġproport": 6406,
      "Ġintention": 6407,
      "ĠSome": 6408,
      "ĠHaw": 6409,
      "ĠHiggs": 6410,
      "Ġneedle": 6411,
      "Ġcock": 6412,
      "Ġbull": 6413,
      "athan": 6414,
      "Ġsmoke": 6415,
      "new": 6416,
      "ĠChicago": 6417,
      "Ġraising": 6418,
      "Ġinvite": 6419,
      "Ġcolum": 6420,
      "Ġinstant": 6421,
      "Ġimagined": 6422,
      "phere": 6423,
      "Ġextent": 6424,
      "ahar": 6425,
      "hips": 6426,
      "Ġengaging": 6427,
      "inson": 6428,
      "ĠUnion": 6429,
      "Ġbreaking": 6430,
      "Ġparas": 6431,
      "Ġassist": 6432,
      "Ġsuccessfully": 6433,
      "Ġ600": 6434,
      "Ġincreases": 6435,
      "Ġspeaker": 6436,
      "Ġprotected": 6437,
      "Ġanticip": 6438,
      "Ġvillages": 6439,
      "Ġsilent": 6440,
      "Ġeradic": 6441,
      "yright": 6442,
      "Ġappears": 6443,
      "ĠArabic": 6444,
      "Ġoptimistic": 6445,
      "Ġangle": 6446,
      "Ġoccurred": 6447,
      "ĠAdam": 6448,
      "cription": 6449,
      "Ġsurgeon": 6450,
      "Ġenemy": 6451,
      "Ġremoved": 6452,
      "Ġzoom": 6453,
      "200": 6454,
      "ban": 6455,
      "Ġicon": 6456,
      "osen": 6457,
      "orking": 6458,
      "alian": 6459,
      "Ġgon": 6460,
      "level": 6461,
      "vey": 6462,
      "Ġweigh": 6463,
      "lymp": 6464,
      "ida": 6465,
      "Ġstations": 6466,
      "opard": 6467,
      "Ġchap": 6468,
      "ivered": 6469,
      "ĠSec": 6470,
      "ĠBab": 6471,
      "ĠHis": 6472,
      "ĠPac": 6473,
      "Ġimpress": 6474,
      "ĠNG": 6475,
      "Ġspell": 6476,
      "Ġremains": 6477,
      "Ġflies": 6478,
      "Ġcourt": 6479,
      "Ġconservation": 6480,
      "Ġimaging": 6481,
      "Ġoldest": 6482,
      "Ġbiom": 6483,
      "Ġ2005": 6484,
      "Ġstandards": 6485,
      "Ġcharity": 6486,
      "ĠHealth": 6487,
      "Ġreference": 6488,
      "Ġdirector": 6489,
      "Ġhousehold": 6490,
      "Ġexpectations": 6491,
      "Ġoccasion": 6492,
      "Ġ250": 6493,
      "ietnam": 6494,
      "ĠPrize": 6495,
      "Ġconclud": 6496,
      "herent": 6497,
      "Ġprosper": 6498,
      "Anyway": 6499,
      "Ġaspects": 6500,
      "ĠApple": 6501,
      "Ġlaptop": 6502,
      "ĠAntar": 6503,
      "Ġbicycle": 6504,
      "MT": 6505,
      "bed": 6506,
      "cence": 6507,
      "maker": 6508,
      "pro": 6509,
      "well": 6510,
      "atto": 6511,
      "ounce": 6512,
      "ingly": 6513,
      "Ġmarch": 6514,
      "eness": 6515,
      "org": 6516,
      "lets": 6517,
      "Ġrely": 6518,
      "Ġanger": 6519,
      "Ġabund": 6520,
      "Ġkiss": 6521,
      "Ġchest": 6522,
      "Ġchamp": 6523,
      "Ġproof": 6524,
      "Ġspinal": 6525,
      "Ġtries": 6526,
      "ogen": 6527,
      "Ġquarter": 6528,
      "Ġevolve": 6529,
      "ĠGr": 6530,
      "ĠDid": 6531,
      "Ġimper": 6532,
      "Ġ26": 6533,
      "Ġphosph": 6534,
      "ĠOlymp": 6535,
      "Ġscore": 6536,
      "Ġscary": 6537,
      "Ġdecline": 6538,
      "Ġlovely": 6539,
      "Ġexploration": 6540,
      "gging": 6541,
      "Ġsubs": 6542,
      "ĠVietnam": 6543,
      "Ġproto": 6544,
      "Ġprofit": 6545,
      "Ġmissed": 6546,
      "Ġpresented": 6547,
      "Ġfeeding": 6548,
      "Ġconsume": 6549,
      "Ġprivacy": 6550,
      "Ġdescribes": 6551,
      "Ġbanks": 6552,
      "Ġdebt": 6553,
      "Ġefforts": 6554,
      "Ġthrown": 6555,
      "Ġvictim": 6556,
      "Ġdemonstrate": 6557,
      "Ġcelebrate": 6558,
      "Ġinjury": 6559,
      "Ġinstruments": 6560,
      "Ġreveal": 6561,
      "ounced": 6562,
      "Ġunlikely": 6563,
      "Ġ1960": 6564,
      "osaurs": 6565,
      "Ġuncomfort": 6566,
      "Ġpiano": 6567,
      "Finally": 6568,
      "eal": 6569,
      "east": 6570,
      "lims": 6571,
      "onds": 6572,
      "ooth": 6573,
      "war": 6574,
      "Ġbones": 6575,
      "Ġpace": 6576,
      "oran": 6577,
      "oral": 6578,
      "Ġgall": 6579,
      "Ġants": 6580,
      "Ġabuse": 6581,
      "Ġub": 6582,
      "Ġchosen": 6583,
      "Ġrising": 6584,
      "Ġintent": 6585,
      "aint": 6586,
      "ĠMRI": 6587,
      "Ġcomprom": 6588,
      "ĠBible": 6589,
      "ĠHave": 6590,
      "ĠGand": 6591,
      "Ġclip": 6592,
      "ĠPort": 6593,
      "Ġpoly": 6594,
      "ĠRos": 6595,
      "Ġgenius": 6596,
      "Ġdecre": 6597,
      "Ġblow": 6598,
      "Ġstri": 6599,
      "Ġaccum": 6600,
      "Ġmorality": 6601,
      "Ġagenda": 6602,
      "Ġclassical": 6603,
      "Ġspeakers": 6604,
      "Ġprovided": 6605,
      "Ġdelivered": 6606,
      "Ġpresentation": 6607,
      "Ġhyper": 6608,
      "Ġperforming": 6609,
      "class": 6610,
      "Ġamongst": 6611,
      "Ġbreathing": 6612,
      "Ġdivided": 6613,
      "Ġcrying": 6614,
      "Ġsavings": 6615,
      "Ġ1980": 6616,
      "Ġpaintings": 6617,
      "Ġappeared": 6618,
      "Ġagreed": 6619,
      "Unfortunately": 6620,
      "Ġtelescope": 6621,
      "Ġlaser": 6622,
      "Ġfifth": 6623,
      "Ġsuicide": 6624,
      "Ġuncomfortable": 6625,
      "500": 6626,
      "called": 6627,
      "gic": 6628,
      "parent": 6629,
      "worth": 6630,
      "Ġid": 6631,
      "Ġsed": 6632,
      "Ġdign": 6633,
      "orus": 6634,
      "otion": 6635,
      "Ġyouth": 6636,
      "Ġstone": 6637,
      "Ġmyster": 6638,
      "Ġorbit": 6639,
      "unning": 6640,
      "Ġplaced": 6641,
      "ĠBudd": 6642,
      "Ġsheet": 6643,
      "ĠLad": 6644,
      "ĠLove": 6645,
      "cohol": 6646,
      "Ġgranted": 6647,
      "ĠJoe": 6648,
      "Ġfinds": 6649,
      "Ġapple": 6650,
      "Ġflour": 6651,
      "Ġinstantly": 6652,
      "Ġcarr": 6653,
      "Ġgrows": 6654,
      "Ġexploring": 6655,
      "Ġsuppl": 6656,
      "Ġconnecting": 6657,
      "Ġinspiring": 6658,
      "Ġmeasured": 6659,
      "Ġorigami": 6660,
      "Ġfemales": 6661,
      "Ġrepresented": 6662,
      "Ġproperly": 6663,
      "Ġfluid": 6664,
      "Ġrainforest": 6665,
      "Ġparticipants": 6666,
      "Ġcartoons": 6667,
      "Ġadminist": 6668,
      "Ġsandwich": 6669,
      "Ġreturned": 6670,
      "Ġignore": 6671,
      "Ġconcert": 6672,
      "ĠCarol": 6673,
      "Ġbeliefs": 6674,
      "Ġfinger": 6675,
      "Ġutter": 6676,
      "Ġrecovery": 6677,
      "Ġcooperation": 6678,
      "Ġneuroscience": 6679,
      "Ġintrig": 6680,
      "Ġpilot": 6681,
      "Ġscenar": 6682,
      "ĠValley": 6683,
      "Ġhemis": 6684,
      "Ġorchest": 6685,
      "Ġugly": 6686,
      "Ad": 6687,
      "Girl": 6688,
      "Te": 6689,
      "aci": 6690,
      "ga": 6691,
      "ras": 6692,
      "ration": 6693,
      "Ġcens": 6694,
      "Ġcake": 6695,
      "Ġboss": 6696,
      "Ġfishing": 6697,
      "Ġlens": 6698,
      "Ġnets": 6699,
      "Ġbeer": 6700,
      "Ġrecip": 6701,
      "quare": 6702,
      "ifts": 6703,
      "through": 6704,
      "Ġneither": 6705,
      "ulse": 6706,
      "Ġexternal": 6707,
      "ckets": 6708,
      "Ġmail": 6709,
      "Ġvital": 6710,
      "ĠMad": 6711,
      "ague": 6712,
      "ĠBur": 6713,
      "Ġunits": 6714,
      "Ġcoach": 6715,
      "Ġcoord": 6716,
      "iban": 6717,
      "Ġfool": 6718,
      "Ġreson": 6719,
      "Ġcommitted": 6720,
      "Ġletting": 6721,
      "licate": 6722,
      "Ġdrone": 6723,
      "Ġdrones": 6724,
      "Ġimagery": 6725,
      "Ġgenerated": 6726,
      "Ġcoun": 6727,
      "Ġmusicians": 6728,
      "Ġcuriosity": 6729,
      "Ġprotest": 6730,
      "Ġrobust": 6731,
      "Ġcrack": 6732,
      "Ġfailing": 6733,
      "ĠBrown": 6734,
      "Ġzone": 6735,
      "Ġsensory": 6736,
      "Ġpleas": 6737,
      "Ġessence": 6738,
      "Only": 6739,
      "Ġconsumers": 6740,
      "Ġfloating": 6741,
      "Ġcombat": 6742,
      "Ġfunctional": 6743,
      "Ġinstitution": 6744,
      "Ġpupp": 6745,
      "Ġsurprisingly": 6746,
      "Ġsticks": 6747,
      "Ġseparated": 6748,
      "Ġdepending": 6749,
      "front": 6750,
      "Ġsuspe": 6751,
      "Ġhalluc": 6752,
      "iminals": 6753,
      "ĠCongo": 6754,
      "Ġboundaries": 6755,
      "Ġnorthern": 6756,
      "Ġtalent": 6757,
      "Ġcorporate": 6758,
      "Ġsculpture": 6759,
      "Ġtitle": 6760,
      "Ġflew": 6761,
      "Ġrescue": 6762,
      "Ġunclear": 6763,
      "Ġmicroscope": 6764,
      "Ġanxiety": 6765,
      "ĠPeace": 6766,
      "Ġexplanation": 6767,
      "Ph": 6768,
      "Pl": 6769,
      "SW": 6770,
      "agh": 6771,
      "bered": 6772,
      "bits": 6773,
      "do": 6774,
      "eared": 6775,
      "gers": 6776,
      "power": 6777,
      "uk": 6778,
      "wl": 6779,
      "Ġtatto": 6780,
      "rect": 6781,
      "Ġcats": 6782,
      "Ġhat": 6783,
      "Ġhoney": 6784,
      "Ġpione": 6785,
      "Ġdung": 6786,
      "Ġgre": 6787,
      "Ġglob": 6788,
      "icher": 6789,
      "utch": 6790,
      "ulum": 6791,
      "oked": 6792,
      "Ġspark": 6793,
      "ĠSing": 6794,
      "ĠSil": 6795,
      "ĠScience": 6796,
      "Ġseek": 6797,
      "ĠCome": 6798,
      "Ġquad": 6799,
      "ĠPol": 6800,
      "iac": 6801,
      "angible": 6802,
      "ĠLaw": 6803,
      "Ġunderground": 6804,
      "ĠRed": 6805,
      "Ġtraum": 6806,
      "Ġinvolves": 6807,
      "licit": 6808,
      "Ġflip": 6809,
      "Ġdrill": 6810,
      "Ġslides": 6811,
      "Ġminor": 6812,
      "Ġminister": 6813,
      "Ġ1950": 6814,
      "Ġrestore": 6815,
      "ups": 6816,
      "Ġ95": 6817,
      "Ġdepressed": 6818,
      "Ġrecognition": 6819,
      "Ġrecognized": 6820,
      "Ġcopyright": 6821,
      "Ġmiser": 6822,
      "Ġdinosaurs": 6823,
      "Ġreported": 6824,
      "Ġrocket": 6825,
      "Ġstruggling": 6826,
      "Ġaffordable": 6827,
      "Ġneighborhoods": 6828,
      "Before": 6829,
      "Ġmotivation": 6830,
      "flies": 6831,
      "Ġhackers": 6832,
      "Ġparadigm": 6833,
      "Ġadopt": 6834,
      "Ġaxis": 6835,
      "Ġpolicies": 6836,
      "Ġvessels": 6837,
      "Ġtoxic": 6838,
      "Ġelephant": 6839,
      "Ġchaos": 6840,
      "Ġadjust": 6841,
      "Ġbarely": 6842,
      "ĠRwanda": 6843,
      "Sahar": 6844,
      "bles": 6845,
      "hear": 6846,
      "iated": 6847,
      "kin": 6848,
      "mm": 6849,
      "wart": 6850,
      "Ġtent": 6851,
      "Ġtill": 6852,
      "Ġtied": 6853,
      "Ġtired": 6854,
      "Ġtasks": 6855,
      "Ġsle": 6856,
      "Ġsales": 6857,
      "atar": 6858,
      "itory": 6859,
      "Ġbon": 6860,
      "Ġfirm": 6861,
      "Ġfathers": 6862,
      "orous": 6863,
      "asy": 6864,
      "Ġbears": 6865,
      "uration": 6866,
      "Ġstable": 6867,
      "Ġstages": 6868,
      "ifice": 6869,
      "Ġanthrop": 6870,
      "Ġaside": 6871,
      "Ġricher": 6872,
      "Ġlocked": 6873,
      "Ġalcohol": 6874,
      "Ġyours": 6875,
      "Ġactor": 6876,
      "izoph": 6877,
      "Ġfeatures": 6878,
      "ĠHigh": 6879,
      "ptions": 6880,
      "ĠLib": 6881,
      "Ġcontains": 6882,
      "ĠFirst": 6883,
      "ĠOx": 6884,
      "ĠJon": 6885,
      "conf": 6886,
      "Ġpersonality": 6887,
      "Ġcarried": 6888,
      "aze": 6889,
      "phones": 6890,
      "Ġfoods": 6891,
      "Ġcorresp": 6892,
      "ĠVan": 6893,
      "Ġdistant": 6894,
      "Ġresearcher": 6895,
      "bridge": 6896,
      "Ġexpectancy": 6897,
      "Everyone": 6898,
      "Ġfalls": 6899,
      "Ġprotecting": 6900,
      "Ġescape": 6901,
      "Ġpsychological": 6902,
      "Ġtrends": 6903,
      "Ġsleeping": 6904,
      "Ġfootball": 6905,
      "yrus": 6906,
      "Ġballoon": 6907,
      "Ġcharacteristics": 6908,
      "Ġnarrow": 6909,
      "Ġsynthes": 6910,
      "Ġprepare": 6911,
      "Ġautomatically": 6912,
      "Ġlogic": 6913,
      "Ġshopping": 6914,
      "Ġbaseball": 6915,
      "Ġcrucial": 6916,
      "Ġagricultural": 6917,
      "Ġrepeated": 6918,
      "Ġdominant": 6919,
      "Ġcrops": 6920,
      "Ġlecture": 6921,
      "Ġridiculous": 6922,
      "Ġstroke": 6923,
      "belie": 6924,
      "Ġapparently": 6925,
      "About": 6926,
      "Saharan": 6927,
      "Dan": 6928,
      "can": 6929,
      "ding": 6930,
      "gl": 6931,
      "rome": 6932,
      "Ġtro": 6933,
      "Ġtears": 6934,
      "Ġwip": 6935,
      "enry": 6936,
      "Ġhook": 6937,
      "Ġpra": 6938,
      "Ġdiverse": 6939,
      "Ġdump": 6940,
      "Ġdensity": 6941,
      "arp": 6942,
      "arters": 6943,
      "Ġgro": 6944,
      "ĠIce": 6945,
      "Ġrehab": 6946,
      "iform": 6947,
      "state": 6948,
      "adays": 6949,
      "Ġusual": 6950,
      "Ġorange": 6951,
      "ĠAir": 6952,
      "Ġspr": 6953,
      "Ġtrash": 6954,
      "Ġplain": 6955,
      "ĠCA": 6956,
      "ĠMor": 6957,
      "agger": 6958,
      "ache": 6959,
      "Ġagency": 6960,
      "Ġunbelie": 6961,
      "Ġovercome": 6962,
      "Ġdisrupt": 6963,
      "Ġbubb": 6964,
      "ĠOf": 6965,
      "Ġcolony": 6966,
      "Ġschizoph": 6967,
      "licity": 6968,
      "Ġafterwards": 6969,
      "Ġproduces": 6970,
      "Ġlighting": 6971,
      "Ġmuscles": 6972,
      "Ġrecomm": 6973,
      "Ġvisited": 6974,
      "Ġsubtle": 6975,
      "Ġorganize": 6976,
      "ioxide": 6977,
      "Ġdefense": 6978,
      "Ġ2003": 6979,
      "Ġ2004": 6980,
      "Ġ2006": 6981,
      "ĠIsland": 6982,
      "Ġcheese": 6983,
      "Ġparaly": 6984,
      "Ġcontinues": 6985,
      "Ġholds": 6986,
      "Ġinteracting": 6987,
      "Ġimproved": 6988,
      "Ġidentified": 6989,
      "Ġdelight": 6990,
      "Ġimpacts": 6991,
      "Ġdirections": 6992,
      "Ġarchitects": 6993,
      "Ġtextbook": 6994,
      "yram": 6995,
      "Ġimprovement": 6996,
      "Ġstrategies": 6997,
      "Ġlinked": 6998,
      "Ġcryst": 6999,
      "ĠMuslims": 7000,
      "Ġhomeless": 7001,
      "Ġrepeat": 7002,
      "Ġtransparency": 7003,
      "Ġlawyers": 7004,
      "Ġensure": 7005,
      "Ġdolphins": 7006,
      "abetes": 7007,
      "Ġstereoty": 7008,
      "Ġparalle": 7009,
      "ĠTaliban": 7010,
      "Ġpermanent": 7011,
      "ĠGabby": 7012,
      "ĠDepartment": 7013,
      "Ġgonna": 7014,
      "Us": 7015,
      "bru": 7016,
      "fast": 7017,
      "kward": 7018,
      "Ġwarr": 7019,
      "erd": 7020,
      "eration": 7021,
      "Ġmile": 7022,
      "Ġder": 7023,
      "Ġdioxide": 7024,
      "Ġinh": 7025,
      "Ġlamp": 7026,
      "omb": 7027,
      "icros": 7028,
      "Ġeast": 7029,
      "Ġchim": 7030,
      "unction": 7031,
      "ĠSa": 7032,
      "ĠCr": 7033,
      "ogether": 7034,
      "astics": 7035,
      "Ġenable": 7036,
      "Ġperm": 7037,
      "ĠTes": 7038,
      "ĠTas": 7039,
      "ĠDet": 7040,
      "Ġbug": 7041,
      "century": 7042,
      "ĠLife": 7043,
      "ĠWomen": 7044,
      "Ġprec": 7045,
      "ĠJes": 7046,
      "Ġbrown": 7047,
      "Ġcreature": 7048,
      "Ġentered": 7049,
      "archy": 7050,
      "Ġmining": 7051,
      "irds": 7052,
      "Ġsuppose": 7053,
      "Ġcorn": 7054,
      "Ġcapita": 7055,
      "Ġmusician": 7056,
      "Ġcurric": 7057,
      "Ġstops": 7058,
      "Ġpainted": 7059,
      "Ġequality": 7060,
      "Ġcontrols": 7061,
      "Ġfilter": 7062,
      "Ġtreating": 7063,
      "ĠInternational": 7064,
      "Ġsecure": 7065,
      "Ġcaf": 7066,
      "Ġprovides": 7067,
      "Ġcraft": 7068,
      "Ġveter": 7069,
      "Ġexplaining": 7070,
      "attered": 7071,
      "ĠThanks": 7072,
      "ĠYorker": 7073,
      "Ġaffects": 7074,
      "Ġawkward": 7075,
      "Ġdarkness": 7076,
      "Ġpredictions": 7077,
      "Ġburst": 7078,
      "Ġestimate": 7079,
      "ĠBeij": 7080,
      "Ġsearching": 7081,
      "Ġstores": 7082,
      "Ġemergency": 7083,
      "Ġprinted": 7084,
      "Ġdisappoint": 7085,
      "Ġcalculate": 7086,
      "Ġsusp": 7087,
      "Ġtricks": 7088,
      "Ġshaped": 7089,
      "Ġchairs": 7090,
      "Ġmixed": 7091,
      "ĠCentral": 7092,
      "Ġcontrolling": 7093,
      "Ġelectronic": 7094,
      "Ġelectronics": 7095,
      "Ġtrucks": 7096,
      "Ġwireless": 7097,
      "Ġastronom": 7098,
      "Ġattached": 7099,
      "capes": 7100,
      "sembly": 7101,
      "Ġdedicated": 7102,
      "Ġprotocell": 7103,
      "AR": 7104,
      "Will": 7105,
      "bage": 7106,
      "Ġaes": 7107,
      "Ġcig": 7108,
      "Ġmice": 7109,
      "Ġmatr": 7110,
      "enly": 7111,
      "Ġtoy": 7112,
      "Ġfet": 7113,
      "Ġdust": 7114,
      "Ġdirty": 7115,
      "ora": 7116,
      "Ġink": 7117,
      "Ġna": 7118,
      "Ġrenew": 7119,
      "Ġstyle": 7120,
      "sey": 7121,
      "semble": 7122,
      "Ġdoors": 7123,
      "rade": 7124,
      "Ġhelic": 7125,
      "Ġneural": 7126,
      "Ġjazz": 7127,
      "isten": 7128,
      "Ġloves": 7129,
      "Ġoutput": 7130,
      "allow": 7131,
      "andem": 7132,
      "Ġplot": 7133,
      "ĠMother": 7134,
      "ĠMoon": 7135,
      "abin": 7136,
      "Ġexplo": 7137,
      "ĠHouse": 7138,
      "ĠTake": 7139,
      "ĠTony": 7140,
      "ĠGal": 7141,
      "Ġclar": 7142,
      "ĠDel": 7143,
      "Ġdism": 7144,
      "ĠRio": 7145,
      "ello": 7146,
      "ĠJune": 7147,
      "Ġenth": 7148,
      "Ġserved": 7149,
      "Ġlaid": 7150,
      "Ġopens": 7151,
      "Ġfarmer": 7152,
      "Ġconfident": 7153,
      "ĠTEDx": 7154,
      "Ġdefe": 7155,
      "Ġproductivity": 7156,
      "Ġ65": 7157,
      "Ġviews": 7158,
      "Ġdiam": 7159,
      "Ġsensor": 7160,
      "Ġstaying": 7161,
      "Ġtempt": 7162,
      "Ġlegis": 7163,
      "Ġlegacy": 7164,
      "Ġorigin": 7165,
      "Ġpurch": 7166,
      "Ġencounter": 7167,
      "Ġvirtually": 7168,
      "Ġassumptions": 7169,
      "Ġpushed": 7170,
      "Ġcolleague": 7171,
      "Ġdemonstration": 7172,
      "Ġshocking": 7173,
      "Ġdynam": 7174,
      "Ġfrog": 7175,
      "Ġrecover": 7176,
      "liament": 7177,
      "Ġvegetables": 7178,
      "agram": 7179,
      "Ġinitial": 7180,
      "ihad": 7181,
      "ĠStanford": 7182,
      "Ġuncertainty": 7183,
      "Ġelderly": 7184,
      "ĠPacific": 7185,
      "Ġdignity": 7186,
      "Ġglobally": 7187,
      "Qu": 7188,
      "Sim": 7189,
      "iang": 7190,
      "iance": 7191,
      "lie": 7192,
      "lings": 7193,
      "part": 7194,
      "ses": 7195,
      "uum": 7196,
      "Ġthumb": 7197,
      "Ġsits": 7198,
      "itous": 7199,
      "osal": 7200,
      "Ġborrow": 7201,
      "enh": 7202,
      "Ġhol": 7203,
      "oning": 7204,
      "Ġpiz": 7205,
      "Ġpicking": 7206,
      "anthrop": 7207,
      "Ġdive": 7208,
      "omic": 7209,
      "omous": 7210,
      "Ġgam": 7211,
      "lear": 7212,
      "ette": 7213,
      "ctica": 7214,
      "urse": 7215,
      "section": 7216,
      "Ġmeal": 7217,
      "Ġmelt": 7218,
      "gend": 7219,
      "Ġexcell": 7220,
      "ĠBal": 7221,
      "Ġunp": 7222,
      "Ġclosing": 7223,
      "Ġprime": 7224,
      "ĠDis": 7225,
      "Ġ28": 7226,
      "Ġparties": 7227,
      "Ġboom": 7228,
      "ĠFord": 7229,
      "Ġemph": 7230,
      "Ġscream": 7231,
      "Ġpersu": 7232,
      "Ġtraged": 7233,
      "Ġdrivers": 7234,
      "Ġhighlight": 7235,
      "Ġaccidents": 7236,
      "Ġdefend": 7237,
      "Ġmagical": 7238,
      "Ġassets": 7239,
      "Ġdrag": 7240,
      "Ġdiabetes": 7241,
      "Ġrecording": 7242,
      "Ġstrongly": 7243,
      "Nobody": 7244,
      "Ġrequest": 7245,
      "Ġsuggesting": 7246,
      "Ġsteal": 7247,
      "anned": 7248,
      "Ġreduced": 7249,
      "Ġarrive": 7250,
      "Ġultra": 7251,
      "puter": 7252,
      "Ġtranslation": 7253,
      "Ġtherm": 7254,
      "Ġcollaborative": 7255,
      "Ġdisappeared": 7256,
      "Ġsoup": 7257,
      "Ġprosthetic": 7258,
      "Ġdrove": 7259,
      "Something": 7260,
      "Ġdrinking": 7261,
      "Ġmanufacture": 7262,
      "Ġscanner": 7263,
      "Ġrarely": 7264,
      "Ġquantum": 7265,
      "ĠMinister": 7266,
      "Ġnutrition": 7267,
      "ĠCambridge": 7268,
      "Ġinevitable": 7269,
      "Ġresilience": 7270,
      "Ġinstructions": 7271,
      "Ġphosphorus": 7272,
      "Ġhemisphere": 7273,
      "Ġschizophren": 7274,
      "ĠTasman": 7275,
      "Ġhelicop": 7276,
      "Ob": 7277,
      "aves": 7278,
      "gu": 7279,
      "ixt": 7280,
      "tes": 7281,
      "Ġtong": 7282,
      "Ġwedd": 7283,
      "Ġsession": 7284,
      "isons": 7285,
      "itud": 7286,
      "osure": 7287,
      "ena": 7288,
      "Ġhitting": 7289,
      "onia": 7290,
      "Ġfusion": 7291,
      "Ġfulf": 7292,
      "omo": 7293,
      "Ġredef": 7294,
      "che": 7295,
      "raction": 7296,
      "Ġneat": 7297,
      "Ġchief": 7298,
      "Ġpeer": 7299,
      "umin": 7300,
      "Ġouter": 7301,
      "ĠSund": 7302,
      "ĠSyr": 7303,
      "Ġsav": 7304,
      "ĠMah": 7305,
      "ares": 7306,
      "Ġcompelling": 7307,
      "action": 7308,
      "Ġexposed": 7309,
      "ĠBush": 7310,
      "Ġque": 7311,
      "Ġunpre": 7312,
      "Ġclients": 7313,
      "Ġprices": 7314,
      "Ġdisorders": 7315,
      "Ġpoison": 7316,
      "Ġroots": 7317,
      "eller": 7318,
      "ĠFellow": 7319,
      "Ġpref": 7320,
      "Ġscores": 7321,
      "Ġbrut": 7322,
      "Ġshoulder": 7323,
      "Ġending": 7324,
      "Ġschem": 7325,
      "Ġ32": 7326,
      "Ġobl": 7327,
      "Ġentrop": 7328,
      "ĠYemen": 7329,
      "Ġmonitor": 7330,
      "Ġ195": 7331,
      "Ġrecru": 7332,
      "Ġpassing": 7333,
      "Ġpassenger": 7334,
      "Ġbegun": 7335,
      "Ġdistract": 7336,
      "Ġadventure": 7337,
      "ĠArctic": 7338,
      "Ġ120": 7339,
      "Ġsentences": 7340,
      "Ġreduction": 7341,
      "Ġtelephone": 7342,
      "Ġlifes": 7343,
      "Ġdetailed": 7344,
      "Ġcrossing": 7345,
      "Ġactivist": 7346,
      "panz": 7347,
      "Ġcitizen": 7348,
      "Ġinfluenced": 7349,
      "Ġclinic": 7350,
      "Ġ2011": 7351,
      "ĠChristian": 7352,
      "Ġlinks": 7353,
      "Ġdetermined": 7354,
      "Ġethnic": 7355,
      "Ġlaughing": 7356,
      "Ġliberal": 7357,
      "Ġinsights": 7358,
      "Ġphysicist": 7359,
      "Ġcategory": 7360,
      "Ġodds": 7361,
      "Ġdialogue": 7362,
      "Ġprofessionals": 7363,
      "Ġsenior": 7364,
      "ĠGhana": 7365,
      "Ġfertil": 7366,
      "parents": 7367,
      "Ġparallel": 7368,
      "bruary": 7369,
      "Next": 7370,
      "Please": 7371,
      "ault": 7372,
      "hop": 7373,
      "ivery": 7374,
      "kins": 7375,
      "ober": 7376,
      "top": 7377,
      "two": 7378,
      "zan": 7379,
      "Ġain": 7380,
      "Ġwing": 7381,
      "Ġwound": 7382,
      "Ġhill": 7383,
      "Ġhier": 7384,
      "Ġpyram": 7385,
      "esh": 7386,
      "arre": 7387,
      "Ġgang": 7388,
      "ĠIm": 7389,
      "owers": 7390,
      "etr": 7391,
      "eters": 7392,
      "Through": 7393,
      "Ġham": 7394,
      "children": 7395,
      "rol": 7396,
      "Ġanes": 7397,
      "illa": 7398,
      "ilit": 7399,
      "Ġconver": 7400,
      "ĠSir": 7401,
      "ĠSpan": 7402,
      "Ġsauce": 7403,
      "ĠMil": 7404,
      "Ġenh": 7405,
      "Ġleather": 7406,
      "Ġquit": 7407,
      "Ġprize": 7408,
      "ĠPart": 7409,
      "ĠLong": 7410,
      "Ġunderlying": 7411,
      "icks": 7412,
      "Ġgrat": 7413,
      "ĠOct": 7414,
      "Ġpersist": 7415,
      "rency": 7416,
      "Ġrelax": 7417,
      "Ġmuscle": 7418,
      "Ġhardly": 7419,
      "Ġhealthier": 7420,
      "Ġskull": 7421,
      "Ġopenness": 7422,
      "Ġprobability": 7423,
      "ĠVen": 7424,
      "Ġgovernance": 7425,
      "Ġelsewhere": 7426,
      "ughters": 7427,
      "Ġdrawn": 7428,
      "Ġfunded": 7429,
      "Ġobjective": 7430,
      "Ġimproving": 7431,
      "Ġlegit": 7432,
      "Ġphotographed": 7433,
      "Ġspreads": 7434,
      "Ġsuggested": 7435,
      "Ġfacility": 7436,
      "Ġfootage": 7437,
      "Ġimmun": 7438,
      "Ġrepresentation": 7439,
      "Ġceiling": 7440,
      "Ġwheat": 7441,
      "Ġdependent": 7442,
      "Ġphilosopher": 7443,
      "Ġrestaurants": 7444,
      "Ġfrustrated": 7445,
      "Ġpowers": 7446,
      "minute": 7447,
      "Indeed": 7448,
      "Ġrevenue": 7449,
      "Ġprivilege": 7450,
      "Ġsacrifice": 7451,
      "Ġanonymous": 7452,
      "Ġwelcome": 7453,
      "ĠAntarctica": 7454,
      "Ġubiqu": 7455,
      "ĠOxford": 7456,
      "icrosoft": 7457,
      "Ġcurriculum": 7458,
      "Ġentropy": 7459,
      "Am": 7460,
      "David": 7461,
      "Mar": 7462,
      "SS": 7463,
      "clock": 7464,
      "fall": 7465,
      "field": 7466,
      "greg": 7467,
      "long": 7468,
      "makers": 7469,
      "rid": 7470,
      "Ġwider": 7471,
      "Ġsilly": 7472,
      "Ġbat": 7473,
      "Ġho": 7474,
      "onge": 7475,
      "Ġpink": 7476,
      "Ġdies": 7477,
      "Ġinherent": 7478,
      "Ġlux": 7479,
      "arah": 7480,
      "Ġgear": 7481,
      "Ġwee": 7482,
      "Ġrecept": 7483,
      "Ġreef": 7484,
      "Ġongoing": 7485,
      "iment": 7486,
      "see": 7487,
      "thet": 7488,
      "Ġjihad": 7489,
      "Ġchances": 7490,
      "Ġrats": 7491,
      "Ġconven": 7492,
      "cking": 7493,
      "Ġlob": 7494,
      "Ġvent": 7495,
      "ournal": 7496,
      "Ġenables": 7497,
      "ĠGive": 7498,
      "ĠGold": 7499,
      "Ġunh": 7500,
      "ĠEric": 7501,
      "ĠPat": 7502,
      "Ġbackwards": 7503,
      "acular": 7504,
      "ĠWould": 7505,
      "ĠUg": 7506,
      "Ġrail": 7507,
      "ĠKoran": 7508,
      "Ġdrum": 7509,
      "Ġconsult": 7510,
      "Ġmonkey": 7511,
      "Ġregime": 7512,
      "Ġsket": 7513,
      "ĠSov": 7514,
      "Ġsettle": 7515,
      "Ġphotographer": 7516,
      "Ġwarning": 7517,
      "Ġadding": 7518,
      "Ġlabs": 7519,
      "engine": 7520,
      "Ġposter": 7521,
      "Ġfocusing": 7522,
      "Ġinnocent": 7523,
      "Ġsimplicity": 7524,
      "Ġeaten": 7525,
      "Ġnonviol": 7526,
      "Ġsupported": 7527,
      "ventions": 7528,
      "Ġlimb": 7529,
      "Ġsupermark": 7530,
      "Ġbreakthrough": 7531,
      "Ġkeyboard": 7532,
      "Ġfastest": 7533,
      "Ġlayers": 7534,
      "Ġfuels": 7535,
      "Char": 7536,
      "Ġtranslated": 7537,
      "Ġgraphic": 7538,
      "Ġjudgment": 7539,
      "Ġoptimism": 7540,
      "Ġexpressions": 7541,
      "Ġirre": 7542,
      "Ġadditional": 7543,
      "ĠRussian": 7544,
      "Ġparadox": 7545,
      "copes": 7546,
      "Ġgathering": 7547,
      "Ġperceive": 7548,
      "ĠGrand": 7549,
      "Ġrefugees": 7550,
      "Ġlawyer": 7551,
      "Ġmosquito": 7552,
      "Ġcolonies": 7553,
      "related": 7554,
      "Ġforgotten": 7555,
      "Ġmicrobes": 7556,
      "employ": 7557,
      "ĠGeneral": 7558,
      "Ġancestors": 7559,
      "Ġhypothesis": 7560,
      "Ġpizza": 7561,
      "10": 7562,
      "Pr": 7563,
      "list": 7564,
      "rans": 7565,
      "xual": 7566,
      "Ġtrop": 7567,
      "eroid": 7568,
      "Ġcath": 7569,
      "Ġbars": 7570,
      "Ġmur": 7571,
      "Ġmall": 7572,
      "Ġtoys": 7573,
      "Ġdough": 7574,
      "Ġduck": 7575,
      "Ġlun": 7576,
      "Ġnurt": 7577,
      "Ġnurse": 7578,
      "Ġstab": 7579,
      "cember": 7580,
      "olars": 7581,
      "thal": 7582,
      "Ġshine": 7583,
      "ods": 7584,
      "Ġcomedy": 7585,
      "Ġfruit": 7586,
      "okes": 7587,
      "istot": 7588,
      "Ġspots": 7589,
      "ĠSquare": 7590,
      "Ġupload": 7591,
      "ĠMed": 7592,
      "ĠMac": 7593,
      "ĠMove": 7594,
      "ĠBo": 7595,
      "ĠHans": 7596,
      "ĠPeter": 7597,
      "ĠDen": 7598,
      "ĠNan": 7599,
      "ĠNord": 7600,
      "Ġdisag": 7601,
      "asses": 7602,
      "ĠLED": 7603,
      "Ġprecious": 7604,
      "ĠJo": 7605,
      "Ġoffices": 7606,
      "Ġsmarter": 7607,
      "Ġsmooth": 7608,
      "Ġincident": 7609,
      "Ġtraits": 7610,
      "Ġremained": 7611,
      "iously": 7612,
      "ĠKe": 7613,
      "Ġinsist": 7614,
      "Ġhelpful": 7615,
      "Ġserving": 7616,
      "Ġearn": 7617,
      "Ġpubl": 7618,
      "Ġorganism": 7619,
      "Ġanswered": 7620,
      "Ġeducated": 7621,
      "Ġwoke": 7622,
      "Ġchoosing": 7623,
      "Ġglad": 7624,
      "Ġassess": 7625,
      "viously": 7626,
      "Ġneuron": 7627,
      "ĠArmy": 7628,
      "Ġdelivery": 7629,
      "Ġpsychopath": 7630,
      "Ġincludes": 7631,
      "gency": 7632,
      "Ġspecialized": 7633,
      "Ġwinning": 7634,
      "Ġobserv": 7635,
      "Ġoriginally": 7636,
      "Ġindustries": 7637,
      "Ġcircuits": 7638,
      "Ġstatist": 7639,
      "Ġharness": 7640,
      "Ġpulling": 7641,
      "Ġtexting": 7642,
      "Ġpeaceful": 7643,
      "Ġsilver": 7644,
      "ollar": 7645,
      "Ġburden": 7646,
      "Ġsoldier": 7647,
      "Ġtargets": 7648,
      "Ġphilanthrop": 7649,
      "ĠDecember": 7650,
      "Ġsynthetic": 7651,
      "Ġaccepted": 7652,
      "Ġdocuments": 7653,
      "Ġconcern": 7654,
      "Ġsuspect": 7655,
      "Ġcatast": 7656,
      "Ġreminded": 7657,
      "Ġethical": 7658,
      "Ġintegrated": 7659,
      "Ġalgorithm": 7660,
      "Ġattractive": 7661,
      "ĠTrans": 7662,
      "Ġshooting": 7663,
      "Ġroutine": 7664,
      "Ġfrequency": 7665,
      "Ġcategories": 7666,
      "Ġrefugee": 7667,
      "Ġimplant": 7668,
      "Ġgenetically": 7669,
      "Ġitems": 7670,
      "ĠCEO": 7671,
      "Ġownership": 7672,
      "keepers": 7673,
      "Ġconclude": 7674,
      "Ġsuspended": 7675,
      "Ġmiserable": 7676,
      "Ġchimpanz": 7677,
      "ĠBeijing": 7678,
      "Ġcigaret": 7679,
      "itudes": 7680,
      "ĠSunday": 7681,
      "auc": 7682,
      "dig": 7683,
      "fly": 7684,
      "ket": 7685,
      "mony": 7686,
      "pen": 7687,
      "ship": 7688,
      "walk": 7689,
      "Ġx": 7690,
      "Ġtear": 7691,
      "Ġtubes": 7692,
      "Ġwid": 7693,
      "Ġwaters": 7694,
      "Ġsink": 7695,
      "atural": 7696,
      "Ġcash": 7697,
      "Ġbiz": 7698,
      "Ġhire": 7699,
      "aped": 7700,
      "Ġpause": 7701,
      "Ġpandem": 7702,
      "Ġfib": 7703,
      "Ġfires": 7704,
      "Ġfought": 7705,
      "Ġdressed": 7706,
      "orida": 7707,
      "lege": 7708,
      "Ġnit": 7709,
      "Ġnerd": 7710,
      "utical": 7711,
      "Ġanno": 7712,
      "olic": 7713,
      "Ġhealing": 7714,
      "Ġwhatso": 7715,
      "Ġchips": 7716,
      "umes": 7717,
      "Ġmaxim": 7718,
      "Ġbutt": 7719,
      "ĠAug": 7720,
      "Ġplastics": 7721,
      "Whether": 7722,
      "ĠMom": 7723,
      "ĠMicrosoft": 7724,
      "agen": 7725,
      "Ġexped": 7726,
      "ĠHenry": 7727,
      "ffect": 7728,
      "ĠPlease": 7729,
      "eps": 7730,
      "Ġgotta": 7731,
      "ĠLike": 7732,
      "irect": 7733,
      "Ġemerge": 7734,
      "ishment": 7735,
      "ĠOur": 7736,
      "Ġfactories": 7737,
      "ords": 7738,
      "Ġinvolve": 7739,
      "Ġfounded": 7740,
      "Ġmonit": 7741,
      "Ġextension": 7742,
      "Ġattitude": 7743,
      "Ġedges": 7744,
      "Ġengines": 7745,
      "Ġconfused": 7746,
      "Ġheadlines": 7747,
      "Ġopposed": 7748,
      "Ġglobalization": 7749,
      "Ġkiller": 7750,
      "Ġglaci": 7751,
      "Ġexperimental": 7752,
      "Ġsecrets": 7753,
      "Ġprogramming": 7754,
      "ĠHoward": 7755,
      "Ġviewer": 7756,
      "Ġjoint": 7757,
      "Ġdifficulty": 7758,
      "mingly": 7759,
      "Ġdaughters": 7760,
      "Ġeleg": 7761,
      "Ġoperations": 7762,
      "Ġnonprofit": 7763,
      "Ġbreakfast": 7764,
      "Ġinspire": 7765,
      "itution": 7766,
      "Ġfacilities": 7767,
      "Ġreducing": 7768,
      "Ġproposed": 7769,
      "Ġpromote": 7770,
      "Ġsuffered": 7771,
      "Ġbedroom": 7772,
      "Within": 7773,
      "Ġprimarily": 7774,
      "Ġthreatened": 7775,
      "Ġimmediate": 7776,
      "Ġinfection": 7777,
      "Ġuniversities": 7778,
      "Ġsouthern": 7779,
      "Ġtissues": 7780,
      "Ġpreparing": 7781,
      "Ġdiagnosis": 7782,
      "ĠBlue": 7783,
      "Ġanalyze": 7784,
      "Ġweapon": 7785,
      "Ġpige": 7786,
      "Ġfortune": 7787,
      "Ġhabitat": 7788,
      "Ġsubstance": 7789,
      "Ġgarage": 7790,
      "Ġpursuit": 7791,
      "Ġkingdom": 7792,
      "ĠFlorida": 7793,
      "Ġtransparent": 7794,
      "Ġfederal": 7795,
      "Ġisolated": 7796,
      "Ġskept": 7797,
      "Ġmakers": 7798,
      "Ġmerely": 7799,
      "Ġprocedure": 7800,
      "ĠFebruary": 7801,
      "Ġremembered": 7802,
      "Remember": 7803,
      "ĠSpanish": 7804,
      "Ġweeke": 7805,
      "Ġbizarre": 7806,
      "Ġwhatsoever": 7807,
      "18": 7808,
      "BM": 7809,
      "Back": 7810,
      "Four": 7811,
      "Good": 7812,
      "Number": 7813,
      "OL": 7814,
      "Spe": 7815,
      "Voice": 7816,
      "free": 7817,
      "mill": 7818,
      "rich": 7819,
      "tical": 7820,
      "vis": 7821,
      "zens": 7822,
      "Ġthrew": 7823,
      "ini": 7824,
      "Ġwired": 7825,
      "Ġsin": 7826,
      "Ġsisters": 7827,
      "Ġcute": 7828,
      "isy": 7829,
      "Ġmate": 7830,
      "eda": 7831,
      "ari": 7832,
      "asm": 7833,
      "icial": 7834,
      "Ġnodes": 7835,
      "Ġnaked": 7836,
      "ownt": 7837,
      "Ġbell": 7838,
      "Ġrethink": 7839,
      "Ġonstage": 7840,
      "Ġdozens": 7841,
      "stone": 7842,
      "Ġash": 7843,
      "Ġshifting": 7844,
      "Ġours": 7845,
      "Ġtech": 7846,
      "Ġupset": 7847,
      "Ġactors": 7848,
      "mental": 7849,
      "ardo": 7850,
      "abul": 7851,
      "ĠBon": 7852,
      "ĠBol": 7853,
      "Ġmanager": 7854,
      "Ġmanagers": 7855,
      "aceutical": 7856,
      "ĠTex": 7857,
      "Ġunemploy": 7858,
      "icked": 7859,
      "ĠJim": 7860,
      "Ġsmiling": 7861,
      "Ġincor": 7862,
      "Ġremaining": 7863,
      "Ġ33": 7864,
      "Ġartwork": 7865,
      "Ġpointing": 7866,
      "oca": 7867,
      "Ġcompleted": 7868,
      "Ġcrew": 7869,
      "Ġattribut": 7870,
      "cedented": 7871,
      "Ġeconomist": 7872,
      "Ġgenerous": 7873,
      "Ġfung": 7874,
      "ĠVir": 7875,
      "Ġpreserve": 7876,
      "Ġ2001": 7877,
      "Ġaircraft": 7878,
      "otted": 7879,
      "Ġretina": 7880,
      "Ġfreely": 7881,
      "Ġtrains": 7882,
      "iences": 7883,
      "aws": 7884,
      "Ġinvestors": 7885,
      "Ġlanded": 7886,
      "Ġgrandparents": 7887,
      "Ġdrawings": 7888,
      "Ġarray": 7889,
      "Ġmarath": 7890,
      "Ġprinter": 7891,
      "Ġmobility": 7892,
      "Ġfunds": 7893,
      "Ġmindset": 7894,
      "ĠIslands": 7895,
      "Ġmiracle": 7896,
      "Ġmagnetic": 7897,
      "Ġspectacular": 7898,
      "Ġhanging": 7899,
      "Ġpenguin": 7900,
      "Ġwidely": 7901,
      "Ġfabulous": 7902,
      "Ġroute": 7903,
      "Ġpreviously": 7904,
      "Ġshelter": 7905,
      "Ġenterpr": 7906,
      "Ġtunnel": 7907,
      "ĠAbra": 7908,
      "ĠBrook": 7909,
      "American": 7910,
      "ollywood": 7911,
      "Ġpharmaceutical": 7912,
      "Ġconservative": 7913,
      "Ġretirement": 7914,
      "Ġproportion": 7915,
      "Ġprosperity": 7916,
      "Ġparalyzed": 7917,
      "Ġmatrix": 7918,
      "Ġemphas": 7919,
      "Ġunprecedented": 7920,
      "ĠOctober": 7921,
      "Lad": 7922,
      "jo": 7923,
      "produ": 7924,
      "tail": 7925,
      "yal": 7926,
      "Ġtip": 7927,
      "eron": 7928,
      "Ġcas": 7929,
      "Ġhiding": 7930,
      "onic": 7931,
      "Ġpunch": 7932,
      "esters": 7933,
      "ancing": 7934,
      "Ġdiver": 7935,
      "Ġlone": 7936,
      "Ġgig": 7937,
      "Ġnom": 7938,
      "Ġnative": 7939,
      "Ġnerve": 7940,
      "Ġwet": 7941,
      "Ġwhis": 7942,
      "Ġbeating": 7943,
      "Ġrecess": 7944,
      "iders": 7945,
      "Ġstrain": 7946,
      "Ġstability": 7947,
      "Ġstored": 7948,
      "keys": 7949,
      "thur": 7950,
      "Ġsharp": 7951,
      "Ġmeals": 7952,
      "ulin": 7953,
      "usted": 7954,
      "Ġdece": 7955,
      "ĠSim": 7956,
      "ĠMarch": 7957,
      "ĠMiss": 7958,
      "Ġcompos": 7959,
      "Ġexpans": 7960,
      "Ġdonor": 7961,
      "ĠHy": 7962,
      "ĠTan": 7963,
      "ĠTwo": 7964,
      "Ġclay": 7965,
      "ĠDV": 7966,
      "ĠDad": 7967,
      "Ġarmed": 7968,
      "Ġdescription": 7969,
      "Ġgras": 7970,
      "Ġcommod": 7971,
      "Ġwriters": 7972,
      "arsh": 7973,
      "Ġtragic": 7974,
      "Ġblame": 7975,
      "Ġinterrupt": 7976,
      "Ġintervention": 7977,
      "Ġarticles": 7978,
      "Ġrecall": 7979,
      "Ġhomework": 7980,
      "Ġbiote": 7981,
      "Ġvalid": 7982,
      "Ġfiguring": 7983,
      "Ġglimp": 7984,
      "Ġ85": 7985,
      "Ġsexy": 7986,
      "Ġdelay": 7987,
      "Ġcommunications": 7988,
      "venth": 7989,
      "Ġcalories": 7990,
      "Ġgeek": 7991,
      "Ġobserve": 7992,
      "Ġobservation": 7993,
      "Ġresponses": 7994,
      "ascular": 7995,
      "Ġimmigr": 7996,
      "Ġfavel": 7997,
      "ĠFriday": 7998,
      "Ġleaf": 7999,
      "Ġaccounts": 8000,
      "Ġpanels": 8001,
      "Ġhopes": 8002,
      "Ġcapitalism": 8003,
      "Ġstraightforward": 8004,
      "Ġheaven": 8005,
      "uddenly": 8006,
      "ĠBlack": 8007,
      "ĠCollege": 8008,
      "ĠScott": 8009,
      "Ġdenial": 8010,
      "Ġvoting": 8011,
      "Ġmammals": 8012,
      "Ġphysician": 8013,
      "Ġintuition": 8014,
      "ĠNeander": 8015,
      "Ġbriefly": 8016,
      "Ġfortunate": 8017,
      "Ġinfinite": 8018,
      "Ġbubbles": 8019,
      "Ġtongue": 8020,
      "Ġwedding": 8021,
      "Ġubiquitous": 8022,
      "ĠUganda": 8023,
      "ĠSoviet": 8024,
      "ĠTexas": 8025,
      "Int": 8026,
      "Ste": 8027,
      "creat": 8028,
      "dollar": 8029,
      "half": 8030,
      "iology": 8031,
      "made": 8032,
      "rian": 8033,
      "wind": 8034,
      "Ġaward": 8035,
      "inarily": 8036,
      "ndrome": 8037,
      "erved": 8038,
      "osaur": 8039,
      "Ġmurd": 8040,
      "Ġpile": 8041,
      "Ġfiring": 8042,
      "Ġinches": 8043,
      "eday": 8044,
      "ĠInt": 8045,
      "igation": 8046,
      "amas": 8047,
      "Ġchron": 8048,
      "Ġdelic": 8049,
      "Ġalien": 8050,
      "Ġouts": 8051,
      "Ġtriang": 8052,
      "Ġupd": 8053,
      "elf": 8054,
      "Ġplug": 8055,
      "ĠCD": 8056,
      "ĠMount": 8057,
      "agon": 8058,
      "Ġnowadays": 8059,
      "ĠDesign": 8060,
      "Ġarrow": 8061,
      "Ġdisabled": 8062,
      "Ġmood": 8063,
      "Ġamate": 8064,
      "ĠWol": 8065,
      "athered": 8066,
      "neg": 8067,
      "Ġtranscend": 8068,
      "Ġbelieves": 8069,
      "obile": 8070,
      "Ġslums": 8071,
      "Ġhardware": 8072,
      "Ġelite": 8073,
      "Ġformula": 8074,
      "Ġelected": 8075,
      "Ġcurrency": 8076,
      "Ġdevil": 8077,
      "Ġexcit": 8078,
      "Ġbottles": 8079,
      "Ġdeliber": 8080,
      "Ġgrandchildren": 8081,
      "Ġarguing": 8082,
      "Ġpersonalized": 8083,
      "ĠWhich": 8084,
      "Ġtemporary": 8085,
      "Ġperformed": 8086,
      "Ġsupporting": 8087,
      "Ġterrifying": 8088,
      "Ġsmartphone": 8089,
      "Ġpredicted": 8090,
      "Ġmechanisms": 8091,
      "Ġemerged": 8092,
      "Ġignored": 8093,
      "Ġclinics": 8094,
      "Ġdespair": 8095,
      "Ġsalt": 8096,
      "ĠSpace": 8097,
      "Ġwealthy": 8098,
      "ĠQu": 8099,
      "ĠQue": 8100,
      "Ġannounced": 8101,
      "Ġprofoundly": 8102,
      "ademy": 8103,
      "Ġguns": 8104,
      "Ġbroadcast": 8105,
      "Ġunconscious": 8106,
      "Ġambig": 8107,
      "Ġclaims": 8108,
      "ĠNorway": 8109,
      "Ġnewspapers": 8110,
      "Ġecosystems": 8111,
      "rolled": 8112,
      "Ġbags": 8113,
      "Ġexpanding": 8114,
      "Ġillustrate": 8115,
      "Secondly": 8116,
      "Ġperceived": 8117,
      "Ġqualities": 8118,
      "ĠResearch": 8119,
      "Ġbathroom": 8120,
      "Ġhormone": 8121,
      "Ġtackle": 8122,
      "ĠPalestin": 8123,
      "Ġdatabase": 8124,
      "Ġvertical": 8125,
      "Ġfragile": 8126,
      "Ġtragedy": 8127,
      "Obviously": 8128,
      "ĠAugust": 8129,
      "12": 8130,
      "19": 8131,
      "Cl": 8132,
      "Come": 8133,
      "DA": 8134,
      "EC": 8135,
      "Es": 8136,
      "Five": 8137,
      "Suddenly": 8138,
      "Turn": 8139,
      "bra": 8140,
      "four": 8141,
      "fold": 8142,
      "py": 8143,
      "ĠThen": 8144,
      "inter": 8145,
      "inity": 8146,
      "rey": 8147,
      "oug": 8148,
      "ounder": 8149,
      "itage": 8150,
      "Ġbatt": 8151,
      "encing": 8152,
      "Ġhub": 8153,
      "ona": 8154,
      "Ġtooth": 8155,
      "Ġdose": 8156,
      "Ġlin": 8157,
      "uther": 8158,
      "ctu": 8159,
      "idi": 8160,
      "Ġhabits": 8161,
      "cean": 8162,
      "Ġwashing": 8163,
      "amine": 8164,
      "racies": 8165,
      "Ġshipping": 8166,
      "ading": 8167,
      "Ġcomments": 8168,
      "ilize": 8169,
      "ilty": 8170,
      "Ġjunk": 8171,
      "Ġchop": 8172,
      "Ġmycel": 8173,
      "Ġrice": 8174,
      "Ġconce": 8175,
      "atever": 8176,
      "ntil": 8177,
      "Ġalph": 8178,
      "Ġintim": 8179,
      "Ġintro": 8180,
      "andering": 8181,
      "ĠSl": 8182,
      "ĠMill": 8183,
      "izers": 8184,
      "ĠBy": 8185,
      "Ġpercept": 8186,
      "Ġagent": 8187,
      "Ġaggress": 8188,
      "Ġuniform": 8189,
      "ĠNations": 8190,
      "Ġpartly": 8191,
      "Ġbackyard": 8192,
      "ounding": 8193,
      "Ġacid": 8194,
      "Ġads": 8195,
      "Ġrealizing": 8196,
      "Ġbrush": 8197,
      "percent": 8198,
      "ĠChurch": 8199,
      "Ġsimult": 8200,
      "Ġguard": 8201,
      "Ġendang": 8202,
      "ĠItaly": 8203,
      "Ġbasket": 8204,
      "Ġcaring": 8205,
      "Ġinterconnected": 8206,
      "Ġpointed": 8207,
      "Ġ2050": 8208,
      "Ġcareg": 8209,
      "Ġdemo": 8210,
      "Ġbiologists": 8211,
      "ĠIndones": 8212,
      "ashed": 8213,
      "Ġlocated": 8214,
      "Ġpositions": 8215,
      "Ġtreatments": 8216,
      "Ġspeaks": 8217,
      "Ġaudio": 8218,
      "Ġvariation": 8219,
      "ĠWhite": 8220,
      "Ġsurvived": 8221,
      "Ġnearby": 8222,
      "Ġrobotics": 8223,
      "bye": 8224,
      "Ġgeomet": 8225,
      "Ġbeneath": 8226,
      "leton": 8227,
      "Ġcircles": 8228,
      "Ġexperiencing": 8229,
      "Ġdegrad": 8230,
      "Ġbrave": 8231,
      "Ġerrors": 8232,
      "Ġactivate": 8233,
      "Ġexception": 8234,
      "Ġdamaged": 8235,
      "Ġprisoners": 8236,
      "ylac": 8237,
      "Ġglasses": 8238,
      "Ġreminds": 8239,
      "ĠIranian": 8240,
      "Ġofficer": 8241,
      "ĠIsraeli": 8242,
      "Ġsurrounding": 8243,
      "Ġgraduated": 8244,
      "Ġpuzzles": 8245,
      "ĠPlay": 8246,
      "ĠNorthern": 8247,
      "Ġburned": 8248,
      "Ġvolunteer": 8249,
      "Ġtransmit": 8250,
      "Ġstimul": 8251,
      "Ġneuroscient": 8252,
      "Ġgarbage": 8253,
      "Ġgradually": 8254,
      "Ġreinvent": 8255,
      "Ġceremony": 8256,
      "Ġcandidate": 8257,
      "ĠAcademy": 8258,
      "Ġautonomous": 8259,
      "Ġnavigate": 8260,
      "Ġcomparison": 8261,
      "Ġflexible": 8262,
      "Ġarrested": 8263,
      "Ġdevastating": 8264,
      "Ġstorytelling": 8265,
      "Ġcollapsed": 8266,
      "Ġathletes": 8267,
      "Ġguarantee": 8268,
      "ĠMandela": 8269,
      "ĠJesus": 8270,
      "Ladies": 8271,
      "Ġexcitement": 8272,
      "Comp": 8273,
      "En": 8274,
      "Le": 8275,
      "None": 8276,
      "Six": 8277,
      "aired": 8278,
      "des": 8279,
      "grad": 8280,
      "hh": 8281,
      "lves": 8282,
      "pace": 8283,
      "uilt": 8284,
      "yo": 8285,
      "Ġtact": 8286,
      "Ġtune": 8287,
      "reh": 8288,
      "Ġod": 8289,
      "Ġcree": 8290,
      "Ġcert": 8291,
      "osn": 8292,
      "Ġbite": 8293,
      "Ġbump": 8294,
      "Ġbored": 8295,
      "Ġfile": 8296,
      "Ġlit": 8297,
      "oma": 8298,
      "Ġgate": 8299,
      "imination": 8300,
      "three": 8301,
      "Ġselves": 8302,
      "Ġasleep": 8303,
      "ila": 8304,
      "Ġjelly": 8305,
      "essor": 8306,
      "essions": 8307,
      "ested": 8308,
      "Ġlock": 8309,
      "Ġbutter": 8310,
      "Ġtends": 8311,
      "ĠSen": 8312,
      "ĠCor": 8313,
      "ĠCath": 8314,
      "ĠMedic": 8315,
      "Ġtag": 8316,
      "ĠBron": 8317,
      "ĠTy": 8318,
      "Ġtwist": 8319,
      "Ġclot": 8320,
      "ĠPan": 8321,
      "ĠDa": 8322,
      "ĠNic": 8323,
      "Ġ29": 8324,
      "Ġrope": 8325,
      "Ġlottery": 8326,
      "ĠRay": 8327,
      "ĠRiver": 8328,
      "ĠFrom": 8329,
      "ĠWalk": 8330,
      "Ġsmoking": 8331,
      "rence": 8332,
      "Ġcrimes": 8333,
      "Ġcrows": 8334,
      "Ġguerr": 8335,
      "Ġinsulin": 8336,
      "Ġsciences": 8337,
      "Ġdrown": 8338,
      "Ġartistic": 8339,
      "Ġkidney": 8340,
      "Ġstranger": 8341,
      "ĠStage": 8342,
      "phony": 8343,
      "Ġdemands": 8344,
      "Ġcaps": 8345,
      "Ġpresents": 8346,
      "Ġeducate": 8347,
      "Ġmembr": 8348,
      "Ġcharming": 8349,
      "reme": 8350,
      "Ġexcl": 8351,
      "Ġdiagram": 8352,
      "Ġstructural": 8353,
      "Ġlistened": 8354,
      "Ġradically": 8355,
      "Ġfailures": 8356,
      "ometown": 8357,
      "Ġdemocracies": 8358,
      "Ġhybr": 8359,
      "Ġtraditions": 8360,
      "Ġembod": 8361,
      "Ġbreaks": 8362,
      "Ġcyl": 8363,
      "Ġauthors": 8364,
      "Ġsilk": 8365,
      "Ġarrange": 8366,
      "Ġmarine": 8367,
      "ĠLego": 8368,
      "ĠLeban": 8369,
      "Ġflowing": 8370,
      "Ġtendency": 8371,
      "China": 8372,
      "Ġdivision": 8373,
      "Ġdamn": 8374,
      "Ġthreats": 8375,
      "Ġsignificantly": 8376,
      "Ġmagnific": 8377,
      "Ġrolling": 8378,
      "Ġinnovations": 8379,
      "orgeous": 8380,
      "Ġverb": 8381,
      "Ġconsequence": 8382,
      "Ġreveals": 8383,
      "Ġbullet": 8384,
      "Ġexpertise": 8385,
      "Ġratio": 8386,
      "Ġexhibition": 8387,
      "ĠTurkey": 8388,
      "Ġgenetics": 8389,
      "Ġvocal": 8390,
      "Ġbarrier": 8391,
      "Ġrituals": 8392,
      "ĠJewish": 8393,
      "Ġdesperately": 8394,
      "Ġbesides": 8395,
      "Ġobstacles": 8396,
      "Ġscenario": 8397,
      "Ġgrocer": 8398,
      "ĠDetro": 8399,
      "Ġschizophrenia": 8400,
      "istotle": 8401,
      "ĠNorden": 8402,
      "AM": 8403,
      "John": 8404,
      "MA": 8405,
      "Man": 8406,
      "bling": 8407,
      "cre": 8408,
      "dis": 8409,
      "gments": 8410,
      "hist": 8411,
      "net": 8412,
      "pass": 8413,
      "sch": 8414,
      "west": 8415,
      "Ġtone": 8416,
      "Ġoy": 8417,
      "ati": 8418,
      "erry": 8419,
      "oust": 8420,
      "isc": 8421,
      "Ġbin": 8422,
      "Ġbind": 8423,
      "inger": 8424,
      "Ġhors": 8425,
      "apor": 8426,
      "apore": 8427,
      "Ġdent": 8428,
      "Ġdil": 8429,
      "Ġdumb": 8430,
      "Ġdownt": 8431,
      "Ġles": 8432,
      "oto": 8433,
      "Ġgh": 8434,
      "Ġgases": 8435,
      "Ġreci": 8436,
      "eren": 8437,
      "sec": 8438,
      "sell": 8439,
      "Ġshit": 8440,
      "aded": 8441,
      "Ġmeg": 8442,
      "Ġneck": 8443,
      "Ġdeals": 8444,
      "Ġvit": 8445,
      "Ġvia": 8446,
      "ĠAp": 8447,
      "ĠAny": 8448,
      "Ġspill": 8449,
      "Ġspons": 8450,
      "Ġspont": 8451,
      "ĠSuper": 8452,
      "Ġyourselves": 8453,
      "ĠCamb": 8454,
      "ĠMod": 8455,
      "asty": 8456,
      "ghai": 8457,
      "ansas": 8458,
      "ĠBay": 8459,
      "Ġmanif": 8460,
      "ĠGore": 8461,
      "Ġunable": 8462,
      "Ġpride": 8463,
      "Ġcovers": 8464,
      "Ġdiscr": 8465,
      "Ġrocks": 8466,
      "Ġcontag": 8467,
      "Ġresolve": 8468,
      "Ġbrows": 8469,
      "Ġowned": 8470,
      "Ġscholars": 8471,
      "Ġcourses": 8472,
      "Ġ31": 8473,
      "Ġmonkeys": 8474,
      "cycl": 8475,
      "Ġmeter": 8476,
      "Ġeditor": 8477,
      "Ġsocially": 8478,
      "ogram": 8479,
      "Ġsett": 8480,
      "Ġautistic": 8481,
      "Ġmarker": 8482,
      "Ġkills": 8483,
      "Ġnights": 8484,
      "Ġbeautifully": 8485,
      "ucks": 8486,
      "Ġcontinuing": 8487,
      "Ġ700": 8488,
      "Ġ800": 8489,
      "atson": 8490,
      "ĠBrian": 8491,
      "Ġopera": 8492,
      "Ġsafer": 8493,
      "Ġsurviv": 8494,
      "Ġcivic": 8495,
      "Ġapproaches": 8496,
      "Ġarchitectural": 8497,
      "Ġaffecting": 8498,
      "ugal": 8499,
      "Ġmainstream": 8500,
      "Ġposted": 8501,
      "ĠZeal": 8502,
      "Ġasteroid": 8503,
      "Ġburied": 8504,
      "Ġcompete": 8505,
      "Ġreactions": 8506,
      "Ġdivor": 8507,
      "Ġwheels": 8508,
      "laim": 8509,
      "Ġpacked": 8510,
      "Ġmathematic": 8511,
      "Ġpurposes": 8512,
      "Ġthrowing": 8513,
      "ĠOrgan": 8514,
      "Ġteenager": 8515,
      "Ġdimension": 8516,
      "iberia": 8517,
      "Ġreconstruct": 8518,
      "Ġsymbols": 8519,
      "Ġclimbing": 8520,
      "Ġcorporations": 8521,
      "Ġsatellites": 8522,
      "Ġticket": 8523,
      "Ġnutrients": 8524,
      "Ġagreement": 8525,
      "Ġmosquitos": 8526,
      "Ġnegoti": 8527,
      "Ġimprovis": 8528,
      "Ġshrimp": 8529,
      "Ġbarriers": 8530,
      "Ġconstraints": 8531,
      "Ġcousin": 8532,
      "Ġabandoned": 8533,
      "ephen": 8534,
      "Ġsurfaces": 8535,
      "Ġcolumn": 8536,
      "ĠNGOs": 8537,
      "Ġcompromise": 8538,
      "Ġenthus": 8539,
      "Ġendangered": 8540,
      "ĠIndonesia": 8541,
      "Ġrecipe": 8542,
      "ĠCambod": 8543,
      "CL": 8544,
      "Ge": 8545,
      "Global": 8546,
      "born": 8547,
      "col": 8548,
      "press": 8549,
      "tra": 8550,
      "uine": 8551,
      "va": 8552,
      "ville": 8553,
      "working": 8554,
      "Ġthylac": 8555,
      "Ġsulf": 8556,
      "Ġcub": 8557,
      "Ġcows": 8558,
      "osity": 8559,
      "Ġhal": 8560,
      "Ġpir": 8561,
      "anghai": 8562,
      "Ġinn": 8563,
      "Ġinher": 8564,
      "eds": 8565,
      "edge": 8566,
      "Ġlanes": 8567,
      "vember": 8568,
      "utan": 8569,
      "quis": 8570,
      "idges": 8571,
      "imal": 8572,
      "Ġstatic": 8573,
      "road": 8574,
      "ifer": 8575,
      "Ġsho": 8576,
      "Ġrivers": 8577,
      "Ġalb": 8578,
      "Ġspider": 8579,
      "ĠSou": 8580,
      "ĠSom": 8581,
      "Ġtriv": 8582,
      "ĠCould": 8583,
      "ĠCour": 8584,
      "ĠCyrus": 8585,
      "Ġsacred": 8586,
      "Ġsuck": 8587,
      "izz": 8588,
      "ĠBel": 8589,
      "ĠHill": 8590,
      "aching": 8591,
      "ĠTit": 8592,
      "ĠTel": 8593,
      "ĠGet": 8594,
      "Ġhappily": 8595,
      "Ġclue": 8596,
      "ĠDutch": 8597,
      "ĠNet": 8598,
      "ĠNature": 8599,
      "epher": 8600,
      "Ġsheets": 8601,
      "ĠLab": 8602,
      "ĠRome": 8603,
      "ictor": 8604,
      "Ġoffering": 8605,
      "Ġwrap": 8606,
      "Ġgenuine": 8607,
      "Ġtrail": 8608,
      "Ġtraject": 8609,
      "Ġowner": 8610,
      "Ġinsane": 8611,
      "peare": 8612,
      "Ġinterventions": 8613,
      "Ġstrip": 8614,
      "Ġmines": 8615,
      "Ġ1930": 8616,
      "Ġpatents": 8617,
      "Ġlake": 8618,
      "Ġparticle": 8619,
      "Ġterrain": 8620,
      "Ġcoup": 8621,
      "Ġsubway": 8622,
      "Ġformal": 8623,
      "Ġheaded": 8624,
      "boo": 8625,
      "Ġrestrict": 8626,
      "Ġprofile": 8627,
      "Ġcondoms": 8628,
      "aneous": 8629,
      "ĠNovember": 8630,
      "Ġinvesting": 8631,
      "Ġaudiences": 8632,
      "elson": 8633,
      "Ġincluded": 8634,
      "ugment": 8635,
      "evin": 8636,
      "Ġimmense": 8637,
      "Ġdomain": 8638,
      "Ġreports": 8639,
      "akespeare": 8640,
      "Ġecological": 8641,
      "Ġsweat": 8642,
      "ĠSwiss": 8643,
      "Ġstrategic": 8644,
      "Ġpackage": 8645,
      "Ġcalculations": 8646,
      "Ġinterviews": 8647,
      "Ġapplying": 8648,
      "Ġfolding": 8649,
      "Ġhistoric": 8650,
      "Ġteenage": 8651,
      "Ġcandy": 8652,
      "etti": 8653,
      "Ġindependence": 8654,
      "Ġmeasures": 8655,
      "ĠKorean": 8656,
      "Ġpairs": 8657,
      "Ġterrorism": 8658,
      "Ġdictionaries": 8659,
      "Ġtower": 8660,
      "ĠParkinson": 8661,
      "Art": 8662,
      "Ġanalogy": 8663,
      "burgh": 8664,
      "Ġcandidates": 8665,
      "Ġhormones": 8666,
      "Ġhunting": 8667,
      "Ġwhistle": 8668,
      "Ġacknowled": 8669,
      "Ġcontemporary": 8670,
      "Ġprostate": 8671,
      "Ġadolescent": 8672,
      "ĠCounty": 8673,
      "Ġclusters": 8674,
      "Ġchapter": 8675,
      "ĠRosling": 8676,
      "ĠCarolina": 8677,
      "Ġunbelievable": 8678,
      "Ġrecommend": 8679,
      "digit": 8680,
      "Ġpandemic": 8681,
      "ĠVirgin": 8682,
      "ĠDVD": 8683,
      "ĠBronx": 8684,
      "ĠZealand": 8685,
      "BA": 8686,
      "BC": 8687,
      "Life": 8688,
      "away": 8689,
      "aware": 8690,
      "gression": 8691,
      "iop": 8692,
      "law": 8693,
      "nut": 8694,
      "uber": 8695,
      "Ġtale": 8696,
      "Ġthresh": 8697,
      "real": 8698,
      "Ġoct": 8699,
      "Ġsco": 8700,
      "Ġsons": 8701,
      "Ġhometown": 8702,
      "Ġfate": 8703,
      "Ġfiber": 8704,
      "Ġdys": 8705,
      "Ġdrought": 8706,
      "Ġinhab": 8707,
      "arry": 8708,
      "oted": 8709,
      "Ġgained": 8710,
      "Ġgathered": 8711,
      "Third": 8712,
      "Ġstamp": 8713,
      "cher": 8714,
      "iful": 8715,
      "irts": 8716,
      "Ġanat": 8717,
      "Ġdood": 8718,
      "Ġsew": 8719,
      "outs": 8720,
      "illance": 8721,
      "Ġneoc": 8722,
      "ilitation": 8723,
      "Ġsoap": 8724,
      "Ġorient": 8725,
      "Ġspo": 8726,
      "Ġspray": 8727,
      "ĠSanta": 8728,
      "Ġsake": 8729,
      "izer": 8730,
      "reating": 8731,
      "Ġlean": 8732,
      "Ġperpet": 8733,
      "Ġmanual": 8734,
      "Ġagents": 8735,
      "ĠEs": 8736,
      "Ġprisons": 8737,
      "ĠProf": 8738,
      "Ġbucks": 8739,
      "eping": 8740,
      "enses": 8741,
      "Ġpockets": 8742,
      "berry": 8743,
      "ĠRoy": 8744,
      "Ġdeserve": 8745,
      "cover": 8746,
      "ĠFar": 8747,
      "ĠFour": 8748,
      "Ġsyndrome": 8749,
      "ĠOcean": 8750,
      "ĠJose": 8751,
      "ĠJud": 8752,
      "ĠJuly": 8753,
      "ĠJosh": 8754,
      "Ġincl": 8755,
      "Ġscaff": 8756,
      "Ġmayor": 8757,
      "Ġgenoc": 8758,
      "Ġtrace": 8759,
      "ĠChile": 8760,
      "Ġobt": 8761,
      "Ġkeys": 8762,
      "obs": 8763,
      "Ġfoundations": 8764,
      "Ġstrict": 8765,
      "Ġmini": 8766,
      "Ġgrace": 8767,
      "Ġreaders": 8768,
      "Ġdemos": 8769,
      "Ġsubt": 8770,
      "Ġinfant": 8771,
      "Ġcapabilities": 8772,
      "Ġforming": 8773,
      "Ġconnects": 8774,
      "Ġtopics": 8775,
      "Ġcultiv": 8776,
      "ĠIndustrial": 8777,
      "Ġlocations": 8778,
      "Ġcollectively": 8779,
      "Ġparenting": 8780,
      "Ġdawn": 8781,
      "Ġtyping": 8782,
      "Ġfallen": 8783,
      "ĠShanghai": 8784,
      "Ġdestiny": 8785,
      "Ġrepresentative": 8786,
      "Ġblindness": 8787,
      "Ġprimitive": 8788,
      "Ġpanel": 8789,
      "Ġmagnet": 8790,
      "Ġscript": 8791,
      "Ġresponding": 8792,
      "Ġhonestly": 8793,
      "Ġshocked": 8794,
      "Ġclassrooms": 8795,
      "Ġgentleman": 8796,
      "Ġpigs": 8797,
      "Ġcooperate": 8798,
      "Ġtransmission": 8799,
      "Ġelementary": 8800,
      "Ġsimpler": 8801,
      "Ġsimplest": 8802,
      "Ġinstalled": 8803,
      "Ġsurgeons": 8804,
      "Ġofficials": 8805,
      "Ġpalm": 8806,
      "ĠTurk": 8807,
      "Ġjuice": 8808,
      "Ġgods": 8809,
      "itzer": 8810,
      "Ġfortunately": 8811,
      "Ġestimates": 8812,
      "ĠTEDTalks": 8813,
      "iatric": 8814,
      "Ġgesture": 8815,
      "Ġtrigger": 8816,
      "ĠAtlantic": 8817,
      "Ġportrait": 8818,
      "Ġdisturbing": 8819,
      "Ġexplosion": 8820,
      "Ġcorrespond": 8821,
      "ĠIceland": 8822,
      "Ġexcellent": 8823,
      "Ġlifespan": 8824,
      "Ġpyramid": 8825,
      "Ġmarathon": 8826,
      "Ġglimpse": 8827,
      "Ġmycelium": 8828,
      "Ġmagnificent": 8829,
      "cyclop": 8830,
      "Af": 8831,
      "BI": 8832,
      "Car": 8833,
      "De": 8834,
      "Ne": 8835,
      "TED": 8836,
      "cost": 8837,
      "effic": 8838,
      "gence": 8839,
      "nes": 8840,
      "uke": 8841,
      "via": 8842,
      "Ġties": 8843,
      "Ġaer": 8844,
      "Ġaugment": 8845,
      "Ġwires": 8846,
      "Ġsib": 8847,
      "Ġcabin": 8848,
      "Ġfits": 8849,
      "Ġfisher": 8850,
      "Ġdop": 8851,
      "oric": 8852,
      "Ġindu": 8853,
      "Ġgorgeous": 8854,
      "Ġnest": 8855,
      "usiness": 8856,
      "quarters": 8857,
      "urger": 8858,
      "Ġstom": 8859,
      "ching": 8860,
      "seen": 8861,
      "Ġabilities": 8862,
      "Ġshy": 8863,
      "Ġheal": 8864,
      "usting": 8865,
      "Ġjew": 8866,
      "Ġchess": 8867,
      "Ġrape": 8868,
      "Ġdear": 8869,
      "Ġsomeday": 8870,
      "Ġproven": 8871,
      "Ġconvey": 8872,
      "Ġalle": 8873,
      "Ġalign": 8874,
      "orted": 8875,
      "ĠColl": 8876,
      "ĠCoke": 8877,
      "Ġsail": 8878,
      "ĠMel": 8879,
      "ĠMag": 8880,
      "Ġexplicit": 8881,
      "ĠBob": 8882,
      "ĠHi": 8883,
      "ĠHong": 8884,
      "ĠTib": 8885,
      "ĠEth": 8886,
      "Ġcliff": 8887,
      "ĠPower": 8888,
      "Ġcoinc": 8889,
      "anged": 8890,
      "Ġambit": 8891,
      "ĠRock": 8892,
      "ĠWal": 8893,
      "ĠWait": 8894,
      "ĠWatson": 8895,
      "interest": 8896,
      "neys": 8897,
      "Ġracing": 8898,
      "Ġsimulation": 8899,
      "Ġcriter": 8900,
      "Ġreliable": 8901,
      "Ġcarc": 8902,
      "Ġinterven": 8903,
      "Ġstrike": 8904,
      "ĠStud": 8905,
      "Ġgrave": 8906,
      "Ġgrabb": 8907,
      "conomic": 8908,
      "Ġreclaim": 8909,
      "Ġ55": 8910,
      "Ġdemographic": 8911,
      "Ġpasses": 8912,
      "ribly": 8913,
      "ĠVictor": 8914,
      "Ġsignature": 8915,
      "otton": 8916,
      "Ġprofits": 8917,
      "Ġadvent": 8918,
      "Ġinvested": 8919,
      "Ġpsychologist": 8920,
      "Ġfriendly": 8921,
      "Ġcycles": 8922,
      "Ġdeadly": 8923,
      "Ġsumm": 8924,
      "Ġcamps": 8925,
      "Ġstepped": 8926,
      "ĠAsian": 8927,
      "Ġworthy": 8928,
      "Ġtransforming": 8929,
      "Ġchallenged": 8930,
      "Ġmarry": 8931,
      "Ġmarvel": 8932,
      "Ġmedication": 8933,
      "Ġmechanics": 8934,
      "Ġparticipation": 8935,
      "Ġbacterial": 8936,
      "Ġriding": 8937,
      "Ġgraphics": 8938,
      "Ġdetermines": 8939,
      "Ġsmells": 8940,
      "Ġlandscapes": 8941,
      "Ġportion": 8942,
      "Ġachievement": 8943,
      "Whereas": 8944,
      "Ġcovering": 8945,
      "Ġnuts": 8946,
      "Ġsexuality": 8947,
      "Ġingen": 8948,
      "Should": 8949,
      "ĠScot": 8950,
      "Ġairplanes": 8951,
      "Ġbanking": 8952,
      "Ġexerc": 8953,
      "Ġtalents": 8954,
      "Ġconcentration": 8955,
      "forestation": 8956,
      "ulses": 8957,
      "ĠWilliam": 8958,
      "Ġtelescopes": 8959,
      "Ġinitially": 8960,
      "Ġcybercr": 8961,
      "Ġhorizont": 8962,
      "Ġbribe": 8963,
      "Ġelectrodes": 8964,
      "Ġdiscipline": 8965,
      "Ġoccasionally": 8966,
      "Ġmysterious": 8967,
      "Ġorchestra": 8968,
      "rasound": 8969,
      "Ġhallucinations": 8970,
      "Ġsupermarket": 8971,
      "Ġlungs": 8972,
      "Ġexpansion": 8973,
      "Ġlinear": 8974,
      "Ġaggressive": 8975,
      "ĠCatholic": 8976,
      "epherd": 8977,
      "aeda": 8978,
      "oir": 8979,
      "rit": 8980,
      "rhythm": 8981,
      "spring": 8982,
      "uan": 8983,
      "vit": 8984,
      "Ġawe": 8985,
      "Ġtheore": 8986,
      "Ġsir": 8987,
      "Ġsne": 8988,
      "Ġslic": 8989,
      "osc": 8990,
      "Ġmapping": 8991,
      "Ġhired": 8992,
      "orage": 8993,
      "usal": 8994,
      "uty": 8995,
      "Ġreass": 8996,
      "Ġrewards": 8997,
      "urable": 8998,
      "Ġstake": 8999,
      "Ġstead": 9000,
      "Ġstaring": 9001,
      "changing": 9002,
      "ammed": 9003,
      "Ġseal": 9004,
      "Ġworms": 9005,
      "ilized": 9006,
      "Ġdeaf": 9007,
      "Ġconqu": 9008,
      "Ġloving": 9009,
      "Ġoutd": 9010,
      "Ġintensive": 9011,
      "ĠSand": 9012,
      "Ġupside": 9013,
      "elp": 9014,
      "Ġworkforce": 9015,
      "Ġcompreh": 9016,
      "Ġleverage": 9017,
      "ĠBre": 9018,
      "ĠHollywood": 9019,
      "acher": 9020,
      "ĠGlobal": 9021,
      "Ġclues": 9022,
      "ĠDoes": 9023,
      "Ġimpression": 9024,
      "Ġoverl": 9025,
      "looking": 9026,
      "Ġcontrary": 9027,
      "ĠRam": 9028,
      "Ġboost": 9029,
      "Ġboots": 9030,
      "otherap": 9031,
      "aken": 9032,
      "ĠJac": 9033,
      "Ġwrapped": 9034,
      "Ġfindings": 9035,
      "Ġtracks": 9036,
      "weight": 9037,
      "Ġraises": 9038,
      "Ġbuilds": 9039,
      "Ġobese": 9040,
      "Ġbelieving": 9041,
      "Ġcarries": 9042,
      "plus": 9043,
      "Ġmode": 9044,
      "Ġ1900": 9045,
      "Ġlawn": 9046,
      "Ġbush": 9047,
      "Ġbio": 9048,
      "Ġvisually": 9049,
      "Ġmomentum": 9050,
      "Ġinterestingly": 9051,
      "Ġstopping": 9052,
      "ĠNews": 9053,
      "Ġbadly": 9054,
      "Ġbreeding": 9055,
      "Ġcheat": 9056,
      "Ġdeepest": 9057,
      "Ġengineered": 9058,
      "ushed": 9059,
      "ometer": 9060,
      "Ġpsychologists": 9061,
      "ĠShakespeare": 9062,
      "Ġredesign": 9063,
      "unting": 9064,
      "Ġsuggestion": 9065,
      "Ġbrands": 9066,
      "Ġpropag": 9067,
      "Ġproposal": 9068,
      "Ġimmort": 9069,
      "Ġmarg": 9070,
      "Ġstraw": 9071,
      "Nothing": 9072,
      "Ġcompeting": 9073,
      "Ġcompetitive": 9074,
      "ĠLeon": 9075,
      "Ġconsciously": 9076,
      "Ġinstitutional": 9077,
      "Ġepis": 9078,
      "Ġauthorities": 9079,
      "Ġappearance": 9080,
      "Ġwildlife": 9081,
      "Ġenjo": 9082,
      "Ġfraction": 9083,
      "Ġjumped": 9084,
      "Ġdiscovering": 9085,
      "Ġcorrupt": 9086,
      "Ġinterviewed": 9087,
[...]
